#version: 0.2
Ġ t
h e
Ġ a
i n
Ġt he
o u
Ġ w
r e
Ġ s
h a
o n
e r
Ġ b
n d
i t
i s
Ġ c
Ġ m
Ġ Ċ
Ġ o
Ġ d
Ġ f
in g
l l
Ġ y
Ġt o
a n
e d
o r
ha t
Ġy ou
e n
e s
Ġ p
Ġ g
Ġ l
a r
Ġa nd
Ġo f
a s
Ġ in
Ġ n
a t
o m
o w
Ġ he
' s
Ġ h
o t
Ġ ha
Ġ it
e t
v e
Ġ I
l e
a y
Ġt h
Ġ on
i c
u s
Ġt hat
i d
Ġb e
g h
Ġ is
Ġ e
u t
l d
a l
Ġw e
Ġw as
o o
T he
' t
i m
k e
a c
v er
. .
gh t
Ġ re
a d
i r
Ġf or
s e
Ġ r
l y
en t
Ġd o
a m
i on
Ġs t
Ġ u
ou t
Ġ k
s t
Ġ =
â Ģ
Ġ S
it h
Ġm e
i ght
e a
Ġa n
Ġw ith
om e
Ġ A
he r
u r
Y ou
Ġg o
a ll
Ġa s
Ġ M
i ll
Ġs e
c h
Ġw h
Ġl i
Ġn ot
t er
ou ld
H e
Ġ i
Ġha ve
Ġ C
r o
Ġa t
Ġth is
Ġ B
Ġk n
c e
Ġa re
us t
i e
i l
an t
W hat
Ġh is
e ll
Ġthe y
a in
u n
a nd
Ġon e
c t
Ġf r
oo k
Ġkn ow
Ġ j
o p
Ġc an
ea h
.. .
Ġthe re
o re
Ġyou r
u m
O h
Ġhe r
Ġn e
N o
Ġu p
Ġd on
Ġha d
Ġs o
Ġw hat
Ġ "
Ġa ll
Ġs he
Ġ T
Ġm y
g e
Y eah
p p
Ġs a
Ġs h
r i
Ġw he
x x
Ġli ke
Ġ The
ou r
Ġ P
oo d
Ġd e
A nd
Ġ 1
I t
t h
Ġ out
Ġh im
o l
a b
ac k
in k
u l
' re
a ke
Ġa b
r y
Ġ W
i g
Ġp l
Ġa l
ar t
Ġg et
re d
Ġb ut
c k
Ġfr om
Ġ D
ha n
er s
Ġwe re
e l
Ġ G
Ġse e
ver y
Ġo r
at ion
es s
Ġ H
T hat
Ġd id
Ġs u
es t
is t
' m
Ġb y
Ġ F
Ġthe m
am e
in d
r a
o s
ou nd
Ġ L
q u
ar d
on g
it t
Ġ J
n t
Ġn o
Ġ R
Ġg ot
n a
ow n
Ġc om
on e
Ġs ome
Ġth ink
as t
Ġ us
Ġw or
Ġab out
Ġhe re
Ġs p
Ġ 2
Ġw ant
Ġsa id
re s
i ve
i f
' ll
Ġj ust
e m
all y
e p
Ġ Ġ
Ġw ould
a k
Ġc on
o d
Ġl ook
at e
Ġ v
Ġ E
ic e
Ġi f
Ġwh o
a p
Ġe x
b er
Ġ N
Ġm an
or t
im e
ic h
âĢ ľ
Ġwhe n
Ġan y
v en
ou gh
in e
us e
ic k
âĢ Ŀ
Ġn ow
k ay
f e
Ġr ight
Ġ (
h ing
Ġthe n
Ġw ill
Ġt w
âĢ Ļ
Ġs ay
id e
itt le
e ar
Ġ He
. "
Ġt r
i es
Y es
Ġ O
a g
ou s
c a
t her
Ġin t
W e
Ġb o
' ve
W h
o st
Ġp ro
- -
Ġl ittle
o se
w ay
Ġgo ing
Ġa g
Ġbe en
Ġd own
ot her
Ġc h
Ġt ime
Ġc ould
Ġb ack
Ġ1 9
Ġb r
Ġc l
Ġg ood
Ġm ore
Ġthe ir
ĠI t
Ġp ut
Ġa r
Ġha s
Ġto o
ac e
Ġ2 0
Ġof f
Ġo ver
it y
Ġ very
ca use
Ġwh ich
l f
Ġp e
W ell
it e
re e
Ġg r
i p
u d
T h
is h
Ġtw o
Ġo ther
W he
The re
Ġ qu
, "
a re
u re
Ġth ing
Ġ K
Ġf e
B ut
Ġl e
D o
o ve
m y
Ġa f
Ġpl ay
n e
O kay
re at
xx x
Ġ '
Ġ xxx
u e
he d
Ġc ome
or n
f t
Ġ .
Ġb l
i an
om et
on d
ou ght
m ent
op le
on na
Ġr o
t y
a ge
as s
ir st
Ġ er
Ġint o
i re
al k
i a
ad e
Ġw ay
ur n
Ġg onna
Ġh ow
i v
Ġag ain
Ġ en
Ġwhe re
Ġm ake
S o
Ġt han
i ld
at er
Ġpe ople
Ġwor k
Ġp r
ou nt
p l
Ġdo es
b le
as e
Ġc all
Ġ U
Ġd ay
Ġwe ll
u ck
ar y
Ġf irst
Ġs omet
Ġt ake
Ġc o
Ġa m
is s
Ġt ell
u ch
s o
Ġc ar
u h
Ġne ed
I s
Ġme an
n g
r an
Ġaf ter
The y
ĠS t
or d
p e
nd er
Th is
Ġp art
Ġb et
Ġf l
f f
w e
p er
f ore
p t
Ġ our
se lf
Ġon ly
i le
w n
Ġl et
u ll
m er
o v
Whe re
u b
ac h
y s
at her
Ġth r
Ġsh ould
S he
ar k
Ġt e
Ġe very
ac t
c i
a v
Ġdid n
ĠĠ ĠĠ
Ġm uch
Ġu n
Ġs ha
ou se
Ġm ade
res s
Ġthe se
o ck
ad y
re n
Ġha nd
th ing
Ġb ig
Ġha pp
t ing
Ġy ear
ir l
oo l
Ġc ha
a u
Ġl ong
i ed
Ġd is
Ġre ally
Ġp re
Ġsomet hing
c l
m an
Ġs m
Ġa d
Ġg u
o b
o g
L ook
e e
i z
Ġ âĢľ
an na
d ay
ab le
t e
c c
Ġw ent
e w
Ġbe fore
at ed
Ġbe cause
or y
U h
ion s
Ġ ke
a ve
od y
an g
Ġa way
Ġs c
b e
Ġhe l
p s
' d
o ll
H ow
Ġu nder
Ġw r
C an
Ġo ld
Ġ V
Ġg irl
I n
Ġ im
Wh y
v ing
ĠM r
Ġre m
i x
ĠI n
Ġc ame
? "
Ġdo ing
n y
Ġal so
ic t
f ul
o ld
L et
Ġne ver
at h
Ġth ought
l es
t ain
N ow
Ġh ome
Ġt alk
is e
at ch
Ġp er
Ġa pp
Ġas k
Ġp o
Ġth ree
Ġth ose
Ġw anna
Ġa ct
en ce
Ġm ay
0 0
g g
w ard
h m
ri ed
d y
Ġc r
or s
Ġthing s
Ġne w
Ġe ven
R ight
Ġm ust
Ġman y
Ġg reat
p en
o h
C ome
Ġb u
Ġm om
Ġe at
i ous
v ed
Ġf ind
Ġthr ough
on s
D on
an ce
A re
Ġcom p
Ġh ouse
ĠS he
X xx
o c
ab y
k s
Ġhe ad
le ase
Ġb it
ie nd
he s
a il
i ly
a it
. âĢĿ
l and
o ot
Ġcall ed
Ġg ive
Ġw on
Ġl ast
Ġhel p
Ġs l
Ġf ound
Ġst ill
u p
Ġt urn
in t
ĠC h
o y
Ġdon e
Wh o
Ġ20 1
Ġst art
Ġan other
a ir
Ġm ight
Ġbo y
Ġhapp en
g et
e ct
um my
an s
ĠT h
Ġl ea
r d
Ġch ild
Ġs er
Ġn ight
Ġbe l
ig n
Ġm in
He re
Ġl ove
m ed
v es
b ody
r u
Ġl ot
Ġre s
Ġe l
i gh
Ġsh ow
Ġn ame
Ġc han
ak ing
ĠU n
Ġt ry
I f
ot h
x t
a w
M hm
i ver
m s
a h
ar s
Ġfr iend
op e
Ġ Y
Ġit s
s ide
Ġo wn
Ġis n
Ġd if
Ġcon t
B e
Ġc he
u ally
Ġk ind
ch ool
one y
e ver
os s
M m
at es
ul t
, âĢĿ
al s
Ġcom m
em ber
Ġg l
l ing
Ġm ost
Ġbet ter
ĠThe y
Ġc are
Ġb ook
Ġ You
Ġb aby
Ġbe ing
Ġse c
Ġw ater
Ġc ount
! "
Ġe y
w w
Ġre c
N ot
Ġus ed
ic al
Ġyear s
D id
im es
Ġpl ace
Ġe nd
l ed
way s
re nt
ĠA nd
Ġfe el
p ort
Ġm ov
Ġsu ch
it ed
Ġar ound
p h
Ġsu re
ot t
Ġwh y
ing s
Ġc our
in ce
Ġke ep
Ġel se
Ġo pen
Ġn ice
am p
Ġf our
Ġli fe
in n
en s
Ġu h
T han
Ġany thing
Ġs ame
Ġd es
ut e
A ll
Ġd ad
Ġsu pp
Ġdoes n
an c
i ke
A h
Ġe ar
He y
S t
Ġb re
Ġo kay
Ġwh ile
Ġsa w
or ry
r ow
Ġr un
ĠB r
Ġf in
e re
t he
u c
Ġbe c
or m
Ġs chool
U m
out h
Ġto ld
Ġbe g
Ġs w
ation s
at ter
Ġm other
E R
Ġb us
Ġd r
s s
Ġle ft
it ion
M y
Ġf ar
Ġal ways
Ġ 3
au ght
ĠB ut
ic an
Ġy eah
ï ¿
ï¿ ½
ct ion
Ġs et
u nd
Ġm on
Ġwe e
Ġne xt
ir d
id ent
i b
o on
le ep
Ġ No
Ġy es
Ġsp e
Ġwor d
Ġe le
on t
Ġm en
Ġf ather
Ġtoo k
Ġha rd
um p
Ġdif fe
Ġe ver
G o
Ġf am
p r
Ġat t
J ust
u g
n ess
G ood
Ġn um
Ġc le
Ġg one
Ġu nt
Ġro om
Ġp res
ve l
Ġc ol
he n
Ġus e
m p
Ġf un
t a
I N
ĠA mer
b y
Ġre ad
Ġs it
Ġ20 0
Ġth ough
Ġw om
Ġw ait
r ight
m ber
v ent
Ġp ol
ĠM ar
â Ļ
Ġin d
Ġst op
un g
Ġen ough
is hed
orn ing
Ġcom ing
Ġm oney
is ter
Ġer m
Whe n
O n
re am
Ġs ur
âĻ ª
Ġw ar
ers on
in s
Ġb ed
Ġhe ar
ow er
s h
Ġa c
Ġre t
a z
g er
Ġey es
Ġdo or
" .
ak es
Ġa cc
Ġyou ng
pe ct
Ġm ar
Ġask ed
O ne
The n
Ġunt il
u ff
Than k
Ġp lease
Ġre al
re w
i er
ĠA r
Ġst r
i red
Ġf ive
ĠA l
he re
Ġqu ite
Ġbel ie
Ġk ill
Ġm orning
Ġre g
ou p
Ġp ass
Ġse en
H E
Ġs ide
as h
Ġl ight
as ed
m b
Ġcour se
Ġf ace
c es
Ġgo es
re t
ĠF ran
Ġd ist
Ġ _
Ġb est
Ġw alk
Ġr ound
Ġne ar
Ġfe w
Ġo b
oll ow
Ġnot hing
Ġwor ld
ĠTh is
A l
ation al
Ġh ur
Ġdiffe rent
H m
i al
ell ow
Ġs ing
ro ss
ft a
ra w
h uh
re en
Ġknow n
Ġsm all
an k
Ġ ent
Ġst ay
et s
Ġcha r
as ter
Ġs k
Ġsha ll
Ġ20 2
Ġs ix
Ġsay s
ou n
Ġy et
i ble
Ġdo g
we en
Ġre l
Ġso on
Ġon ce
m e
d er
t s
Ġup on
Ġc ap
n ing
Ġt er
Ġf ire
Ġst and
âĢ ĵ
Ġp h
Ġha fta
Ġre d
us h
ent s
) ,
er y
Ġhe ard
Ġm il
ur ing
Ġlook ing
o e
Ġb ro
ct or
Ġs leep
get her
Ġto gether
e red
Ġget ting
Ġw ind
en er
) .
Ġsec ond
Ġb ad
ea k
ĠA n
Ġde ar
Ġrem ember
ĠC ha
Ġb oth
un e
Ġh old
Ġchild ren
b ut
Ġe ach
Ġto day
Ġm ind
et h
âĢ Ķ
i pp
ab ly
Ġwith out
an y
r ist
Ġlook ed
or th
Be cause
as on
ĠĠĠĠ ĠĠĠĠ
a le
ic s
Ġl ar
Ġhim self
Ġd ri
Ġu m
Ġ hat
Ġbet ween
Ġre st
â Į
if e
A n
S ee
Ġnum ber
g ed
l ess
Ġlea ve
Ġl ist
oh n
u res
Ġw atch
ul ar
ll o
Ġhappen ed
Ġ1 8
t on
Ġha lf
Ġf ollow
Ġp erson
Ġwant ed
i o
am es
Ġtr ain
Ġf all
Ġha ving
Ġdad dy
Ġpre t
Ġ What
Ġde c
Ġf oot
it s
Ġs n
Ġhand s
Ġkn ew
ĠE ng
fe ct
m ost
ĠD e
or k
ĠThe re
E r
Ġp ie
se l
Ġha ven
Ġl ater
Ġb all
Ġm us
Ġin st
os ed
Ġs orry
at ing
Ġm atter
g r
Ġo h
Ġs ort
i et
ĠW e
a ut
ĠN ew
? âĢĿ
Ġcon s
Ġ 4
S h
Ġhe art
Ġw ond
Ġpo int
er tain
Ġh igh
d d
m a
Ġm ummy
c hed
ĠUn ited
Ġan s
Ġg ave
o or
ĠA s
Ġal ong
at s
Ġday s
Ġ19 9
ĠAmer ican
ĠW h
Ġpret ty
Ġh our
G et
Ġli ve
Ġa ir
Ġc ity
an e
ci al
Ġagain st
Ġp op
Ġt ra
it her
in es
Ġbo ys
Ġre ady
c le
ter n
u al
er n
A N
Ġ id
st and
at t
P ut
Ġm iss
Ġevery thing
Ġh or
Ġst ory
j ect
Ġ ?
-- --
Ġd ied
in a
ub l
b all
ce pt
" ,
Ġm ove
w o
a pp
H ave
p art
in ess
p ed
cl ud
Ġwas n
Ġin v
Ġd ire
Ġt ri
is ed
Ġs y
ent y
ull y
Ġbre ak
Ġto p
Ġfam ily
Ġan im
Ġdis c
Ġbelie ve
o k
Ġbr ing
O U
ut h
Ġs ound
Ġad d
ĠI nd
o le
Ġst e
ow s
Ġwho le
t en
ĠG od
Ġsay ing
is ion
us s
Ġm aking
ie f
Ġc a
Ġstart ed
M ay
Ġs ince
Ġb orn
Ġas s
Ġst ud
Ġ 5
Ġc ur
Ġc ut
ï¿½ ï¿½
Ġmom ent
Ġsu b
Ġto wn
Ġp ick
id d
a id
ĠMr s
ak en
ver n
You r
f ter
a x
ill y
c ed
un t
Ġde l
o ke
b ably
Ġp ur
Ġwh ite
Ġret urn
ter s
Ġl and
Ġc ent
ere st
ie ld
re ady
ot e
| |
Ġact ually
y e
Ġdr ink
ant s
IN G
Ġgr and
Ġwond er
or row
Ġf ood
Ġme et
Ġte am
a j
om as
Ġbu ild
Ġs ir
in ed
Ġin f
ust r
o ice
er t
Ġwould n
Ġbec ame
ver s
e c
F or
Ġtalk ing
Ã ©
Ġbeg an
Ġp ict
Ġfe et
Ġs we
Ġm et
ww w
Ġint erest
Ġs on
Ġal most
Ġbr other
Ġim p
ot s
Ġlook s
Ġs ong
ĠM iss
Ġbo x
Ġha ir
Ġunder stand
ĠSt ates
Ġqu est
Ġre p
Ġs ign
Ġp oss
Ġcount ry
ĠThe n
o es
Ġal ready
Ġwr ong
Ġp ap
und red
C h
Ġg ame
w here
Ġh ot
Ġcl ose
Ġt re
Ġmin ute
Ġtry ing
Ġin c
Ġe ight
is on
Ġcom es
Ġwom an
Ġbl ack
i k
ward s
Ġs ent
ou d
ĠG er
e b
Ġj ob
He llo
Ġ19 8
el t
Ġe as
on y
y ing
H uh
Ġs at
ĠC l
a red
Ġin clud
Ġplay ed
at ive
Ġp ain
Ġle g
Ġp ay
Ġf act
Ġt en
am a
Ġbl ue
it al
ĠI s
ĠB l
Ġbe aut
M om
it ies
S ha
Ġfriend s
ĠS p
c ess
Ġid ea
ĠP r
! âĢĿ
Ġt imes
Ġl ost
Ġl au
Ġre f
te nd
Ġk id
Ġle ad
O N
A s
ĠG r
Ġh undred
iver s
ĠS o
et er
Ġd ro
ke y
ol og
ct ed
ĠJ ohn
H A
Ġgirl s
Ġgot ta
e y
d u
ent ly
Ġg i
h ind
1 9
Ġbr ought
Ġf ull
en e
Ġmom my
Ġf ight
Ġco ll
Ġsee med
Ġgu ess
es e
T o
Ġde ad
b o
Ġs qu
Ġpro bably
ag es
ur y
D ad
r ic
Ġcon f
Do es
Ġf ine
Ġc ertain
Ġpl an
Ġa w
Ġ ,
ar l
Ġhapp y
Ġr an
M ummy
Ġg reen
Ġmus ic
Ġ 6
Ġqu ick
Ġturn ed
Ġst uff
air s
Ġpart y
Ġsp eak
ll y
Ġmov ie
Ġd uring
Ġh ope
n er
Ġc at
Ġbe ar
Ġh uh
ha ps
Ġmean s
Ġwee k
o ber
l ish
st er
Ġmon th
h ip
id ed
n ed
Ġsh ort
e ad
c y
ac es
Ġg ener
Ġ Z
e nd
May be
Ġpro ble
ĠA t
Ġab le
S ome
et e
ut es
Ġl ear
en se
if ul
Ġoff ic
Ġbe hind
Ġs im
u red
Ġcha ir
Ġs un
Ġ19 7
un ch
Ġex pl
Ġp le
Ġon es
p le
f or
ĠA ll
Ġcol or
Ġof ten
iv es
Ġt aken
a ur
Ġh um
Ġyour self
ar r
Ġde ath
Ġpr om
ĠK ing
ou ble
Ġplay ing
Ġpo or
Ġare n
Ġcom pl
Ġre pl
ĠT HE
w er
ĠB e
Ġc ook
Ġf ore
ĠH ow
Ġt able
Ġcould n
Ġ ed
L ike
r om
Ġlist en
Ġfor m
Ġex c
Ġl ate
Ġim port
s on
Ġ es
ĠCh rist
Ġ 7
Ġ 8
y ou
Ġin ter
Ġout side
Ġst re
A t
O r
ĠC om
ne y
e ed
ro om
i am
pp ed
itt ing
iz e
Ġp ull
z z
T wo
Ġf ell
Ġen g
P lease
iz ed
O R
Ġwant s
t o
Ġl ess
ĠS c
f ully
ir th
Ġmy self
sel ves
Ġe v
inn er
b r
ĠT hat
ĠGer man
ro g
Ġro ck
ment s
Ġd raw
Ġword s
on es
Ġm ine
Ġthan k
Ġlar ge
ran ge
Ġb ar
Ġmay be
ou ch
Ġm ark
ĠH is
Ġbus iness
he ad
Ġd ark
Ġd ress
ard s
Ġ Q
Ġm ed
Ġmin utes
Ġw ife
Ġv is
e g
id es
Ġt ill
Ġfr ont
E S
Ġb ird
Ġm ain
ĠJ ack
a im
Ġro ad
Ġf elt
Ġb ott
Ġr ather
Ġhor se
Ġa ge
if ic
id er
ou b
M r
Ġ âĢĵ
Ġt aking
us ed
m en
Ġs ister
ri es
ap e
ĠM ay
n ot
Ġco ld
Ġar t
ĠT om
am ed
Ġsh ip
e x
as k
z e
ĠW hen
en n
Ġm outh
Ġgu y
Ġ Oh
Ġex t
Ġt ree
A R
ie w
Ġgi ven
Ġl ady
Ġhur t
Ġcont in
Ġc ase
Ġv oice
g an
Ġst ate
ir ty
ent ion
t ed
Ġst ick
Ġstr ong
ist s
b orn
re st
Ġrec ord
ha m
Ġag o
Ġl ad
Ġser v
Ġm akes
ĠF or
Ġp ower
Ġj o
Ġm ag
Ġw ood
Al right
Sha ll
Ġe m
Ġc ry
g in
Ġb ody
Ġpres ent
Ġ19 6
ren ch
a ld
ac hed
aught er
Ġe ither
Ġin side
g y
Ġte le
Ġb irth
Ġbeaut iful
ĠEng lish
Ġl ine
Ġchan ge
en g
Ġf if
el s
Ġin s
ĠP h
ĠO n
Ġal one
Ġbo at
Ġli k
b it
Ġswe et
ĠS h
Ġwe ar
Ġl oc
are nt
Ġm ess
Ġgr ound
Ġfun ny
Ġother s
ian s
Ġ 9
Ġtr ue
Ġimport ant
Ġp at
m ing
um b
Ġo cc
r ing
Ġp ast
ĠC ount
Ġp ri
Ġp ubl
ious ly
Ġs il
Ġgo vern
Ġle ast
c hes
Ġtw enty
Ġsomet imes
W ith
Ġn at
Ġc ir
Ġf air
b ed
ow ing
Ġc ried
E N
Ġw ish
ain ed
Ġsome one
Ġf ast
u es
00 0
Ġto m
Ġcl ass
Ġpie ce
Ġpro v
en ed
L L
Ġ z
ĠB ob
Ġear ly
Ġf av
Ġs ea
Ġor der
is m
ĠI f
Ġl ay
id ge
ĠJ an
Ġc reat
Ġde al
Ġd ar
re ad
Ġt y
Ġad v
Ġg un
Ġ1 0
H i
f fe
ic ha
M e
op s
Ġbu y
Ġwork ing
Ġtr ans
Ġwom en
le y
Ġ âĻª
iv ing
et y
d uc
Uh huh
ĠBr it
k en
ĠFran ce
Ġfl oor
Ġpict ure
Ġmil k
Ġgr oup
Ġse ver
Ġcle ar
Ġpap er
f ic
Ġs um
Ġb ag
Ġl aw
Ġdo ll
Ġfor g
ate ly
Ġh on
at or
Ġf uck
Ġw in
ha r
Ġnew s
Ġh ung
il t
f ort
Ġse ven
Ġquest ion
Ġare a
ic a
Ġgu ys
Ġ ĠĊ
E very
Ġt ried
Ġbl ood
I I
st em
er v
Ġl o
it ing
Ġf ish
Ġn in
Ġb ur
id ing
ĠH ar
Ġfin ished
Ġsever al
ove red
an a
Ġac ross
Ġcle an
Ġgl ad
Ġth omas
ea red
u ary
ain s
Ġc up
Ġ202 0
ĠH er
ep t
ĠW ill
Ġj ump
ow ed
Ġre ce
u ly
ren ce
Ġanim als
Ġt ea
Ġ [
e or
Ġex pect
or ld
W ait
er ing
Ġp os
Ġkill ed
Ġc amp
Ġf ellow
Ġf ree
Ġcomp any
ĠF l
ra z
Ġre ason
Ġcl ot
f ord
ĠC an
Ġso ld
Ġthink ing
Ġpr ot
E x
Ġpol it
Ġm ill
ut ion
ac ed
Ġ -
is c
Ġre le
ous and
it er
2 0
Ġh it
ur ch
ang u
Ġhe ld
Ġam ong
r ict
ap an
Ġd inner
Ġex p
u ed
ra id
iv ed
os p
T ER
Ġde part
o x
Ġm od
B l
ar a
Ġw all
ar ch
ra ph
W ould
oo f
Ġv ill
Wh ich
Ġo pp
A ny
Ġbec ome
Ġpart ic
g es
Ġke pt
Ġd a
ivers ity
Ġchan ce
ĠF rench
Ġ19 5
Ġcar ry
Ġad m
c ri
t hat
Ġli ved
f ess
T ake
i um
Ġst ra
Ġst ood
ir t
Ġ !
Ġcon c
Ġher self
Ġse nd
ound s
Ġ ice
Ġdo ctor
Ġdar ling
em ent
ic es
Ġth ousand
I S
oll y
T ell
Ġs al
Ġwr ite
ĠCount y
un k
we red
ro p
Ġan n
Ġsur pr
ud e
al th
Ġtr ouble
Ġe gg
Ġp en
d e
ĠY ork
b and
Ġbook s
Ġsome body
Ġc orn
Ġst ep
Ġf ur
Ġb and
Ġde f
C l
ĠJ apan
Ġus ually
Ġy ellow
Ġatt ack
ang er
Ġget s
Ġst ar
dd en
Ġf ig
Ġrepl ied
Ġp ost
ro l
Ġ19 4
Ġf ing
Ġc or
Ġsy stem
c il
Ġqu iet
Ġ1 7
y l
Ġf il
Ġans wered
te en
Ġfoot ball
Ġaf raid
itt en
Ġl ov
r act
m on
Ġr a
ic ally
ĠW orld
Ġbirth day
Ġ Yes
Ġ X
b um
Ġrun ning
inn ing
ear s
Ġproble m
Ġf ly
ĠJan uary
Mom my
Ġli ving
Ġn orth
ĠC ap
Ġsh op
Ġp ot
Ġsu dden
Ġm er
Ġwind ow
ion al
in c
ĠE ur
Ġk ing
W ill
al ity
Ġhe av
m as
Ġm ount
Ġhour s
Ġhis t
ĠCha r
it c
Ġt ouch
Ġha r
Ġal right
Ġn amed
ĠMar ch
ur al
p ing
Ġno se
a ul
Ġthem selves
Ġp u
Ġans wer
il ity
Ġc ross
Ġar m
Ġf ix
Er m
Ġt em
ug ust
Ġf rog
c ha
Ġor d
od e
Ġl angu
ain t
ent le
ow ers
I T
R E
Ġlau gh
Ġlet ter
idd le
Ġmar ried
Dad dy
Ġ1 5
th ough
Ġd aughter
Ġp ig
Ġrele ased
ĠP ro
Ġs itting
Ġex per
Ġt ired
ur s
i ent
Ġre port
S ay
Ġspe cial
Ġs and
Ġro ll
b s
Ġg ra
re ed
ĠC on
aj or
Ġc atch
r on
if f
Ġb ath
oo se
as ure
Ġte ac
Ġser ies
w h
Ġn ine
vel op
ore d
c om
Ġsupp ose
cc ess
Ġche ck
ĠW ar
Ġ ill
ĠE d
n o
Ġtom orrow
Ġj u
g ue
Ġh us
om an
Ġwith in
Ġknow s
Ġal bum
v ision
or ies
Ġd ra
Ġm ot
Ġclot hes
Ġyour s
Ġli ves
o int
Ġc ow
l s
Ġpass ed
V ery
Ġl ow
u it
pr il
Ġd ream
Ġp ar
ĠC ar
Ġgo ld
e v
Ġeas y
Ġgovern ment
ct ober
Ġspe c
Ġper haps
Ġk iss
The se
A fter
Ġmonth s
un ic
att le
Ġcl im
O f
l er
act ly
Ġr ain
Ġtr uck
ag er
A T
ĠBrit ish
Ġwhe ther
Ġwork ed
e en
ag ed
o ver
Ġsa il
Ġposs ible
Ġsee ms
ĠJ une
ĠS outh
ci ent
it ch
Ġde ep
Ġf ield
W ow
Ġd iv
Ġe vent
Ġy a
am b
Ġ1 2
Ġstra ight
Ġmov ed
ve mber
Ġt on
aim ed
ĠD on
Ġs ca
Ġex cl
ard en
ul ation
un ny
Ġpro per
Ġd oub
Ã ¡
Ġc oup
Ġf a
c he
Ġres p
Ġkid s
Ġp ress
Ġcan not
Ġsing le
Ġwait ing
a i
her n
Ġhow ever
Ġsh ot
Ġd ie
Ġfor get
ce mber
Ġf it
Ġ1 6
ĠA ugust
ĠD o
Ġhus band
Ġh op
Ġr iver
ĠE l
p ar
Ġre ached
St op
Ġl a
Ġd anger
Ġ19 3
Ġsa fe
Ġchar ac
j oy
c ome
han t
S orry
Ġme mber
t le
ĠS w
m ore
ept ember
ri gin
Ġlot s
ĠJ im
Ġlove ly
ĠN orth
ĠEur ope
f ast
Ġph one
Ġ Yeah
ĠA d
Ġto ys
ĠB ar
H a
âĢ ĺ
Ġdif fic
Ġ *
W as
ru ary
ĠPh il
Ġm um
Ġso l
B r
Ġsh oes
Ġn ational
st airs
r al
Ġs ight
ud d
Ġso ft
Ġsu ccess
ĠG o
Ġcon st
Ġ â
l et
Ġh ors
e al
Ġg entle
ard on
ĠO ctober
w ell
g ing
O oh
Ġv ar
B ye
Ġsl ow
Ġl uck
Ġlong er
as er
i or
Ġcoup le
m and
ĠG eor
Ġapp ro
Ġevery body
eb ruary
A S
e an
Ġreturn ed
ĠO ne
id ay
ĠM an
Ġsn ow
H is
i ence
Ġc aught
Ġey e
ĠĠĠĠĠĠĠĠ ĠĠĠĠĠĠĠĠ
---- ----
G ive
Ġele ct
Ġab ove
Ġpol ice
Ġd et
ĠEng land
Ġthr ow
Ġeng ine
ĠFran k
Ġbro ken
Ġd at
Ġfav or
le x
Ġsee m
Ġgr ow
ĠC ol
ĠNo vember
Ġa in
Ġcomm on
Ġm ist
av id
Ġc os
ĠJ oe
L E
Ġneed s
Ġfor ward
Ġd am
Ġd est
Ġwor ry
Ġdepart ment
gr am
Ġt reat
Ġr ing
Ġfor mer
Ġs ick
ĠJ uly
Ġm ur
Ġoff ice
Ġes c
Ġth ird
ea lly
Ġst ation
Ġbo ard
ĠA fter
p es
ĠA pril
Ġfeel ing
by e
Ġa head
Ġo per
Ġab s
Ġha ng
Ġeven ing
Ġeat ing
ĠP res
Ġdri ve
Ġ ve
P l
ĠS eptember
ĠN ow
Ġch ick
ĠDe cember
Ġsha r
Ġe qu
og raph
ter day
Ġc al
at ure
Ġter ri
is ing
an ge
Ġar ms
Ġst ri
y n
g est
Ġmill ion
ĠA b
Ġhung ry
w hat
Ġquick ly
Ġar ri
Ġton ight
Ġde velop
ll ustr
ĠP ar
ĠP e
ond on
Ġtre es
Ġhum an
Ġf ear
Ġs ad
Ġany way
Ġcl ub
Ġnear ly
i en
Ġvis it
c on
om b
Ġtele vision
em y
amp le
Ġbuild ing
Ġf ill
gg est
r at
Ġp arent
k y
ĠY OU
Ġwar m
Ġreg ion
ĠF ebruary
Ġse at
Ġju ice
Ġsu per
Ġsec ret
Ġen joy
Ġvill age
ĠUn iversity
Ġchan ged
ĠM in
Ġopen ed
Ġw ild
Ġsu ggest
Ġis land
f fect
Ġno ise
n ow
' .
Ġplay er
Ġbu ilt
ĠT o
Ġstop ped
Ġ ]
Ġb ab
Ġsh ut
Ġ est
Ġl ed
Ġbro ke
oo ps
Ġpubl ic
Ġor gan
ĠC al
Ġkn ock
Ġsh oot
Ġa h
in y
Ġme ant
Ġput ting
Ġcare ful
Ġwhat ever
Ġwh om
Ġtell ing
Ġind eed
Ġb ow
Ġ ...
olog y
ustr al
Ġpro fess
Ġst at
Ġc ost
Ġfollow ed
Ġo rigin
ĠCap tain
Ġsupp ort
Ġdec ided
Ġsh out
e le
. '
Ġli e
ĠT r
Ġsupp osed
Ġcare er
ill s
mb ers
Ġpr ison
u k
Ġdis app
n oon
ip s
un ity
Ġgl ass
Ġse ason
Ġm ad
ff ic
Ġbr ight
Ġ1 1
ci ally
Ġst range
ĠP l
Ġc ool
Ġstand ing
Ġr ide
Ġbreak fast
ĠG u
Ġsa ve
ĠL e
Ġt est
Ġinst ead
om in
Ġwr itten
C HA
O M
R e
Ġadd ed
Ġst ore
ĠD r
osp ital
ĠM y
Ġa v
u el
Ġmil es
qu e
Ġafter noon
Ġp ark
Ġany one
Ġc re
Ġb reat
Ġcomm and
ce ed
Ġc ake
Ġg arden
Ġheav y
Ġr u
Ġsw im
Ġhe ll
Than ks
n et
ĠIt al
id ence
Ġv al
ĠP er
Ġd uck
Ġlear n
r ay
Ġp age
Ġpartic ular
ĠB en
Ġde cl
Ġper fect
ĠW ell
ĠS ome
Ġs illy
al es
Ġb es
Ġe ffect
us hed
ou l
Ġan g
Y ep
U n
Ġb as
Ġwee ks
S omet
Ġre qu
Ġprot ect
ĠS ha
ĠT O
Ġfollow ing
r or
Ġwork s
M um
Ġapp ear
b or
ĠA ustral
Ġw at
N D
Ġbott om
Ġs outh
Ġear th
Ġex actly
Ġbr own
in ing
il ed
Ġexcl aimed
n ight
ĠC ity
Ġ1 4
Ġdire ct
Ġb ought
Ġqu ar
Ġs us
Ġhappen s
ĠL ondon
ĠR ep
Ġyes terday
Ġbre ad
Ġinf orm
Ġtr ack
Ġm at
Ġ ir
Ġc ast
Ġpro p
ĠA f
Ġde v
ist en
Ġm iddle
Ġwho se
Ġpos ition
Ġpro du
ĠW est
Ġstre et
ĠN ational
Ġpro duc
Ġbl ock
e ge
Ġm is
Ġ âĮ
G r
d om
uth or
Ġp ack
Ġdoub t
Ġcertain ly
Ġwr ote
Ġcompl ete
Ġleg s
I C
Ġb urn
g o
Ġfar m
Ġbut ter
Ġpr act
Ġfor t
Ġbel ong
S ure
c o
Ġcap tain
Ġob ject
Ġtr uth
Ã Ń
ic ian
Ġpro gram
te red
Ġwor th
ĠR uss
R eally
Ġme mbers
Ġ1 3
Ġex cept
Ġus ing
Ġdist rict
G ot
Ġteac her
Ġv iew
oun cil
ĠM ary
Ġex ample
l ike
A r
Ġr ad
W ant
ĠB y
re y
l ie
ĠO F
oo p
Ġv i
art y
am er
Ġhas n
Ġsum mer
res ent
Ġlangu age
g ar
Ġgener al
ffe e
m in
Ġpl aces
Ġse ll
anc es
Ġg iving
Ġt ick
Ġco ver
Ġb an
ul a
E D
Ġch urch
ĠInd ian
O W
if t
itt ed
n el
Ġserv ice
et ty
ĠW ith
P TER
ĠĠĠĠ ĠĠ
Ġcir c
ĠO r
Ġh ol
M ore
Ġne ck
g n
is hing
r is
tern ational
f l
iz z
Th ree
Ġh ig
Ġhist ory
r it
Ġrece ived
bo ard
Th ose
en cy
Ġto wards
Ġde p
Ġcar ried
Ġf ail
Ġm aster
Not hing
Ġre v
Ġt ail
Ġd i
Ġle vel
CHA PTER
i ers
Ġ ought
Ġsome where
Ġpie ces
ub b
Ġcons ider
ĠN ot
Ġob s
Ġm ach
ĠL ord
itt y
Ġt akes
Ġha st
Ġca use
w ork
og n
as es
if ied
I llustr
Ġst uck
Ġfin ish
m ie
Ġt ast
ill e
and y
Ġc op
itc hen
Ġcon d
f er
anc y
, --
Ġcomp an
S p
Ġto t
c use
Ġinclud ing
Ġpre tend
t ime
a ff
Ġres ult
Ġdes cri
Ġgo d
res h
Ġcomm une
icha el
Ġm ajor
ay s
Ġl unch
Q u
Ġsp ace
l a
ĠA m
Ġde fe
b ur
mp ions
Ġsp ir
Ġsp oke
Ġfif ty
ĠThe se
ĠWh y
He l
ip e
Ġlea ving
as hing
Ġapp eared
Ġcharac ter
Ġany more
pe cially
Ġh ospital
Ġdiffic ult
Ġs ense
he l
Ġto ward
Ġbus y
Ġbe at
ĠPres ident
Ġparent s
Ġpop ulation
P ardon
Ġâ Ĩ
ĠS am
Ġh ole
G H
g ie
T HE
Ġsudden ly
Ġd ry
Ġtr ust
c ent
T H
Ġ3 0
T r
Ġany body
ord ing
ad a
ra p
Ġcont rol
Ġwatch ing
Ġor ange
Ġevery one
f orm
Ġp ort
Ġl ock
Ġfl owers
b ers
ĠM art
Ġcontin ued
Ġc ab
op h
Ġth irty
h ow
B y
Ġall owed
Ġim ag
Illustr ation
Ġte eth
t i
er ry
ipp ed
e ep
k ing
Ġh oney
oc ol
Ġwh is
Ġcom fort
ï¿½ï¿½ ï¿½ï¿½
g hed
gg y
o om
Ġk itchen
Ġcl os
es tern
i od
ig er
Ġcomp et
Ġwere n
in o
Ġne igh
Ġwalk ed
W atch
ed dy
Ġcur rent
Ġre ach
ic ed
Ġr ul
u ation
Ġfur ther
Ġse x
Ġst ru
Ġe mp
Ġexp ress
b out
Ġn or
ĠL ea
ro y
Ġp ounds
Ġdes ign
ĠAmer ica
re et
P er
Ġanim al
Ġac cept
Ġlik es
I D
Ġrec ogn
Ġsee ing
Ġr ace
e k
Ġm id
Ġf at
C ould
Ġt all
ĠM c
ĠC ent
Ġm ix
ut y
N e
Ġj our
Ġw et
Ġv ol
Ġcoll ect
HA T
Ġfig ure
he t
Ġrem ark
Ġ201 8
m m
Ġa part
Ġf le
Ġth ou
pe nd
ol ute
em pt
c er
Ġpop ular
raz y
Ġv ict
Ġgr ass
Ġv ide
Ġat e
Ġco ffee
Ġlau ghed
unic ip
as ant
Ġw ide
Ġbeg inning
Ġto r
Ġmov ing
Ġg ames
ĠN or
sh ip
Ġb ra
Ġl ose
ĠR e
Ġfuck ing
Ġspe nd
Ġg en
Ġhors es
U S
Ġcount y
Ġli ft
Ġal though
Ġty pe
l in
B aby
ĠD an
ber t
Ġcreat ed
Ġpres ident
ac y
Ġ19 2
Ġdro pped
el ve
it ions
Ġb ank
Ġg as
Ġpri v
al a
Ġmeet ing
il ing
Ġacc ount
il ar
W anna
Ġit self
Ġb ased
Ġcent ury
ad es
L isten
Ġa uthor
cl ock
Ġm oon
ri age
Ġsm ell
Ġent ire
ask et
l o
ĠGeor ge
Ġl im
ph one
Ġinform ation
Ġr ab
Ġne cess
ol ved
Ġdist ance
Ġwas h
P e
um e
Ġsp ot
Ġ202 1
Ġcorn er
w ood
ĠG l
ĠBr own
u ge
Ġsound s
st on
Ġpict ures
id a
B ig
Ġc ard
iss ion
Ġ2 5
Ġp ush
Ġdel ight
Ġres pect
ound ed
Ġj ud
Ġfe ed
U p
H er
Ġg rew
ĠE x
Ġlik ed
ut ure
as hed
ĠL ou
p or
Is n
ĠBl ack
Ġe ars
Ġcar s
Ġper iod
Ġp ock
Ġ vers
s c
Ġhe alth
Ġcap ital
. _
Ġc ell
ick s
Ġele p
it ive
Ġro b
Ġp ink
l t
n ie
O K
Ġbl ow
ra ft
F rom
ce ll
Ġsk y
ĠSp an
r iend
Ġc ream
1 0
Ġd anc
Ġd ig
A L
Ġb ull
ch n
Ġm atch
ĠG ood
Ġlet ters
Ġpart s
ĠGr and
Ġfam ous
Ġper for
p ly
ĠGerman y
ro ll
at o
Ġwalk ing
ĠS e
A Y
Ġse lf
H old
Ġinterest ing
Ġm ention
Ġshould n
Ġshow ed
S it
Ġl ab
oun ced
Ġloc al
Ġwonder ful
Ġfavor ite
i res
Ġche ese
ĠP ol
Ġfor ce
Ġinc re
i us
Ġm a
Ġan x
ist ed
Ġchick en
Ġhat e
o f
Ġar my
Ġ $
Ġal ive
, '
Uh oh
Ġwe l
Ġp aid
Ġha ll
Ġpol ic
Ġd ance
ĠP aul
ĠM ad
ri an
Ġn orm
Ġ âĢĺ
Ġs le
Ġh y
if orn
ĠQ ue
av es
Ġthe e
C he
ĠM ag
o ly
Ġn ames
Ġneed ed
iv il
Ġst ars
M ar
med i
Ġcr ow
c her
Ġr ose
Ġn one
d ie
Ġa ut
Ex cuse
ap er
f ield
Ġinterest ed
iv al
re l
Ġ #
ĠS u
Ġquest ions
Ġc razy
Ġ ï¿½
Ġforg ot
ĠE m
Ġs na
Ġh ous
so ci
Ġchar ge
Ġegg s
Ġf uture
Ġatt ention
o ff
Ġtr ad
ĠHow ever
E h
ust om
it ary
Ġwr iting
Ġser ious
Ġspe ed
Ġm m
Ġoffic er
l ight
v iously
ener al
ac ing
iforn ia
P ro
Ġpl ant
C om
ci ous
in ation
ĠâĨ Ĵ
ocol ate
pt ion
Ġhold ing
ĠT e
ĠL et
Ġt ape
_ ,
Ġbird s
Ġis s
r s
Ġb ene
Ġme m
1 8
s y
ri but
Ġcap t
Ġbott le
mpions hip
Ġl ying
Ġfing er
Ġfr aser
os aur
Ġk ick
ĠB ill
k es
Ġbig ger
Ġfin ally
Ġpr ay
âĮ ī
Ġdro p
Ġh ost
Ġh ide
il es
ĠR iver
id s
b ing
Ġph ot
" )
ĠI N
Ġke y
um ent
Ġf ool
ĠCom m
pl oy
is f
Ġcomp ut
Ġ201 9
d on
is es
up id
Ġr ap
Ġsub ject
Ġlov ed
ober t
ly mp
Ġm unicip
ĠHar ry
Ġvi ol
ĠWill iam
ut s
ĠQ u
Ġsurpr ise
M ake
Ġcon tain
An other
Ġcl osed
Ġch ief
Ġt it
Ġf ir
Ġm ass
Ġin n
Ġinf l
Ġt ur
Ġpl ate
Ġg ar
Ġcon ne
h ood
Ġbel ow
Ġproble ms
a f
an or
i ant
Ġsca red
Ġfil m
ed er
H as
et her
Ġshe ep
E T
Ġr id
il s
âĮ ĭ
Ġsm ile
A C
y a
Ġbr idge
Ġspec ies
Ġcount ries
w ise
Ġp et
ĠJ ust
Ġcry ing
Ġvide o
Ġsha re
g ain
n ame
Ġthan ks
ĠT H
ĠChrist mas
c han
h ouse
Ġpre p
Ġes pecially
ort s
Ġf re
im ent
Ġ2 4
ru g
Ġed uc
Ġterri ble
Ġsh ore
Ġacc ident
ĠB illy
all ey
eng th
ĠH ouse
A M
re g
icha rd
it es
il i
Ġf resh
ĠP arty
Ġcour t
Ġsh it
st r
ol ution
ie l
ĠG reat
ĠS y
Ġ( "
ĠCal ifornia
Ġf em
C ar
Ġslow ly
k in
Ġd ue
Sh ould
l ine
Ġser ved
Ġe p
E ven
le ct
ĠO lymp
ĠR oman
Ġhelp ed
om es
Ġas leep
Ġtw elve
gg ed
y le
Ġw est
Ġext ra
Ġinv est
Ġbe ll
S e
Ġch oo
s et
Ġ201 7
p ose
Ġb asket
Ġrem ain
Ġfr ight
ĠD avid
Ġc overed
Ġplay s
Ġapp le
Ġpu zz
ĠM a
V E
Ġinclud e
Ġpolit ician
T urn
Ġse par
Ġsp l
ad s
Ġl oud
Ġp al
ep end
ĠA ND
Ġv an
Ġjo ined
ic o
Ġex am
Ġpe ace
Ġt our
Ġhard ly
ĠP ark
Ġdog s
Ġf ol
ĠInd ia
Ġlike ly
ge l
con om
M an
Ġsp ent
Ġam ount
b our
land s
Ġask ing
Ġrep resent
Ġno body
Ġter m
v al
Ġmach ine
Ġacc om
Ġfore st
Ġsleep ing
Ġca used
ing ly
Ġpro cess
Ġway s
ĠS ec
ĠD ad
Ġby e
ĠB on
R em
ĠU S
n s
Ġlear ned
Ġsim ilar
Ġst age
Ġcrow d
ut en
Ġm ic
a use
Ġp ers
Ġd irty
On ly
Ġold er
Ġ2 1
ress ed
Ġread ing
Ġent ered
Ġtalk ed
ĠA unt
ĠLea gue
in ite
ĠT han
ĠP eter
Ġb ase
Ġlea ves
os es
Ġdire ction
Ġim medi
Ġ202 2
olute ly
Ġun cle
z er
er ve
ill a
Ġsp read
ĠP at
Ġatt empt
ci ence
ck s
y eah
Ġpick ed
ĠS m
Ġprom ise
os h
Ġdecl ared
Ġme at
Ġmon key
Ġst one
Ġstud y
Ġb attle
ol f
Ġco at
ar th
Ġwhe el
ĠE ast
ant ly
Ġear l
he m
ĠB etty
F our
Ġwor se
es us
ĠS ir
ĠL a
Ġch rist
as c
ĠM e
ist ory
Ġfor ty
Ġfing ers
Ġcr ack
y ond
en a
D e
a ven
ĠW here
' ?
Ġth y
Ġ ver
ad ed
Ġmount ain
Ġocc as
ree k
Ġto y
ĠRep ubl
Ġ ut
Ġr is
Ġsat isf
ens us
Ġconc ern
ĠGo vern
Ġcom b
Ġpock et
Ġsit uation
in ary
aught y
Ġj ack
Ġs ize
Ġfor th
m it
ast ic
ak er
ĠR ed
Th ink
ar m
Ġsp ring
ĠJapan ese
ott en
Ġm ama
Ġr ail
ĠO f
ĠWh o
Ġbro ad
iz ation
er ved
Ġnat ural
Ġdest roy
Ġsc r
ĠUn cle
Ġl ength
Ġse vent
Ġre pe
Ġrel ig
F irst
Ġc and
n am
Ġd en
Ġst ories
is y
Ġd in
N ever
Ġen c
Ġdoll ars
v a
O ops
Ġ2 3
Ġse arch
Ġgu ard
Ġr ich
Ġhe y
Ġl aid
ĠC ome
T ry
ort hern
re me
Ġwel come
Ġp ath
Ġen emy
Ġaf f
O ur
Ġh ill
er gy
um mer
ur day
Ġe mb
ĠMin ister
ord er
ĠS er
Ġlar gest
Ġ201 0
Ġne g
ĠA nt
A m
am s
Ġb ill
Ġhur ry
d o
Ġh m
ct ions
Ġe ast
g u
Ġsl ight
Ġsk in
Ġo w
O pen
Ġst upid
O T
est s
L ittle
Ġwin ter
an ny
ess ie
c ul
side red
Ġt iny
Ġcon sidered
k a
Ġb ite
Ġset t
Ġbe yond
ĠA ust
ar ah
Ġang ry
Ġmov ies
Ġ2 2
aster n
Bl ue
Ġre se
Ġag reed
G od
nd ed
Ġlead er
r ican
s he
Ġd eter
Ġj oy
Ġcall ing
ed d
Ġjo in
Ġbe ha
Ġdress ed
ll en
Ġro le
pp y
O w
Ġturn ing
T w
ous ly
z en
Ġt ight
Ġcl oud
ĠC oll
ĠJ ames
Ġstre ng
ograph y
oy al
Ġph ys
Ġsqu are
Ġelep hant
Ġshow s
S c
ĠAustral ia
ĠHe re
1 2
ol es
Ġdire cted
Ġresp ons
Ġposs ib
Ġd rew
Ġth rew
ell y
Ġfight ing
Ġ1 00
Ġp oo
Ġact ion
u x
Ġat tend
N ice
ĠM or
pp ing
L ea
ĠA re
Ġint ro
Ġsm art
ic ious
Ġfin al
Ġdri ving
Ġch ocolate
Ġc ult
Ġr ough
Ġvar ious
Ġbreat h
he red
it a
Ġdisc overed
the y
ĠI I
A D
u nder
Ġe ff
Ġcon v
Ġexpl ain
us es
fe rence
ha l
ar row
Ġra ised
Ġth ick
ĠF r
ct ure
ant a
Ġwat ched
st it
Ġsc ar
Ġsold iers
E le
ĠN e
Ġarri ved
ĠSt ate
Ġ201 1
Ġrab bit
M iss
it ude
h old
Ġgo in
at ic
ĠM on
ĠS an
s p
Ġpl aced
Ġsim ple
Ġsu it
Ġmiss ing
ĠL uc
Ġdiffe rence
Ġnum bers
ant ic
Ġmed ic
Ġ ide
Ġup stairs
Ġs ens
es sel
v ille
ĠC o
Ġsp oon
Ġcle ver
Ġeas ily
u ke
Ġe ager
us hing
re r
Ġn urs
Ġrel ations
Ġpr oud
Ġesc ape
Ġu r
Who a
Ġm am
Ġcr it
ve ll
Ġb le
Ġp un
G u
f it
Ġhappen ing
Ġtri p
Ġgrand ma
Ġhel en
al t
i ally
Ġde mand
ĠF red
Ġfor med
Ġreg ular
n es
ĠS at
ĠC up
Ġdri ver
Ġbab ies
Ġst raw
Ġtem per
Ġb ang
Ġhous es
aur a
in ct
Ġb ud
Ġsu ff
A w
ĠM er
Ġmark et
ail s
Ġwe ap
ci ety
Ġwe ather
Ġwood s
u ce
ur se
f ace
I R
it or
Ġh iding
ĠD ick
K eep
and er
Ġpull ed
D r
ĠB ur
Ġple asure
Ġmiss ed
Ġprofess ional
Ġfly ing
iv id
... ?
Ġact iv
Ġspir it
Ġ201 6
Ġof fe
k n
um ber
Ġ2 6
Ġbl ank
Ġcon vers
et t
ĠSpan ish
Ġm ouse
Ġcoll ege
Ġc rew
ash ion
J ohn
Ġdisc uss
Ġ et
Ġman age
c an
ab les
Th omas
Ġt ax
T om
Ġsp ell
az ing
ĠS chool
Ġg ate
Ġneed ta
Ġgr ad
Ġdanger ous
Ġstep s
ĠG eneral
Ġun less
Ġman ner
ag o
Ġb ound
Ġl ines
gr ound
Ġfill ed
Ġtast e
uten ant
pen s
Ġ &
out hern
Ġem ploy
ut ch
i est
Ġcl ock
in al
Ġany where
ov ed
Ġu nd
se y
Ġc ous
Ġde pend
Ġw it
Ġthink s
Ġv essel
N in
Ġann ounced
ir a
Ġst ream
Ġco ast
Ġte chn
Ġhad n
Ġm ater
or a
as ons
en ces
Ġg ives
ĠBl ue
Ġsurpr ised
Ġth reat
Ġcir cle
F ran
Ġend ed
1 5
e es
ĠT ur
er m
ĠM ed
ĠChrist ian
Ġshar p
ĠC r
Ġlaugh ing
Ġche er
Ġreg ard
Ġhe ro
ĠM ex
Ġnat ure
O ut
act ion
Ġsh r
g l
Ġbes ide
Ġwear ing
Ġhol iday
Ġf ro
ĠH igh
1 7
Ġa unt
Ġh un
Ġh uge
Ġst ran
Ġple asant
Ġin j
Ġfa ult
Ġthere fore
ce an
ĠR obert
Ġstart ing
ĠB el
Ġhon est
Ġcomplete ly
Ġde g
Ġsc ene
p in
Rem ember
O S
ĠM other
os ing
he art
Ġc ivil
ĠB o
Ġexpect ed
Ġsand w
Ġcomput er
Ġso cial
Ġ2 7
ĠPar is
Ġinfl u
Ġact or
Ġsha pe
Ġsh irt
L D
h in
Ġj www
u gg
Ġl ion
ĠSt e
ell e
ĠF rom
en ry
Ġbelie ved
Mr s
Ġquar ter
i j
in cess
Ã ¼
Ġbeg in
anc ed
Per haps
Ġposs ess
c ast
Ġd ate
Ġsing ing
Ġd ust
Ġl og
Ġsim ply
Ġn aughty
Ġopp ort
Ġsur v
he st
Ġd uty
Ġnecess ary
U T
ĠE n
Ġpain t
Ġpolit ical
ĠM al
ain e
Ġsong s
ĠM us
Ġpur pose
Ġc ere
ic le
ĠA ir
Ġpl ain
C H
Ġcab in
ok en
Pl ay
Ġnot ice
ru pt
Ġfa ith
Ġw ake
Ġpl ane
Ġen ergy
Hel p
Ġe conom
Ġfr uit
Ġsm oke
Ġmil itary
ĠEurope an
i ot
Ġfall ing
. ,
or ing
led ge
Ġorigin al
Ġag ree
Ġir on
ĠJ ane
Ġexper ience
Ġr oof
Ġ201 4
D own
ĠH all
ĠT ex
gg ie
Ġfe at
Ġsing er
Ġple ased
Ġmod ern
ight s
Ġar rest
p a
Ġpro ject
Ġt eddy
Ġth us
ab el
Ġfl at
Ġmean ing
Ġmunicip ality
Ġ2 8
ĠR ob
AN D
Ġp an
O ver
Ġd rug
ĠBob by
Ġhig her
-------- --------
Ġl ower
ro ad
ig g
Ġtra vel
d a
ĠS und
Ġt ap
Ġimmedi ately
ĠJ ul
Ġproduc ed
l ook
Ġpriv ate
e er
Ġall ow
ou ps
ac hing
ĠA c
et te
Ġsupp er
Ġus ual
Ġ201 2
Ġaw ful
re ct
ĠIt s
on el
oint ed
an ch
ri a
Ġc ustom
m ar
Ġdis p
Ġjour ney
b l
a e
Ġgr own
ĠC ouncil
idd en
I GH
Ġl ake
F ive
2 00
Ġhead s
Ġn et
ĠM ark
Ġ201 3
Ġset tle
Ġpoint s
Ã ¶
inc ip
Ġbe e
ist an
Ġc ro
Ġe h
ĠB er
Ġoff er
Wh oops
Ġind ust
S te
R ed
Ġ ident
Ġgun s
H istory
Ġy e
Ġan t
Ġs oul
Ġemp ty
be red
ĠQue en
Ġluck y
m ond
Ġm ir
m other
Ġoffic ers
Ġcol ors
pe red
Ġbe ach
r ation
Ġrad io
Ġtot al
Ġad vent
at ors
Ġprom ised
y er
Ġref er
i ber
Ġfall en
Ġlight s
n ers
Ġstr uck
Ġbra ve
ĠC or
Ġc e
ĠR os
Ġter ms
ve y
ĠR ichard
ĠI T
Ġstreng th
Ġc ensus
ot ed
Ġex ist
Ġ201 5
C are
ines e
Ġha m
el ess
Ġpl enty
ĠHe y
Ġimp ro
Ġim m
ha h
Ġa ud
Ġtw ice
Ġnot iced
Ġbo b
Ġmost ly
Ġopp os
Ġspeak ing
o id
Ġfl ower
Ġst orm
Ġde m
v an
Ġt ears
us ion
ric a
Ġdraw ing
ch ie
b on
ĠLou is
Re ady
Somet hing
1 1
oss ible
Pe ople
Ġsu gar
Ġed ge
5 0
ĠUn ion
ing er
E L
Ġsa ved
ĠH am
Ġele ction
Ġord ered
ou red
ĠS T
ent al
Ġde ck
Ġ200 8
ive ly
g on
Ġnot e
ĠP ort
ord s
um s
Did n
bur g
Ġc oun
ed s
Ġtr ick
Ġa p
G reat
om en
ad d
uck y
Ġp ound
Ġgr owing
ĠA lex
H ur
Ġgood ness
Ġb oo
Ġch oice
Ġn ea
inite ly
ap s
Ġlad ies
3 0
Ġr ub
Ġev idence
av ing
ĠE arth
Ġatt ract
ĠYou r
Ġmot or
ll a
Ġocc up
Ġsn ake
Ġexc ited
Ġass ist
Ġg e
Ġyou th
Ġswim ming
Ġmag ic
ĠKing dom
h y
Ġfl ag
Ġc amer
od ay
Ġ2 9
Ġ )
ve re
j o
Ġst ock
Ġn on
v ious
ĠR eg
en ing
I M
Ġche m
Ġest ab
Ġsh oe
Ġdin osaur
ĠT V
f ather
k i
en ny
Ġimag ine
ist ics
Ġlisten ing
Ġfellow s
k ins
em an
Ġ âĢĻ
ur ity
Ġc art
ĠTex as
Ġp air
Ġt iger
Ġt ong
Ġt aught
em s
ĠM any
ĠRuss ian
Ġcare fully
pp er
Ġgr oups
Ġ200 9
ĠO N
Ġst ret
Ġmist ake
ĠItal ian
Ġchrist mas
Ġmess age
ĠCha mpionship
ĠSc ott
Ġt one
b ie
Ġ200 7
Ġearl ier
Ġcon du
Ġru le
Ġopen ing
a a
Ġkn ife
Ġear n
ĠSt an
ak ed
Ġsha d
Ġare as
ber g
are t
ĠâĮ Ī
Ġbl ess
Ġpubl ished
and a
Ġkeep ing
om ing
Ġs ac
Ġp il
Ġmur der
pl ay
F oot
Ġocc ur
Ġto wer
izz a
ĠWh ite
y y
Ġhot el
o ons
Ġg ro
Ġd ouble
Look s
Ġinv olved
Ġme al
O ther
Lea ve
ĠCh ina
B ob
ag on
Ġcha p
Ġpain ting
ĠCan ada
ar ry
Ġbr ain
âĮ Ĭ
ĠChar les
Ġperson al
Ġrem em
ict ion
ru ction
Ġch oose
ĠS en
app y
ĠB unny
1 4
ĠS ue
Ġdis e
ĠO K
ĠO ld
v i
Ġb uck
ĠO l
Ġep is
S ix
U N
Ġs cient
j ust
w ith
Ġbed room
Ġint end
Ġfound ed
Ġ200 6
ĠL ee
1 3
ele br
Ġpl ants
Ġto w
Ġh i
ĠP ri
ĠC he
Ġs ides
Ġmon ster
if y
Ġsur r
r id
Ġgentle man
Ġsw ing
Ġord ers
Ġmar ry
it ation
ĠF ather
Ġstru gg
Ġac qu
ĠItal y
Ġag ed
Ã ¨
Ġnews p
Ġcomm unity
1 6
Ġhe at
ĠD em
at ives
Ġind epend
U R
ĠM ichael
ĠAr ab
ic ated
our s
Ġdes p
F l
L e
raz il
ar ly
Ġb at
C le
v iew
Ġ( )
Ġsh own
ul f
g ent
Ġin qu
u le
Ġg all
Ġbr ush
Ġp in
ĠCh urch
Ġun c
Ġprep ared
Ġev ident
EN T
M ama
A ct
Ġdeter m
Ġwe ight
ĠW ashing
itt ee
-- "
ĠB E
Ġman aged
Ġtit le
ost a
er o
Ġfem ale
b ack
Ġli ps
gy pt
ord on
Ġfir m
ri b
Ġcl aim
ath y
F r
P h
Ġs our
Ġst airs
ĠS ch
Ġm or
us ing
Ġhe llo
Ġ5 0
Ġsmall er
A d
ĠWashing ton
Ġfix ed
Ġne ither
Ġsil ver
Ġpr ice
Ġam b
Ġvers ion
A ye
b el
ĠC arl
Ġm ult
Ġrem ind
ipp er
Ġhar m
Ġwor ried
Ġl oss
is hes
Ġt ou
Ġsc ream
ig s
ĠThe ir
ĠJ ew
Ġsp oken
arl iam
i que
ro at
Ġshould er
Ġb other
ol a
Ġloc ated
Ġtra il
Ġs ch
Ġen v
Ġjump ed
ber ry
Somet imes
at in
Ġpr im
Ġte ach
Ġdire ctor
Ã ³
i os
Ġcal m
Ġblood y
P r
Ġd are
at a
ct s
pl es
ĠS im
Ġapp l
Ġt im
d en
p an
Ġfif teen
ete en
A bout
h ost
Ġrem ained
ĠI re
Ġe ld
Ġsuggest ed
n ce
Ġr ate
ee ch
w ing
W E
Ġrock s
J ack
ĠSund ay
Ġrap id
Ġtrain ing
Ġeduc ation
arliam ent
ĠR o
Ġon to
ĠPe ople
ĠAn ge
ĠJ o
ĠO kay
f ly
Ġoccas ion
ol s
Ġbl ind
Ġapp re
Ġimp ossible
ĠIs land
Ġpur ple
Ġp ill
Ġcent er
ri g
Ġforg otten
ress ion
Ġkind s
our t
y r
as y
ol ic
Ġabs olutely
ĠSt reet
le cted
ĠE very
ĠS ummer
ĠG reen
Ġc ases
ĠD ist
Ġ Ã
kn own
Ġprov ince
Ġshout ed
ĠB razil
Ġdown stairs
Ġbow l
Ġwe ak
Ġgener ally
ĠA ward
S m
Ġe mer
Ġopport unity
Ġde b
Ġpr incip
P oor
Ġtr ade
Ġdanc ing
Ġr ow
Ġadd ress
Ġtell s
Ġmove ment
ĠG old
Ġpl ans
C ha
Ġind ivid
Ġnorm al
Ġconvers ation
w est
Ġk itty
B et
S ir
Ġb atter
C ause
Ġp ool
Ġevery where
ĠB ert
Ġo il
Ġan cient
Ġhand le
Ġsur face
ĠAn n
Ġt un
Ġbut ton
ĠL ittle
aw s
ĠAf rica
Ġelect ric
Ġact ress
Be fore
ĠRepubl ic
ĠI r
ir on
Ġh o
Ġav ail
ter ing
ER E
Ġcous in
Ġent er
e ff
M a
Ġbit s
ond ay
Every thing
Ġgra ve
Ġf ashion
ĠD or
Ġv ac
ĠOlymp ics
ĠE gypt
cl es
Ġmedic ine
ill ed
y es
ar ies
w r
ĠP al
Ġrul es
al ed
ep ing
ceed ed
Ġevent s
A K
Ġo pin
ian a
Ġlov es
C os
Ġd read
Ġchan ges
Ġcook ie
Ġc elebr
Ġas soci
Ġfind ing
Ġstay ed
Ġcarry ing
ĠBon net
R O
Ġc red
A LL
iet y
ar i
Ġex ec
ad emy
Ġpract ice
Ġt ent
Ġn urse
Ġm ut
ur t
Ġl iter
p et
ition al
im s
Ġ19 0
Ġp ir
ĠCh inese
Ġb unny
B ack
re m
Ġfour th
ĠSc ot
Ġrelations hip
Uh uh
Ġlead ing
Ġcent re
sy ch
n ic
Ġper m
am n
Ġship s
Ġclim b
Ġper cent
Ġbrother s
M ove
ick ed
ore s
Ġw edd
Ġris k
Ġoffe red
is a
Ġd er
oot h
Ġno vel
Ġour selves
Ġinvest ig
Ġpre vent
Ġcall s
re es
ĠD ep
Ġsa f
S u
or ks
ĠM ount
Ġo x
Ġme l
Ġb oss
ĠD id
Ġhe aven
ill iant
Ġc ott
om s
Ġsa ke
ĠK ore
Ġr ope
ĠM ost
al y
ĠN ed
Ġtong ue
Ġc ards
Ġnin ety
Ġcont ract
Ġacc ording
g en
Ġr out
Ġmount ains
âĢĿ .
Ġmag az
Ġsm iled
oc rat
w orth
Ġb al
Ġc ouncil
Ġappear ance
i i
Ġele ven
Ġbo ats
ch ing
ĠSw ed
âĮī .
Ġf aces
Ġsl ide
oo s
Ġdo in
n al
Ġal t
Ġwall s
Ġcr ime
Ġa ver
Ġstud io
Ġsus pect
ĠDo ctor
ic y
Ġre ck
arent ly
ist ic
Ġshow ing
ir gin
k er
Ġres c
On ce
ly n
Ġcond ition
A pp
Ġcom ed
Ġob viously
Ġeas ier
Ġdec ision
Ġsh ook
Ġpuzz le
Ġpur s
er c
Ġto ast
act or
ac he
me nd
h ire
or ough
ĠSp ain
Ġret ired
u ps
Ġwhe els
Ġ20 00
Ġhon or
m n
Gr and
Ġshe ll
Ġdo ors
Go ing
cell ent
Ġc y
use um
ok ing
ĠN at
ose ph
Ġfright ened
ent ed
Ġhist or
Ġright s
g ress
Ġsuccess ful
Ġp ants
Ġn arrow
ĠPr ince
I F
Ġmar riage
Ġsix ty
Ġext reme
ha b
ran s
the re
Ġup set
Ġdo c
Ġd im
l ig
Ġoffic ial
Ġst yle
Ġaf fect
Ġc ities
Ġfav our
Ġstud ents
C har
ran ce
in i
ĠB essie
Ġeat en
Ne xt
ong ress
Ġfl o
Ġbeaut y
bo x
ĠHe l
Ġexc use
Ġide as
Ġyoung er
T oo
out s
n ote
Ġkn ee
ĠT wo
Ġsil ence
in ist
Ġsc rew
Ġev il
Ġ200 5
ĠSat urday
Ġanx ious
Ġwill ing
Ġcont act
Ġa ward
ĠFran c
ĠM ont
Ġran ge
Ġexpl ained
C on
og ether
ĠMag gie
No body
ĠE r
Ġinclud ed
Ġsha ke
ot a
I ON
Ġhelp ing
Ġdet ect
i als
se mb
ab eth
ĠR ock
Ġv o
Ġsett led
all ed
ĠPro v
G reen
fe ction
E at
oun ce
Ġb omb
ĠD ay
Y up
Ġb ump
cc ording
Ġcomfort able
ĠM il
ĠT im
ĠJ ud
Ġfle w
nd ing
A gain
s ing
Ġt ar
ĠM ac
Ġfl ight
et a
Ġmention ed
Ġb in
ĠD utch
Ġsome what
b es
St ay
Ġt ie
Ġrep ly
ar ily
Ġw an
ĠD el
ĠIn ternational
ĠM aster
Ġfor ced
Ġbig gest
Ġwait ed
Ġnin eteen
Ġco ach
F uck
Ġp a
Ġw ine
Ġmot ion
l or
se qu
Ġschool s
ol ine
S T
ce ly
ri ble
Ġneigh bor
ap t
Ġstud ied
Ġwind ows
Â ¶
Ġ200 4
ific ation
Ġdevelop ed
V ER
Ġblock s
Ġcirc um
Ġd un
iz ing
Ġafter wards
Every body
ul ous
Ġdec ide
Ġsu c
Ġgreat est
eth od
ell ed
ĠH enry
Ġbath room
Ġwhis pered
ĠMart in
Ġknow ledge
ĠL ady
We re
Ġfair ly
Ġo dd
Ġperfect ly
a ud
idd ing
ĠS l
Ġpo et
Ġbr ief
Ġbring ing
Ġm ud
Ġsp eech
p ill
Ġc hat
ĠR og
ast y
Ġhig hest
Ġpap ers
ll ie
ic les
ĠS ea
âĮĭ .
p any
is ions
Ġshe l
Ġparticular ly
Ġjud ge
Ġ200 1
od es
Ġcamer a
ĠC O
ĠW il
oth y
.. ..
Ġso ciety
st ood
Ġw ise
Ġtele phone
ĠW al
Ġoppos ite
Ġb are
Foot note
N ope
Ġsandw ich
Ġste al
Ġremark ed
Ġm ale
Ġmem ory
ond er
Ġpro ve
ic ans
ĠS al
Ġplay ers
Ġb i
Ġpossib ly
Ġus es
au gh
E n
Ġch i
ĠSm ith
ĠC han
ĠL o
ct ors
Ġme re
Ġwedd ing
Ġrun s
Ġsaf ety
at ory
Ġst ir
Ġs cience
Ġn omin
Ġdrink ing
ĠK en
Ġmur d
ĠJ esus
Ġm ail
se e
Ġlar ger
Ġsil ent
Ġb ike
Ġz oo
t r
ot ion
Ġmod el
E C
Any thing
A ren
Ġdise ase
u f
Ġh ook
Ġm ate
ĠW ind
ĠW in
Ġwr iter
Ġpower ful
oc key
Ġproper ly
Ġlaw yer
Ġteam s
Ġshop ping
Ġesc ap
Ġr iding
ipp ing
Ġm o
Ġknow ing
fort un
Ġquiet ly
Ġsm iling
Sh ut
Ġdirect ly
ac hes
u its
Ġche e
Ġeight y
b oy
ater pill
Ġhur ried
or ida
Ġman ager
Ġdevelop ment
I L
Ġthought s
Ġtr oub
Ġwor st
Ġperfor man
L ove
ĠS un
ĠC at
ro s
Ġball oon
ver t
Ġ4 0
Ġsign ed
g ers
ke nd
ad ian
Ġu ne
Ġf und
as ing
Ġcan cer
ĠD uring
Ġv ote
I nd
ĠAr my
ĠB ay
Ġnurs ery
Ġar ch
Ġ199 0
ict or
Ġmiss ion
ind a
Ġgr ab
ing u
Ġst ates
ĠM o
il ies
ĠF irst
ra el
Ġc it
Ġaf ford
Ġst ro
m orrow
Ġdef initely
Ġb isc
Ġf urn
Sh ow
b re
ic ago
Ġserv ices
IGH T
r ick
Ġne at
Ġrepe ated
an ing
ĠE mp
Ġte xt
Ġp or
_ .
Ġpe as
Ġrese arch
Ġp izza
Ġbo ots
Ġd uh
c ream
ĠM el
Ġi gn
Ġb od
Ġgentle men
Ġappre ci
F ine
S ince
Ġw a
Ġint ell
ĠI S
op her
Ġcontin ue
Ġp ump
Ġmic ro
Ġg ay
st e
Ġbut t
Ġele cted
Ġn ap
is her
ul ty
Ġw ha
Ġbur st
Ġsh ock
duc ed
ĠL aw
Ġf ought
Ġkeep s
Ġn ic
Ġwe ird
Act ually
m ark
it an
P re
Ġavail able
as p
Ġremem bered
ĠG O
Ġp our
um ents
Ġreal ize
Ġthr own
Ġche st
Ġb ark
Ġpr int
at oes
ĠAn ne
Ġf ired
ans as
Does n
ĠM E
Ġconcern ed
on ed
y ear
Ġdisapp eared
A P
Ġsp osta
Ġhang ing
Ġc ute
Ġl atter
Ġmatter s
Ġsal t
am ps
ha s
and s
Ġcast le
Ġw ave
ĠB oy
Ġsold ier
Ġw ished
Ġrel ated
Ġin vent
ĠM ic
Ġw ings
Ġde but
Ġser ve
ĠL ake
a ign
Ġin ternational
Ġt id
an n
be y
Ġf ence
Ġwas te
Ġf ancy
ch ief
f all
it ar
Ġp ushed
Ġhear ing
ub e
Ġ18 9
iz abeth
Ġcor rect
Ġval ue
on a
ĠM at
ĠAc ademy
Ġpre fer
Ġpass ing
ĠJ er
ĠR ome
th ur
iron ment
Ġkind a
Ġp ra
Ġopin ion
Ġstart s
ĠD es
Ġfar mer
Ġdo lly
Ġpress ure
pl ace
Ġmet al
ĠF ort
Ġp red
ĠChar lie
Ġknock ed
ĠA h
Ġlangu ages
c ing
Ġwonder ing
Ġgo al
Ġs en
Ġturn s
Ġwas hing
Ġr om
ian o
Ġfeel ings
Ġth in
Ġr are
in ting
Ġh orn
Ġgreat er
E l
ĠCh ief
et ch
ĠInd ians
ili ar
Ġbe ast
Ġp sych
ĠM om
uss y
se c
per or
it zer
Ġfeel s
Ġn ative
Ġre ve
Ġfor ces
Ġpur die
im ate
ck y
Ġproper ty
19 9
Ġfail ed
ob ile
Ġdo zen
b an
g a
ish ment
i as
Ġt ied
Ġdis m
Ġm ile
am ing
Y OU
Ġc ats
olog ical
Ġ198 0
Ġaver age
ĠS ov
Ġaw are
Ġtr oops
Ġadv ant
Ġb en
ĠS us
ĠG reek
Ġsecond s
Some body
r ant
Ġg at
Ġto il
ĠM ass
Ġqu al
c ol
ac hel
Ġwee kend
Ġglass es
Ġs ite
Ġst aff
Ġdro ve
ĠS omet
i ents
ĠThan k
Ġpres ence
Ġs am
le nd
ĠR oyal
R I
h ib
Ġf ully
Y ellow
Ġp it
Ġ200 3
r ate
ĠS ing
ĠW estern
p ir
a us
Ġn erv
ĠT ony
S l
c raft
Ġt ummy
Ġar range
y an
ĠE ven
ĠAustral ian
Ġclos er
Ġl oose
Ġn orthern
Ġfriend ly
ĠA ct
pl ane
az ed
ĠD O
ĠF OR
Ġpos itive
ar ing
C r
Ġreport ed
ĠT HAT
ĠMar g
rop ical
Ġmater ial
N ew
Ġother wise
Ġthe ory
ĠR ose
Ġpat ient
Ġpl at
Wh ile
Ġwh ist
ĠRuss ia
t t
Ġr ank
Ġtou ched
Ġdeterm ined
Ġj oke
Ġf oc
Ġar g
reed om
w as
ĠJ ones
Ġact ing
Ġfre qu
Ġd ying
ac her
il ities
ĠO ther
Ġdist ribut
ĠDist rict
Ġre lease
av y
tain ed
Ġex pens
b ow
u zz
Ġtra vell
Ġt ip
Ġbur ied
C ap
Ġs ink
Ġwit ness
u an
B C
Ġcent ral
d ad
ic ate
ĠIs rael
ĠColl ege
Ġart ist
Ġentire ly
Ġ200 2
Ġf ishing
ĠM ax
Ġ18 8
h i
Ġconf ir
Ġty pes
Ġm ethod
v y
Ġve get
C K
Ġr ib
ill er
Ġdescri bed
b ury
Ġdra wn
Ġf ond
ĠCh icago
Ġinst ant
Ġhe n
est y
Ġreal ized
s ed
Ġdam n
T e
Ġf art
Ġinclud es
Ġball s
th is
T oday
Ġg ather
Ġbec oming
Ġph il
Ġqu een
ib ility
âĮ Ī
Ġfore ver
ĠL ook
k ed
ocrat ic
Ġw id
ĠIre land
st ers
Ġun iversity
ĠMex ico
r am
Ġbr illiant
Ġse es
ign ed
Ġestab l
Ġth roat
Ġeff ort
Ġdes ert
Ġex erc
ĠR es
Ġ18 6
Ġsa v
Ġo cean
qu ar
Ġdark ness
Ġy ard
M ost
Ġli br
ĠP ak
Ġf an
Ġcook ing
Any way
Ġ 0
w are
OM E
Ġf aster
Ġcr ash
. ]
b its
Ġst ones
g ency
ad ing
ce l
G l
ĠSec ret
ĠM ur
ĠM ajor
ĠPr ime
ĠBe cause
b ly
d own
Ġdam age
ĠFr iday
Ġre b
Ġsp orts
e h
ĠAt l
St and
Ġobs erved
Ġm aid
Ġmin ister
Ġg host
Ġfam ilies
Ġs oup
Ġb unch
Ġmix ed
ĠF in
ag ing
Ġcl oth
il a
Ġd ump
ab ility
w in
ĠC ath
Ġfol ks
Ġsp ort
st ances
Ġexc it
Ġg ift
Ġgat hered
Ġstay ing
' ,
Ġk m
e el
ĠAf rican
Ġexpress ion
Ġdeg ree
I E
Ġstran ger
Ġfam iliar
et ed
ent ial
ie utenant
isc o
ĠGovern or
Ġw ore
or se
Â °
Ġplan et
ĠR ec
. âĢĻ
Ġc raw
Ġsign al
ack s
Ġgi ant
ĠAr t
Ġshoot ing
ul ations
p ut
Ġad ult
Ġte nd
Ġpre par
Ġstr ing
Ġepis ode
Ġs outhern
Ġn est
Ġthr owing
Ġpen cil
ĠSov iet
Ġh unt
Ġsc reen
St ill
Ġcamp aign
ĠP et
ĠCan adian
Ġmam ma
Ġadv ice
ĠAl ice
Ġcompan ion
aterpill ar
Ġent ertain
Ġpolic y
v in
en ced
II I
ie ce
es ides
M ine
Ġso cks
Ġcar riage
B o
Ġy ards
Ġresp ond
Ġv ent
Ġcr is
ĠCent ral
Ele anor
w ar
ĠTh omas
" '
Ġt a
Ġfor ms
Ġsec urity
ĠL ab
Ġper form
Ġpoint ed
Ġj ohn
ĠIr ish
Ġa st
ĠL os
b ook
Ġsus p
ens ion
U nder
Ġkn ees
Ah hah
Ġdist ur
Ġke ys
C arl
ill ing
Ġcr own
m o
Ġsle pt
Ã ¤
os ition
Ġdes per
Ġw estern
g s
N A
est ed
Ġtr actor
Ġdes ire
Ġnewsp aper
Ġf ac
im a
ĠB art
ĠO s
Ġr ang
Ġunder stood
Ġp ic
Ġpay ing
Ġshould ers
ĠV irgin
Ġcomm unic
Ġcr im
Ġs ore
ĠH aw
Ġpart ner
Ġfair y
Ġclear ly
Ġadm inist
Ġinn oc
Ġre asons
Ġcour age
Ġh ug
ĠâĮ Ĭ
Ġlock ed
b ird
A U
Ġsha me
Ġpro s
Ġmat ches
Ġl one
e z
Ġr ise
Ġdestroy ed
C ol
Ġto es
ĠS ee
us ic
Ġkill ing
Ġsure ly
Y ay
Ġcr ay
h h
om a
Ġrece ive
hes s
Ġwond ered
Ġl ord
Ġh idden
eder al
Ġ197 0
Ġtot ally
ish op
Ġam azing
iver se
A G
Ġexcit ement
Ġsw ord
Ġd iam
Ġbuild ings
H appy
we et
Ġconst it
Ġve h
um n
Ġgr ay
Ġf ier
Ġst om
ran g
Ġcom ment
ian ce
ig an
Ġcur ious
r ough
Ġt ough
al f
Ġr if
l aw
Ġown er
ĠEmp ire
ain ing
ott ed
Ġiss ue
M other
Ġuse ful
O D
ar n
Ġme as
Ġsp ite
Ġtrain s
Ġhor rible
Ġown ed
âĢĶ âĢĶ
Ġpro ved
Ġbit ch
Ġw ow
Ġmed ical
Ġcurrent ly
Ġblank et
c od
ĠP en
Ġde re
Ġcut ting
B oy
Ġfore ign
Ġlisten ed
a ult
f riend
Ġste pped
Ch rist
ĠS aint
itzer land
v ia
Ġf ox
oo per
fess or
Hur ry
Ġli es
ues day
Ġcharac ters
Ġadm ir
ad o
ĠS il
uc le
Ġrecord ed
Ġw rest
z a
igh s
ĠAmer icans
ĠFl orida
Ġact ive
D is
I LL
Ġhon our
Ġstat istics
ell a
Ġcar r
E arly
ĠM ore
av al
Ġmag n
Ġsp ider
A mer
B ring
ĠR ay
Ġbar n
Ġcit iz
g ly
ut ed
Ġsy mb
u a
ĠJim mie
Ġmain ly
Ġmagaz ine
Ġform ula
Ġprison ers
l am
Ġ3 1
Ġinst r
Fr aser
Ġestabl ished
Ġstre ets
Ġ202 3
Ġlift ed
ĠR h
ĠV an
ĠV ictor
Ġrec ently
Some one
st ead
Ġperfor med
ĠG et
or ter
j a
Ġcont r
Ġsepar ate
Ġj ail
Ġlea f
Ġcop y
Ġtre asure
ĠW ood
ang le
Ġconf ess
Ġc raft
ĠH ill
Ġpro gress
ĠScot land
P ush
he ast
C all
Ġsweet heart
Ġ --
Ġter ror
Ġ ess
ĠH i
Ġpre c
Ġsc ore
ur ance
ost on
ĠB ern
ĠC ast
Ġburn ing
Ġenc our
Ġw ounded
Ġr ush
ĠD en
Ġhors ie
ĠAnge les
ĠG ar
Ġapp arently
Ġcreat ure
b a
Ġinter view
ne ath
Ġcar l
m es
Ġinflu ence
Ġl id
urs day
Ġlaw s
Ġbr anch
Ġme asure
um per
Ġacc ess
Ġstri ke
Ġdiv ided
Ha ha
ĠSw itzerland
Ġhol es
un s
Ġbod ies
! '
ĠC ont
2 5
Ġenv ironment
P ull
Ġ ï¿½ï¿½ï¿½ï¿½
ur ies
Ġdat a
don ald
Ġweap ons
ĠB ig
os en
ĠS ol
ock s
re ck
Ġin it
Ġso le
Ġend s
Ġenjoy ed
Ġcompan ies
Ġdr ama
Ġcook ies
Ġaut om
Ġa chie
arr ing
Ġp ow
um ble
Ġhands ome
Ġqu eer
Ġbre aking
Ġscar cely
Ġf old
Ġsp r
Ġ196 0
Ġa my
S E
T en
Ġg ently
L ast
ĠH on
Ġbes ides
Ġ( ;
Ġsort s
Ġsp o
v o
Ġli ber
ust ed
Ġfig ures
Pro bably
Ġha bit
Ġm ort
om er
ĠT er
m et
Ġcloud s
Ġnerv ous
Ġbl ame
ll e
ĠD iv
ber ries
ee k
Ġsister s
Ġfeat ures
Ġas ide
Ġex tend
Ġex cellent
Ġob lig
Ġpull ing
Ġperforman ce
Ġgrad u
ĠL atin
Ġinv ited
Ġdream s
an o
ĠRog er
Ġhe s
I V
Ġ199 9
Ġjump ing
Ġgold en
AN T
O L
Ġad op
Ġland ed
ĠZ eal
wh ile
US T
v is
Ġup per
M on
Ġp ale
Ġcred it
Ġr ubb
ĠWh ile
Ġcol our
Ġlear ning
ĠD is
est ival
Ġbene ath
Qu ick
" ?
ent h
âĢ ķ
4 0
eng ers
Ġgreat ly
Ġcompet ed
Ġevident ly
Ġtrans l
ĠA N
ĠR ev
Ġte nder
Ġgar age
at i
Ġcre ate
Ġc ant
ic ation
Ġrem oved
t in
Ġt ask
Ġw aves
Ġhun ting
Ġt ank
ĠM os
ge nd
Ġfield s
ĠPak istan
Ġinter rupt
ed nes
Ġthrough out
Ġgl ance
ail ed
Ġd u
ret ty
il ty
Bl ack
Ġw ipe
inn ie
Ġstud ent
Ġadvant age
um ed
Ġsp lend
Ġfe ather
Ġrev iew
er k
? '
Ġy o
Ġdo ggie
ĠCar ol
Ġpap a
look ing
E ight
Ġpres ently
Ġfrog s
Ġter rit
ĠZeal and
ĠBrit ain
w ater
ous ers
Ġtri al
Ġn ation
Ġbag s
Ġun us
Ġrest aur
Ġsevent y
Ġrespons ible
ednes day
Ġh ills
Ġp atter
ĠH ot
Ġinst ru
Ġwas hed
Ġdiffic ulty
C E
Ġc ash
Ġgo at
Ġtown s
inn ed
anc hes
Ġnea rer
ĠW omen
ĠF ox
az e
Ġre ar
Ġsome how
P op
p ro
Ġt ear
Ġaw ake
Ġequ al
Ġd ish
i ation
Ġro y
IT H
ĠM et
Ġdes ce
ha nd
ĠG ra
D ear
F in
ep s
Ġexper ien
S am
n ine
ĠB est
Ġour s
Ġpre vious
P ur
es h
ie ve
Ġnorm ally
Ġse ction
ĠP arliament
ab oo
ins on
Ġplan ning
Ġsa us
Ġar ran
Ġ199 6
B all
Ġroom s
Ġexc iting
Ġtar get
D at
Ġb order
Ġm ap
ist ry
Ġlad der
Ġfort une
ĠSu per
ĠR ight
Ġtreat ed
Ġres ist
Ġfol k
ell ing
O P
Ġresult s
Ġp ond
wh ich
Ġrapid ly
2 3
ĠE le
ĠS qu
Ġdr unk
Ġ18 7
Ġlead ers
F ire
What ever
ri f
Ġcr u
Ġeng aged
Ġr ushed
Ġgr ant
Ġcomm un
Hm m
Ġ199 2
Ġra ise
ĠF a
Ġmer c
Ġhat h
Ġreck on
Ġpri ze
y o
H ang
Ġl ack
ĠJ eff
ro se
Ġprodu ction
Ġbec omes
ĠAs soci
ild ren
D uring
Ġre nt
Ġtrans port
Ġsy mp
m hm
Ġl osing
Ġal arm
Ġsl ipped
A b
ĠGovern ment
Ġrelig ion
Ġdel iver
Ġbox es
E W
Ġb on
Ġb ones
Ġb orrow
Ġf al
Ġp ony
ke e
Ġord inary
Ġl od
Ġsu ffe
eng u
ea u
Ġ ..
ore nce
Ġtr unk
Ġchan nel
ge ant
ĠM ars
f ish
Ġbe ars
Ġneigh bour
Ġsupp ly
Ġb one
ĠH ind
Z zz
um an
ĠT w
Ġspec ific
Ġindivid ual
ou ri
L a
Ġg ir
ĠH ol
Ġchair s
Ġ199 8
al o
Ġjob s
Every one
Ġmir ror
ĠM ike
ur a
Ġpr incess
Ġrepl aced
Ġpal ace
Ġvo ices
Ġw ire
Ġpu pp
ĠYou ng
s k
Ġsign s
Ġlibr ary
Ġj am
ĠL ike
Ġh omes
Ġsm ooth
ĠC le
Ġsw ear
Ġt v
Ġbad ly
Ġp ity
Ġice cream
s es
ĠCha ir
ĠG e
Ġet c
stit ute
be c
Ġmult ip
Ġa im
ĠH E
ĠH ave
ul ated
Ġch im
ĠW E
Ġbre ast
Ġrequ ired
D a
Ġbutter fly
Ġlone ly
Ġcr uel
Ġindust ry
G onna
ĠH u
Ġhast a
Ġintell ig
ĠB oston
Ġmight y
Ġg ang
Ġl it
Ġtoil et
Ġaccept ed
ed ing
ĠB a
em on
Ã© e
Ġlad s
Ġrel ief
Ġtra ffic
Ġsp are
Ġheart s
L Y
Ġ199 5
aj esty
Ġrelig ious
ĠProv ince
Ġindepend ent
ĠI ll
um ps
Ġorigin ally
Ġk idding
ĠE ve
K now
Ġw olf
Ġdes k
Ġcompet ition
Ġun if
Ġair plane
ĠCath olic
ac le
ĠS ince
row s
Tw enty
S w
Ġa er
Ġdun no
is ha
Ġc aterpillar
ĠC ourt
ĠO x
Ġgr ace
ĠF ar
Ġw ra
Ġno dd
Ġr ode
Ġprison er
O o
Ġpe an
the w
F ather
Ġair port
Ġpu ppy
Ġco al
anc he
Ġshow er
Ġto oth
Ġg or
Ġbase ball
Ġa id
Ġse vere
ick y
Ġch osen
Ġref used
ĠAr thur
Ġjack et
ar ian
Ġdemand ed
ĠF ore
Ġintro duced
Ġcircum stances
Ġattack ed
oint ment
Ġcand id
Ġw inning
Ġste am
Ġexc han
Ġvict ory
Ġl ink
Ġ199 4
ĠBe fore
Ġcont ent
A ah
s ha
Ġthousand s
Ġrec om
ĠJ ean
art ment
Ġteac hing
ĠS erv
em ies
Ġw and
Ġbr anches
Ġr ising
f ive
an i
ĠS yl
anc ing
cept ion
Ġcapt ured
Ġap olog
w a
Ġmer ry
ate g
Ġgu itar
Ġhur ts
ad or
ĠV al
Ġinc ident
ĠAll ah
Ġapart ment
ĠC amp
M any
er g
Ġdo ggy
ĠT ed
Ġrecogn ized
Ġspl it
Ġinv ol
Ġstom ach
Ġf aint
u ild
Ġp ure
Ġdec or
Ġcompan ions
Ġin tern
Ġus eta
mp ion
R un
Ġin ha
Ġintend ed
Ġc andy
Ġlo ad
Ġhop ing
B en
F ind
Ġm ister
Ġhop ed
Ġescap ed
Ġan ti
Ġmy st
Ġda wn
Ġy um
Ġas h
Ġg reet
Ġth orough
Ġreg ret
en ger
Ġsu ffic
ot te
ĠL ove
sh ine
Ġy yy
Ġgu ilty
er al
Th row
Ġadm it
Ġshe d
Ġco ck
Ġunder neath
Ġpo ison
Ġfif th
2 1
ick et
ict ed
Ġg y
Ġr at
Ġslight ly
Ġag re
ĠJ oseph
ĠEl izabeth
Ġprofess or
Ġweap on
on se
Ġcon ce
Ġprov ided
Ġearn est
Ġp ant
Ġtemper ature
ste in
R ead
Ġg ained
ol i
ĠG ames
Ã ±
semb ly
W ha
o very
l ers
Ġtr ousers
Ġsweet ie
Ġt al
Ġj igs
Ġapp ointed
Ġcross ed
Ġfart her
Ġd omin
ĠL es
em ic
ren ces
the n
Ġsour ce
Ġb ot
Ġchan ging
Ġwat ers
o is
it z
Ġdel ay
Ġplan ned
u ous
Ġav oid
Ġpart ies
ger y
Ġcult ure
Ġpres ents
Ġ199 7
Ġcond itions
ĠCl ub
at han
Ġpartic ip
ĠGeor g
Ġexpens ive
er ves
Ġbe er
Ġcomed y
ĠBr ad
ER S
Ġpil ot
ĠG ordon
Ġser iously
Ġclose ly
Ġd oo
Ġeager ly
Ġu gly
Ġwood en
Ġcom r
Ġr ice
Ġsign ific
Ġdesign ed
ĠG il
Ġprov ide
ĠS om
Ġact ual
h us
Ġl orry
Ġdiv ision
Ġmom ents
ĠEd ward
Ġpic nic
Ġgrand father
Ġadv ance
Ġroll ed
Ġsatisf ied
is l
ĠV er
Ġdiv or
are n
ur d
Ġshad ow
Bet ter
Ġc ows
Ġgu est
Ġkiss ed
p y
Ġless ons
Ġc ave
Ġqu ality
Ġadvent ure
am in
ong rat
ĠN ight
Ġpick ing
Ġt ale
ir teen
el come
Ġw oke
Ġcrit ic
i ge
Ġbit ter
Ġset ting
Ġpoo h
Ġch uck
Ġdefe nd
an ed
is er
ĠT own
Ġmus ical
A B
ur ally
ĠDor othy
2 2
se ll
Ġpass age
Ġpolic eman
um ph
Ġappro ach
Ġfl ash
Ġgrand mother
ĠA ng
ĠF il
Ġsystem s
ĠJ erry
Ġce ased
ke ep
Ġme chan
Ġrecord s
ĠC ongress
Ġbelie f
Ġforg ive
ĠD a
Ġp ages
av a
ĠJim my
Ġintro du
Ġclim bed
Ġsqu ir
Ġs ang
Ġincre ased
6 0
Ġs ons
ĠS arah
Se ven
w hen
ĠG irl
Cap tain
Ġsl ave
Ġent rance
ĠU p
Ġw ound
ĠA T
Ġcon sequ
Ġsupp l
Ġbelong s
het ti
ĠOn ly
Ġdrug s
ĠC ons
ag n
oot ball
Ġconne cted
Ġf ant
Ġleg al
T ime
ic ing
ubb les
Ġhad ta
Ġroll ing
D avid
b in
un ior
Ġfall s
Ġvict im
ke l
wh o
ĠA pp
Ġfun ction
Ġeld er
A VE
ut ive
Ġse lected
b les
Ġtr uly
ĠM onday
ĠB O
Ġ198 8
Ġless on
Ġa ston
Ġso ap
Ġgr ate
Å į
ĠW ay
ĠD ar
Ġen emies
Ġphil os
M ichael
P ick
Ġwe alth
Ġwhen ever
Ġow l
Ġpur se
Ġcoun ter
ot es
Ġoccur red
Ġp ussy
l im
ĠN orthern
Ġ199 1
Ġl ap
ab r
Ġold est
Ġmark s
Ġprodu ce
Ġincre ase
Ġsuffe red
ĠB ell
ri al
ĠW ater
ĠSt one
Ġauthor ity
u z
Ġstand ard
ĠA ny
Ġtrans fer
ĠS k
Ġevent ually
Ġc am
Sh h
Ġresc ue
ĠB as
Ġch op
Ġgu ide
Ġpot ato
Ġwar ning
Ġdisc over
Ġconc ent
ĠS pr
Ġrem ains
Ġhouse hold
B oth
s m
Ste ven
ĠDem ocratic
Ġr oles
v est
Ġbe ans
ĠH a
ha med
ick en
Ġcha in
Ġlea gue
umb led
ĠBar b
Ġb ast
ol k
ĠX X
Ġstru cture
Ġc her
lf riend
Ġsc en
g t
av is
Ġsoon er
Ġj ew
ĠR ad
Ġapp ears
our se
Ġs orrow
Ġcommand er
T alk
Ġextreme ly
Ġsplend id
Ġroy al
Ġsh ining
ĠR od
Ġw agon
N OW
ĠR uth
Ġburn ed
O range
Ġt in
Ġcom mer
ĠSecret ary
ĠH y
Ġch ips
Ġadd ition
wr iter
M ark
Ġm c
az z
Ġhard er
ĠTh ree
ĠPro fessor
ira ffe
Ġalt ogether
ĠC am
Ġstand s
19 8
ĠH arr
Ġcon qu
Ġsp rang
t ure
Ġp ipe
Ġse ated
ĠP re
if fe
Ġmed al
erv ation
Ġf ate
Ġli qu
ĠP ers
Ġdr own
am ma
ink y
Ġsp ark
ĠSt ar
ĠK e
Ġkind ly
Ġb ac
st one
ĠAb out
Ġun s
Ġgovern or
Ġmed ia
am i
ĠO ut
Ġhigh ly
Fran k
m i
Ġth irst
Ġhel ps
Ġsl ip
Ġb ent
Ġbr icks
c ies
ĠB ru
ok es
Amer ican
Ġpro ceed
Ġinha bit
ĠCol onel
ĠAssoci ation
ke ys
Ġban ana
op ter
ĠPe ggy
Ġn ucle
Ġsa ving
ĠL ong
av ed
Ġtreat ment
Ġcro cod
E P
Ġsend ing
Ġoper ation
Ġfle et
G e
Ġdelight ed
Ġb ay
Ġd iss
Ġp ile
Ġr acing
ea ks
Hel en
E F
ea ble
Ġcur tain
ĠB re
Ġhe ight
Ġv alley
Ġag ent
um m
J oe
Ġsh ops
Ġpre gn
ala is
Ch i
ri er
Care ful
or ms
Ġde er
Ġno ble
Ġsell ing
en ly
ĠC orn
ĠT or
Ġsee k
Ġcont roll
Ġ199 3
Ġrecogn ize
Ġin cl
ĠA wards
Ġnet work
Ġg rey
k r
Ġmust n
Ġtun nel
it ure
Ġf ile
Ġc ode
Ġnot es
Ġsp ect
Ġdel icious
Ġaff air
B ill
Wh ose
Ġpass engers
ĠR am
Ġeight een
Ġspir its
ĠSomet imes
. )
P ol
Ġj elly
P eter
op l
Ġscr atch
Ġhum ans
ĠRo ad
, âĢĻ
Ġking dom
J im
Ġst ern
Ch oo
Ġarrest ed
ĠSwed en
Ġbud dy
Ġexpl os
Ġcell s
ĠW ales
K n
at re
ot o
ĠA p
ĠL ieutenant
ĠN ether
Ġpoor ly
Ġimpro ve
Ġinnoc ent
Ġde mon
Ġwor n
Ġpro f
or g
Ġhy d
ag hetti
Ġgot ten
Ġdis play
E d
t ies
ĠAust ria
ĠC H
Ġmark ed
m outh
Ġse ats
ĠO ver
Ġl amb
ĠP ac
od d
ul ance
ĠL and
Ġcl own
nam ent
Ġr ings
ĠT ra
Ġjust ice
Ġo bey
Ġdiam ond
Ġp iano
Ġdist ant
Ġfire man
i ar
aw a
Ġf reedom
Ġfl ood
Ġeat s
Ġjour nal
quar ters
Ġst ole
Ġch ose
Ġre act
iss a
M AN
ran k
Al though
Ġaccom pl
enn ie
Ġe astern
Ġpr ince
ON E
Ġcirc us
ĠTom my
ĠPer haps
Ġdoc ument
ĠVirgin ia
Ġisland s
Ġha ha
Ġpe e
Ġann oy
er able
ad ium
ĠD un
ĠCom pany
it o
Ġgu ests
Ġwhis per
O ff
on ia
Ġham mer
Ġd ip
ens ive
Ġpost man
Ġgood s
Ġpresent ed
Ġsix teen
Ġdri ven
Ġarran ged
ĠS pe
Ġapp les
Ġ198 9
ĠF our
Ġbr and
Ġsol id
Ġrequ ire
Ġsp ots
. --
k o
n on
Ġsw ift
Ġdet ails
Ġun fortun
Ġw itch
Ġstat ement
Ġsc ary
ĠFl orence
Ġf o
The ir
ĠS and
ĠP enn
Ġpr ide
Ġrecord ing
Ã º
Ġpre cious
ak i
be cause
ĠThan ks
Ġjigs aw
Ġcomp os
D amn
V ID
ĠH ad
ĠR om
Ġre jo
ĠW AS
app ed
Ġrail way
Ġw ing
ĠW H
Ġrid ic
Ġappreci ate
Y a
ol t
Ġrel ax
ĠPort ug
a ire
ook s
Ġtrack s
Ġqu it
eak ing
app ing
Ġcollect ion
int s
Ġsoft ly
ĠHe llo
IS T
Ġche ap
st ra
Ġpig s
et ts
he w
ĠPl ay
L ES
j i
Ġar med
2 4
L ots
Ġun f
Ġrec ent
Ġbu ying
Ġpill ow
ic ide
im p
Ġcan oe
Ġproduc er
Ġf ed
Ġ6 0
eal ous
Ġt iss
Ġk il
ĠJack son
eor ge
ĠNether lands
Ġm ole
ĠI ran
Ġnight s
C o
i ven
Ġcomp lex
Ġda ily
ĠA ld
u y
Ġc aut
Ġp owers
ĠE ach
Ġconf idence
ĠCom mand
Ġpri est
Cl ose
Ġse ized
Ġha y
ip ed
Ġsex ual
Ġut ter
om ed
Ġmy th
Ġsl aves
Ġfour teen
ĠI II
Ġclim ate
Whe e
ĠMiss ouri
Ġprop osed
ons ense
am as
Ġse qu
Ġsound ed
Ġiss ues
Ġchem ical
Ġm r
Ġ195 0
Ġchee ks
Ġun able
Ġhand ed
Ġdis hes
Ġpain ted
ĠS anta
Ġbus h
Ġinc red
Ġresp onse
Ġa x
Ġgo dd
Ġbo ld
" ).
ĠH ea
Ġbas ically
Ġsuff er
ĠE v
ĠAs ia
Ġhes it
M il
ĠAn na
Ġl at
ĠL y
Ġsuc ceeded
ĠB ull
Ġsw itch
19 7
ĠĠĠĠĠĠĠĠĠĠĠĠĠĠĠĠ ĠĠĠĠĠĠĠĠĠĠĠĠĠĠĠĠ
Ġsurr ound
N ight
al i
... "
Ġo ven
Ġsec ure
Ġshout ing
ĠI m
am ily
C ut
z y
Ġr ude
Ġpl us
ive red
ino is
ĠL ife
qu es
er ous
Ġup side
ov es
Ġteacher s
ĠS el
Ġbus hes
P retty
Ġhapp iness
ĠS a
ra h
Ġput s
ĠK at
ĠM Y
ĠL u
Ġgir lfriend
c est
ĠF re
Ġle gend
Ġeffect s
ung le
Ġste ady
cha ir
Ġclim bing
Ġunus ual
ĠP olly
M ad
b age
Ġm ood
um es
Ġpl astic
ĠO rd
Ġcha se
Ġtor n
ĠBel g
H ot
Ġst iff
Ġab ility
Ġdis g
Ġadm itted
Ġfail ure
ĠM ajesty
ĠO ff
ott a
Ġsca re
ĠW as
ĠN ick
Ġc ents
Ġo we
Ġsun shine
Ġphys ical
Ġcol on
Ġsomet hin
am an
Ġ x
Ġn ut
Ġv ir
se x
Ġstick s
Ġorgan ization
O ld
Ġm ac
OU T
Ġn ick
Ġsu nd
ean nine
Ġd om
Ġmicro phone
ven ue
Ġserv ant
al m
Ġmy ster
ĠU K
Ġpen ny
Ġbel t
Ġmur m
ch o
W ater
ĠB ad
Ġsw all
Ġcreat ures
ol en
Ġcha mpionship
ĠF air
Ġcompl eted
Ġstrong er
Ġpot atoes
Ġsub s
ĠIll inois
Ġg ain
Ġele anor
Ġun it
Ġ198 4
Ġadv anced
ap ers
Ġsqu ee
un ting
ct ic
ĠO k
ĠWal ter
Ġc ig
ĠKore a
Ġp add
Ġsu ck
Ġhundred s
E LL
ap a
Ġlie utenant
Ġfr ag
oc r
---- "
ative ly
Ġexerc ise
Ġb ul
Ġbeg ins
Ġty p
Ġprotect ion
Ġb att
ĠD ire
ĠR on
Ġtick et
ĠJ ac
O H
I G
b ell
i y
Ġb ree
Ġp ardon
ig hed
Ġill ustr
Ġoccup ied
ĠB ea
ĠB ud
Ġpur cha
Ġduck s
Ġqu ack
Ġsuff ering
Ġrif le
st ant
Ġan ch
ĠE astern
Ġlet ting
How ever
W r
un a
Ġun known
Ġcons ult
Ġp ushing
ul ate
Ġp ear
Ġp itch
Ġr ag
ĠT ri
ĠH im
Ġdoll s
Ġcl iff
Ġcomm ittee
Ġlate ly
ĠD uke
B ar
Ġinhabit ants
Ġh ut
ĠC ross
Ġat h
Ġrespons ibility
I nt
r r
ĠW all
ĠCent er
hem at
ĠJ on
c ia
un ning
d ney
op es
Bye bye
o ard
ar ia
Ġtick le
an ks
Ġshel ter
E m
Ġw reck
ĠB or
Ġpr oof
udd le
donald s
C alais
st ance
iz es
Ġsl ipp
ĠCh ris
Ġble w
i ens
Ġth under
Ġsent ence
Ġsurr ounded
Ġas hamed
Ġaud ience
H oney
2 7
P at
Mm m
Ġbutt ons
Ġsp in
Ġs igh
Ġbr ings
Ġsch ol
M ind
Ġrestaur ant
B ro
H on
Ġw icked
ir ing
ĠT re
Ġstrugg le
Ġfor k
arr ass
ĠPhil ipp
ĠChair man
S qu
Ġal tern
Ġpo inting
ir k
Ġca uses
Ġsettle ment
C at
f a
Ġdo ctors
ĠM en
Ġex ped
ĠF ire
ĠĠ Ġ
Ġun ion
Ġmin or
Ġnodd ed
Ġc as
Ġli f
Ġtem pt
Ġto ss
Ġbo ot
ĠK im
Ġ198 7
Cl ub
Ġdisapp ear
Ġemer gency
Ġperm ission
l ock
l otte
Ġt ub
Ġback wards
Ġtruck s
Ġcon clud
Ġinst ance
ĠDep artment
R Y
ĠA my
el et
Wh oo
Ġtra ve
Ġphot ograph
ing ing
Ġ18 5
Ġ197 2
Ġinter p
Ġrain ing
ĠWilliam s
Ġo oh
uf act
Ġher s
ĠF ootball
H ad
el a
Ġfort un
Ġeff orts
Ġnomin ated
ĠB et
ĠSt ep
Ġfin an
Ã¡ n
Ġpl ates
ak a
Ġexpl an
Ġl ic
Ġfe ver
Ġstud ies
C T
an as
Ġex ha
Ġl aura
ask a
Ġfl u
Ġ198 6
Ġrout e
ĠCarol ina
Ġconf l
Ġj ealous
Ġmar ch
Ġpers ons
O uch
Ġre ward
Ġfirst name
gg ing
ĠJul ia
ĠS id
Ġdra gon
Ġsafe ly
Ġland ing
Ġplat form
yl van
Ġex hib
ick ing
Ġfind s
Ġroad s
Ġno isy
ort ed
ĠB us
Ġun com
nt il
Ġinqu ired
M ust
W H
em me
Ġbeg un
As k
Ġcha llen
Ġfal se
c ar
r ich
Ġr hy
Ġconsider able
l i
Ġt ropical
ĠE st
ha d
ic hes
ol n
Ġcontain s
ĠOl iver
ind er
Ġequ ip
im me
ach us
Ġprodu ct
Ġc age
ĠG ree
Ġbl owing
d le
ĠB omb
ĠK ent
ĠL ater
ĠComm ittee
ĠSec ond
rican e
Ġgo als
ĠS outhern
ĠOx ford
ut ies
Ġsymb ol
ĠFa ith
p ot
ĠP ier
o ir
Ġr ug
Ġad vert
J esus
Ġgod s
Ġemb arrass
ag ue
pect ed
u ing
N eed
Ġunif orm
r idge
ĠN ancy
Ġbed s
ĠCol umb
Ġfool ish
ĠTur k
ic ations
uck les
R A
ha ll
ass es
A ha
p ers
Ġc ouch
ĠR ail
Ġste el
Ġdoll ar
re ls
Ġrequ est
ĠB ible
Ġreturn ing
Ġwar ri
het ic
y ard
Ġreal ity
Ġrep ro
Ġpossess ion
K E
ĠA lf
Ġwork ers
bo at
Ġbal ance
Ġc ups
Ġv ain
ĠK itty
Ġeng ines
ĠSen ate
ĠCO VID
Ġy ummy
ĠU nder
ĠGr oup
ĠB oth
han ts
Ġcons cious
Ġ198 1
C ook
un ched
Ġarch ite
Ġoblig ed
ĠSt ud
ĠWin ter
z o
Ġvis ited
Y um
Ġd ea
ul s
Ġcheck ed
ĠMus ic
Ġab oard
Ġcondu ct
Ġamb ulance
ĠO ur
Ġcar pet
ather ine
Ġgrand pa
olog ist
U gh
t es
ĠP ict
ne w
Ġres our
itc her
S er
Ġd yn
ĠAr k
c os
Ġl ou
ĠE s
uc ed
ĠMar ia
ĠAlex ander
Ġdistribut ed
P aul
Ġhead ed
B oo
Ġa ye
ing ton
Ġquar ters
ge ous
Ġent hus
Ġconfir med
ĠT ime
Ġval u
Ġaf fection
Ġneighbor hood
Ġan ger
Ġan gel
il st
Ġv ast
ĠT ake
Ġsleep y
Ġtrad itional
ylvan ia
or ious
ĠY ear
achus etts
Ġm useum
ven ge
Ġpress ed
Ġqu ant
Ġpass ion
t han
im ents
Ġappro ached
Ġmere ly
ĠIs lam
en ess
Ġg ri
Ġfl our
Ġbu g
Ġcont ribut
ĠPr incess
Ġcal cul
Ġin se
Ġan cest
ĠAtl antic
a res
U M
Ġmov es
Ġcitiz ens
Ġb ond
uck er
Ġvol ume
ar on
Ġr ivers
Ġgl anced
Care er
F F
Ġele ment
Ġsupport ed
Ġdread ful
Ġmyst ery
Ġact ed
ir ts
Ġdescri be
Ġcott age
Ġkill er
2 8
O k
Ġto ols
AC K
Ġh ockey
am my
Ġ197 6
Gu ess
Ġun its
Ġc ord
ĠB ang
ĠJew ish
Ġpir ate
b ar
ha ra
Ġapp eal
dd ie
Ġmajor ity
Ġtur tle
' ...
Ġd ies
or med
Ġstop ping
Ġhealth y
Ġridic ulous
Ġlar a
Ġ197 9
Ġpers u
h o
ĠN ic
Ġwith d
Ġtre mb
ly ing
Ġsha king
ES S
Ġobject s
Ġn uts
Ġfr ame
inc oln
t wo
Ġsc he
ĠB ra
ĠJ r
ĠN ever
Ġconne ction
Ġtow el
ĠG al
Ġdri ft
w ide
Ġp up
2 6
Ġst olen
ĠW ITH
l ong
Ġp engu
Ġdist inct
ĠMarg aret
M ag
in ces
ph y
N ic
ĠM u
pt on
ĠH oll
Ġtri be
Ġserv ants
Ġloc ation
ĠH an
u ght
w ill
Ġc ough
Ġth irteen
ĠF ord
Ġmist ress
Ġprincip al
u als
he im
ĠC a
Ġab and
ertain ly
Ġdepend s
W elcome
Ġp oll
ĠT ok
Ġele v
Ġinj ured
Ġc akes
Ex actly
Ġbasket ball
3 5
ĠP an
m un
nd y
Ġg ard
ic opter
ĠS ur
ĠT rans
iv ity
ĠY et
Ġ198 5
ES T
4 5
ob e
ĠCon f
Ġo pt
Ġtechn ology
Ġcere al
Ġbu zz
Ġear ned
udd enly
Ġbene fit
ĠSt ill
Ġpart ly
Ġw ishes
ie ved
hm m
Ġreport s
Ġboy friend
Ġbull et
Ġsen ior
Ġbu ff
Ġtra p
Ġrom antic
Ġh ipp
ri pt
Ġc hess
Ġid iot
Ġcommon ly
Ġshar k
P res
S C
ĠS ant
ĠR E
Ġbo om
Ġamong st
Ġsal es
ĠGeorg ia
Ġsa uce
Ġbud get
Ġpow der
ĠPac ific
Ġhold s
rop ri
Ġsail or
Ġaff airs
un ts
ha w
Ġclass es
ĠTH IS
Ġclot hing
est ic
Ġpe ek
ĠPhil ip
ĠAn other
less ly
Ġbill ion
F if
Ġb ubbles
el ine
ons cious
B ab
Ġd irt
J ump
ĠH ung
umb ling
Ġequip ment
J www
ut ions
Ġr ac
Ġman ufact
Ġsc ored
Ġart icle
m usic
up on
Ġpig gy
Ġf its
ĠD ou
Ġpo le
ĠAs ian
Ġcost s
Ġg le
am ent
ĠV alley
Ġâ ľ
Ġstret ched
i h
Ġse asons
Sh it
Ġattend ed
Ġfor b
Ġen s
Ġdeg rees
Ph il
Ġnot ed
hing s
Ġcomp ared
Ġl aughter
Ġsc ra
Ġinc hes
al so
ĠSus an
L ife
ess ion
Ġgrand dad
Ġactiv ity
Ġâľ ¿
I A
Good bye
Ġmum mie
ĠDiv ision
Ġs in
id ers
ĠAr men
ĠMart ine
ĠS her
all as
ĠL ib
Ġdisapp ointed
Ġcapt ure
ĠDis ney
ĠA ccording
Ġso il
ĠU h
Ġl amp
Ġag es
Ġexper iment
om i
ĠM id
aught ers
ĠWind ows
A ccording
Ġre n
Ġst able
Ġ198 3
Ġdefe ated
if ts
ĠAnd rew
Ġdr um
Ġstro ke
ĠMass achusetts
J o
ĠC ub
P eek
m ony
ce ived
Ġprom pt
ĠNot hing
G E
Ġbe es
ig ger
Ġret ire
ĠJohn son
r ated
Ġbe lly
ak s
ĠH ome
Wh ite
Ġcl ient
Ġatt ached
Ġimport ance
Ġexpect ing
ĠS E
Ġco vers
Ġtrain ed
Ġse as
Ġpro b
-- _
Ġun ha
Ġh id
Dr ink
Ġsusp ic
ĠM ich
Ġcol ored
Ġmanage ment
Ġshe et
icy cle
---------------- ----------------
n at
ĠT em
al ing
ĠLuc y
Ġterrit ory
Ġs ought
Ġfr ank
Ġte en
ĠIn stitute
E llie
Ġpr on
r as
Ġg iraffe
Ġad am
AR D
Ġrefer red
S ec
f our
ĠA sh
Ġconf used
Ġappro aching
m ate
Ġcrocod ile
2 9
N O
Ġbe ep
Ġrepresent ed
sh ire
Ġstore s
Ġ3 5
m osp
Ġun iverse
ĠBr other
Ġaward ed
in ea
Ġan al
Ġgo sh
Ġret reat
S n
Ġheav ily
ĠEm peror
O op
Ġtalk s
Ġfact ory
Ġnea rest
Ġrespond ed
w an
OU LD
Ġw ard
Ġb ord
all s
ĠM iddle
Ġsp y
Ġke en
keep er
ĠS har
ĠN az
Ġalong side
Ġconc ert
IC E
ĠP op
Ġsepar ated
Ġsatisf action
Ġt ab
ĠC ra
Ġser ving
Ġcup board
Ġfurn iture
Ġtid y
AU GH
Ġim age
Ġche w
Ġvessel s
ĠIs lands
Ġadvent ures
s ylvania
ib ly
Ġprogram me
TH ER
D es
G ra
ĠD et
Ġinc ome
Ġd ed
ĠCl are
Ġcon cl
Ġgrate ful
3 7
ĠE ll
Ġhor ror
Ġill ness
Ġ8 0
Ġtrad ition
ol ves
rop ol
Ġu mb
Ġauthor ities
ĠS ure
Ġair craft
n is
Ġd ull
Ġst ations
res p
Ġsca le
Ġr oss
Ġac id
Ġunderstand ing
ĠH AVE
Ġvar iety
ĠTe am
ĠHel en
al ie
ĠK ansas
Ġ198 2
Ġpean ut
* *
Ġnat urally
ĠDad dy
Ġbroad cast
Ġeconom ic
T LE
Ġsal ad
Ġring ing
Ġdesper ate
m aster
Ġp eter
Ġwe bs
ĠF er
Ġgra pes
Un cle
ĠV iet
Ġarri val
Ġsp aghetti
Ġwr it
Ġland s
Ġn a
Ġcomp ar
Ġsc hed
Ġsa le
ĠP as
Ġbet ray
ĠPri ze
W ar
Ġc ran
is se
le ction
M ic
ĠOn ce
Ġal p
ĠN ord
Ġmind s
Ġpray er
Ġaccom pan
im um
Ġbr ick
ik a
br idge
Ġremain ing
Ġha l
Ġinst it
rog en
Ġmag net
s ome
as ion
ink le
art s
ĠSyl via
Ġpregn ant
Ġest ate
ĠRepubl ican
Ġmurd ered
Ġw inner
Ġclean ing
Ġrubb ish
Ġbe ating
ĠM useum
Ġoffic ially
ĠSte ve
c oh
Ġc attle
ust ing
p ent
Ġnice ly
Ġconf ident
por ary
ĠAnt on
Ġd umb
port s
Ġelect r
ab out
Ġb ore
Ġv ig
Ġbuild er
N umber
Ġsh y
Ġ197 4
B i
n old
Ġdad a
Ġviol ence
Ġstraw berry
Ġsole mn
S weet
g ment
h um
nd a
ĠI llustr
Ġr od
Ġst amp
Ġim pl
ĠSy dney
Ġbisc uits
ĠP L
Ġm oo
ri ly
ĠO cean
ĠYOU R
A my
N ine
B O
ow a
Ġst ove
Ġex act
Ġelect ron
ub by
f oot
Ġsna p
Ġthorough ly
ĠDe v
Ġconc er
in ated
ad el
age ment
Ġwhist le
ĠServ ice
Ġv oy
ĠMex ican
Ġb om
Ġst ated
Ġhead quarters
ĠGr ace
Ġtiss ue
â Ĩ
Ġv en
Ġfl ed
Ġse eds
ĠT a
ĠL iber
ĠAl though
Ġe re
man n
ĠGerman s
Ġbas ic
f ire
Ġcr icket
Ġdist ingu
az y
Ġtroub les
at tered
Be ep
Ġ197 8
Ġpolit ics
ĠJer sey
ĠA D
Ġer r
ĠFranc is
Ġachie ve
Ġbelong ed
B ea
r ound
Ġst arring
ĠM ir
ap h
ag le
Ġsix th
Ġ196 8
Ġaunt ie
Ġm ast
ĠOlymp ic
ha ve
Ġf asc
ac ious
ur ches
ĠL ist
P erson
ĠAr ch
Ġcap able
arr ot
Ġ9 0
Ġtour nament
es c
Ġdra g
Ġrev olution
d og
cri ption
ĠPenn sylvania
Ġp ist
ĠS C
ok ed
Ġgrow th
ĠAust rian
Ġa www
Ġdefe at
or ial
Ġassist ant
z ing
ay lor
oo h
Ġrecom mend
Ġm rs
ĠAnd y
Ġgrand ad
ĠGold en
ub ble
ĠIn ter
Ġ197 7
Ġanx iety
Ġsche me
l ets
ĠL ew
Ġext ent
H L
r im
Ġpros pect
Ġconfl ict
Ġr ig
Ġdisc overy
enn eth
Ġ eth
Ġsur gery
19 6
w orks
ĠU kr
A lex
c orn
im ately
stand ing
Ha ven
Ġmat hemat
Ġaw ait
ĠSpan i
Ġcr ab
Ġcomm itted
Ġprim ary
P E
Ġtri es
Ġv irt
Ġdeep ly
Ġfinan cial
Ġres ident
ĠAr gent
Ġnat ives
Ġsurv ive
Ġveh icle
Ġsaus age
Ġw ag
Ġn ana
Ġat mosp
Ġfe ast
Ġcha mpion
in tend
ĠB udd
em e
ov ing
Ġ197 5
Mum mie
Ġbuck et
et ic
ĠD ave
ĠU N
ir o
ĠP lease
Ġeconom y
Ġvalu able
C or
ĠB ear
Ġus eless
bur gh
oph y
Ġart ists
Ġbas is
Ġmc donalds
Ġre ign
ĠB eth
Ġpe cul
Ġlim ited
Che ck
Ġune x
Ġc ou
Ġsk ill
ĠWil son
Ġl oyal
Ġint ense
Ġsqu ad
Ġ196 9
Ġumb re
ĠF R
if er
Ġport ion
in ity
ĠA le
ĠF e
Ġash ore
Ġre action
Ġgood bye
Ġm ax
Ġd avid
Ġwant ing
Ġtre mend
Ġsail ed
Ġmid night
Ġinn it
Ġvac ation
Ġcere mony
It s
Ġthr one
D an
ĠH or
St art
Ġ197 3
Ġbatter y
ĠH oly
Ġnum erous
Ġp itcher
Ġcha mber
Ġdrink s
Ġthirst y
Ġsw ept
Ġvisit ors
ad u
Ġso ck
ĠG i
Ġfun eral
Ġwalk s
ver se
ĠB aby
og rap
Ġdelight ful
ĠFranc isco
Ġd aughters
ĠB attle
ag ger
Ġback ground
Ġrock et
mand a
Ġcar bon
Ġsy m
enn is
i able
ĠN et
ubl ic
Ġb id
ĠS ong
ak in
eg al
B ang
Ġl ung
ĠN OT
ĠSh ow
Ġlov ing
Ġprodu cts
Ġmis erable
N or
W on
Ġg al
ĠH al
ĠH ard
Ġint ention
Ġchar ged
Ġcomp osed
Ġinterrupt ed
R ob
ĠT ele
Ġdep th
ĠS on
Ġins urance
in ced
ĠDon ald
Ġcle ared
p ool
Ã ´
Ġfig ured
G one
ut ation
Ġmunicip al
Ġexchan ge
8 0
Ġj ar
iss ed
Ġdes erve
Ġste ad
ĠBrazil ian
M art
w ick
is k
ĠF C
4 7
in als
Ġgr at
ĠK ar
Ġbast ard
ĠB at
Ġreg ions
Ġpun ishment
in er
ol ph
ĠH olly
Ġpart ners
Ġrec overed
Ġchar t
Ġgener ation
B re
B ad
ut iful
Ġde y
pl ess
ĠMich igan
Ġh ired
Ġunder t
Ġstr ict
AR T
ĠLo ire
Ġt ack
ĠH ur
Ġlevel s
B S
Ġregard ed
Ġscient ists
oc al
Ġla unched
Ġlab or
Ġpro ceeded
Ġinst antly
Ġr um
ĠM abel
ĠL incoln
ĠK NOW
eb ra
Ġdress ing
ĠRep resent
A IN
ot ty
em ents
ord an
Ġele ments
Ġ197 1
ĠBer lin
ar io
Ġr ust
Ġshort ly
Ġchim ney
im b
Ġf eared
Ġfollow s
Ġscient ific
Ġt ide
ur g
Ġmet ers
Ġins isted
Ġo o
Ġdisc ip
Ġattack s
Ġprogram s
Ġl ob
Ġrul ed
Ġspend ing
Cle ver
Ġunha ppy
ĠB all
ult ure
Ġste ep
Ġ193 0
Ġexplan ation
ĠB ow
Ġ( ,
Ġj ungle
Ġpol ite
ĠScott ish
Ġadop ted
Ġcont est
Ġbear ing
ĠMad ame
Ġprep are
Ġbisc uit
Ġarg ument
I ce
Ġsail ing
ongrat ulations
I ES
; "
c ase
Ġto e
ĠB ook
bs olutely
Ġst ared
ĠH ay
Ġfl ow
Ġban ks
Ġl emon
Ġn ort
Ġth umb
Ġ7 0
ĠM att
ain ted
Ġpl ot
el ia
m od
Ġa rose
ĠSo cial
ĠSo ciety
Ġcook ed
Ġstar ing
L ater
d es
Ġcomm ission
Ġtem ple
ĠOrd er
c ut
d oor
ĠA z
ie v
cc er
Ġhop es
Ġthreat ened
Ġelep hants
Ġpir ates
ĠLou ise
et tle
ĠCl ark
Ġcant on
ain ts
anna h
U CK
ub s
ever al
Ġcrim inal
C ow
M ary
T O
d id
Ġv ision
Ġfl esh
ul ed
Ġass ured
ev in
Ġsuffic ient
oll ey
J ames
P S
Ġf are
Ġj olly
Ġsn eak
Ġimp ress
Com ing
Ġinstr ument
A unt
inn ers
Ġwha le
ĠRec ords
ĠM od
S illy
on ly
ang ar
Ġhat ed
Ġstud ying
D uck
J ul
s name
Ġchan ces
Al most
Ġpat ients
A nt
Ġ196 4
Ġd ign
Ġf ires
ĠT ell
So on
Ġ4 5
Ġsle e
Ġcheer ful
g ues
Ġcon ference
Ġest im
Ġf uel
el f
Ġcomm it
Ġenjoy ing
the less
ades h
rif ice
us hes
Ġcott on
Ġdetect ive
Ġfeather s
ot al
y gen
ĠCl ass
Ġnucle ar
w ers
Ġf ederal
Ġvill ages
Ġconv inced
Ġm ental
Ġd ried
Ġnow here
Do ctor
ĠMar ie
om y
un n
Ġwhere ver
cri pt
Ġconst ant
Ġkick ed
c at
Ġd well
Ġwh ilst
ol ver
Ġviol ent
Ġwe b
Ġst out
ab bit
ĠN ap
Ã³ n
P ink
p her
Ġd ining
as ped
ĠB C
Ġcre pt
Ġpack ed
Ġfier ce
M at
ĠS H
ĠA S
Ġagre ement
ĠJ am
ars on
Ġstick ing
Ġfil ms
Ġdev il
Ġnear by
ĠPol and
ĠLab our
ĠA ss
Ġsh ots
Ġpr ime
i ently
Ġd ough
Ġl t
Ġsha red
Ġsum m
Ġtick ets
Ġfoc us
A H
Ġp oured
IN D
ĠAl bert
Ġste amer
u v
ac ity
wh y
Ġconst ruction
ĠE llen
ov a
ĠM inn
th ony
ps on
Ġpri or
ous ed
Ġstop s
Ġsav age
ud ge
Ġkind ness
isc illa
ab or
Ġhel icopter
Ġdistrict s
i at
Ġre aching
ug s
Ġ196 7
Ġlo ads
or ne
Ġsc ript
Ġarri ve
ĠW ould
ĠH as
ĠAl so
Ġprop os
Ġpa used
Ġn asty
ĠTh ursday
ĠX V
Ġmer cy
Ġexped ition
c us
Do g
ĠĠĠĠ Ġ
Tom orrow
Ġen orm
ĠPr ot
Ġla unch
b ag
Ġg inger
ĠO w
Ġche ek
Ġanim ated
Ġmultip le
T ick
Ġpar ish
Ġexist ence
App le
M oo
Ġal coh
" ),
C ool
p re
ĠT am
ĠR em
Ġfriend ship
Ã §
Ġbreat he
b ors
Ġper man
Ġchar ges
Ġactiv ities
it ter
ĠA g
ĠAs sembly
] .
Ġth ief
Ġbr on
Dad a
N one
ipp i
ĠLe on
E ng
e f
ost er
ĠAl i
ĠAd am
Ġexpress ed
Ġcy cl
A y
R o
Ġ /
Ġs ne
an es
Ġdis ag
ang ers
Ġalbum s
s ur
Ġs out
ĠC y
ĠRev olution
b i
re al
Ġg re
ĠT uesday
Ġcatch ing
S im
Ã ¦
Ġan ne
Ġsha pes
L ady
IN E
Ġhen ry
ĠD avis
Su per
Ġpatter n
S leep
m el
ar ant
U s
âĢľ âĢĺ
Ġmad am
p ol
Ġ âĢĶ
Ġas pect
un o
ĠW he
Ġno on
ob al
Ġset s
Ġmount ed
ur ger
Ġbreat hing
Ġhe d
Ġopen s
Ġimp ression
stit ution
Ġs arah
Ġm uff
S arah
Bob by
Ġb a
ĠS ax
ĠT ha
Ġatt itude
G otta
m ates
Ġj eannine
Ġumbre lla
Ġmay or
Ġstick y
b al
ie ur
Ġlast ed
for ce
che stra
augh s
. =
Ġm ars
Ġch urches
Ġengine er
i ac
Ġsh ove
ĠGr ay
Ġdirect ions
Ġlim it
Ġaffect ed
ar med
ĠB av
ri ve
ĠD am
ip es
Ġla wn
Ġwra pped
d s
f rom
ĠS ay
ink ing
Ġoper a
ffic er
Ġ ing
Ġbe nd
ĠC ur
un ks
Ġcl aimed
Ġdel ivered
Ġem ot
Ġgen us
ĠKore an
Ġse ed
ĠT y
ast e
ĠN i
ys is
Ġcommer cial
U L
m ad
Ġb er
Ġchar ming
Ġdev ice
B E
r ative
Ġh oly
ĠHe alth
Ġun ivers
Ġexper t
Ġben ch
Ġveget ables
Ġfeed ing
Y yy
ĠD allas
Ġrab bits
Ġsac red
ĠR a
Ġgr ief
Ġrem ove
Ġ194 0
Ġany how
Ġsignific ant
ĠHea ven
ĠW olf
ale nd
Ġclos ing
Ġsna kes
F ort
ot ing
Pre tend
Ġmerc hant
G irl
ĠC L
y our
Ġfe ature
ustom ed
B el
ĠS ix
N ah
Ġch in
iss ors
Ġob tain
Ġart icles
iffe rent
Ġ Â
il ton
Ġfl ies
Ġdra gged
B Y
Ġd rank
Ġf etch
Ġp ine
Ġhe ap
Ġan na
ĠW ednesday
Ġsw ung
Ġ5 00
Ġun like
Ġstraw berries
ĠBarb ara
it ors
Ġm al
Ġh om
ĠI d
al ph
Ġr ot
ĠT our
Ġgr ade
J an
Y eh
c ow
Ġc www
Ġmach ines
Ġbell s
Ġextend ed
Ġpecul iar
o ch
r ad
st al
Ġmyster ious
re ll
Ġlo ver
Ġsail ors
u ct
Ġb ade
ĠB uck
unt ed
Ġassoci ated
3 6
Ã ¢
Ġc one
Ġg um
Ġsm oking
Ġref use
Ġdescri ption
ĠB esides
ĠW ild
ile y
Ġob tained
Ġbee f
Ġatmosp here
T eddy
Ġp eak
W alk
ĠS ar
let on
Ġacqu aint
S ounds
Ġover t
iv a
Ġassist ance
Ġbe gged
Ġdis aster
Ġout er
Ġgr im
Ġhel pless
Ġ196 6
Ġpossib ility
Ġunex pected
H ar
w estern
ed ge
iss ippi
ĠFor ce
Ġcl ap
Ġsil k
With out
Ġabs ence
ĠGu y
u pp
Ġw aving
ĠS av
Ġcount ing
ĠConf eder
Ġbe ard
ĠU t
Ġhat s
Ġspl ash
Ġcrowd ed
Ġrub ber
G R
ĠChampionship s
E M
l ow
Ä ģ
Ġj oe
gl as
er man
ĠC arr
Ġtr amp
ĠIn tern
Ġgrad ually
Ġm our
Ġact ions
Ġgl oom
ĠAn nie
Ġk ings
Ġch ip
Ġthr ust
Ġkid na
Ġmid st
Ġvol can
b b
ĠJ oy
L aura
Ġc rap
Ġp ier
Ġrecord er
Ġcand le
on ge
B esides
ï¿½ï¿½ ï¿½
Ġcent uries
Ġdinosaur s
ĠVictor ia
Ġpe ep
ĠTh ose
ph ia
Ġbott les
hab et
Ġc ops
vent ion
AK E
T V
Ġcons ist
âĢķ âĢķ
ĠB ank
Ġyour selves
Ġwar ned
Ġappl ied
ĠI nt
ĠL O
ĠR eally
Ġpre m
ĠMay be
L ong
ĠC ivil
ĠSt ory
ĠV en
ling s
Ġind ign
Ġwind s
Ġconst antly
Ġorgan is
5 00
v ior
ik es
Ġins p
Ġanch or
E s
Ġtouch ing
ĠEn ter
3 8
Ġd uties
ĠS han
all e
ĠW alk
Ġal iens
ĠV ol
An ne
Ġvict ims
Ġfrequ ently
Ġact s
Ġres olved
Ġstat us
Ġt ales
ĠN avy
Ġro ar
Ġdra ft
oor ay
Ġpretend ing
Ġfaith ful
Ġtremend ous
Ġg azed
if ying
Ġchick ens
P L
Ġm ichael
Ġwill n
R obert
Ġe ase
ea v
ĠM em
ĠLaw rence
W HAT
c ont
he lle
Ġn onsense
ĠW ait
erv ative
Ġgor geous
Ġdemon str
a way
In ternational
Ġexpl ore
Ġunc onscious
Ġt ables
Ġb icycle
Ġdon key
Ġsit s
Ġcig aret
9 0
or ous
Ġtr icks
ĠHon or
r m
ĠD own
ĠR oy
ĠOh io
Ġprot est
Ġorgan ized
Ġtroub led
Ġs ank
Ġp uff
Ġg on
Ġcollect ed
sc ar
S ing
ot ic
em a
Ġda isy
G ee
Ġc ries
un ction
pen se
Ġtur key
Ġrepe at
Ġinstru ctions
ĠB ird
Ġstay s
Ġimp act
Ġlo ft
com ing
ret t
ĠStep hen
U se
Ġg oose
as m
Ġru in
Y e
Ġw oof
Ġp ace
ul se
ĠO UT
Ġun w
pect or
Ġfact s
ĠN ell
ĠK n
duc ation
Ġr os
ĠW rest
ĠL ight
Ġcon ven
oy d
ru ct
Ġp enn
Ġp udd
ĠC ass
ge on
Ġcon cept
Ġchild hood
Ġpresident ial
Ġr aid
ĠC AN
int on
Ġcop ies
Ġoccasion ally
opl ane
ropri ate
Ġdro pping
Ġ194 5
Ġbeat en
Ġlab el
Ġbatter ies
Ġcray ons
Kn ock
Ġv ic
Ġste ven
Ġgener ous
Ġs anta
Ġf er
Ġliqu id
ĠTok yo
G eorge
it ched
Ġn ail
Ġli p
Ġtri bes
ĠGr ant
ĠBomb a
Ġaccompan ied
z es
ĠL I
Ġsandw iches
ĠBern ard
adel phia
Ġg ates
ĠD i
Ġph r
Ġcor por
anche ster
Ġconclud ed
Ġhe els
Ġneg ative
Ġinvestig ation
Grand ma
enn es
Ġbree ze
3 4
ĠA k
Ġso b
Ġgu ards
Ġwar n
Ġcol onel
ĠCast le
ĠArk ansas
ĠComm ission
Ġcomr ades
Ġchallen ge
ĠT s
ĠK ate
Ġob st
ĠDire ctor
d ale
ĠA ri
Ġnorth west
Ġsac rifice
ĠB rian
b ot
ĠW el
ĠK ong
ang es
Ġaw fully
IT TLE
Ġkil omet
Ġse al
og ue
Ġca red
Ġmut tered
Ġsuc ceed
ropol itan
l ace
Ġp anc
Ġl ux
Ġjo int
Ġsu icide
Ġrec over
ats y
Ġfavour ite
Ge ography
l on
ac les
um a
ĠF orm
Ġgl ory
Ġsecret ary
Ġperm itted
g ot
Ġb ass
Ġu lt
ĠGu ard
ĠLew is
" ."
Ġy er
ab ama
ist or
I m
v et
Ġf acing
Ġst ress
ber y
ure au
ĠAl an
l ar
ig ator
Ġmove ments
Ġlay ing
Ġ195 6
IC K
Qu ite
Ġholiday s
Ġelectric ity
T y
Ġd ude
ere r
7 0
w ald
as hes
ĠI ce
ĠL ind
ĠE arl
Ġb oring
Ġsymp athy
F L
ĠS andy
Ġhistor ical
Ġf aced
Ġsol ution
ĠT op
Ġquestion ed
Ġremark able
Ġreve aled
Ġo l
ĠS ally
ĠT aylor
Ġwor ship
Ġdel icate
Ġforest s
Ġvoy age
ĠK y
Ġbl ast
Ġinv ite
For get
Ġw is
ĠC op
ĠP o
ĠU s
ĠMiss issippi
ĠBe ck
ĠPol ice
ĠP ic
An na
ĠS n
ĠL aura
Ġex ceed
Ġle ather
heart ed
Ġstret ch
Ġbare ly
Ġit ems
ĠE ric
ord inary
Ġed itor
Ġanx iously
ĠBru ce
f its
ĠA B
ĠT urn
Ġal ien
ĠG all
Ġim per
Ġsl ice
Ġcross ing
Un less
H ard
Ġb um
Ġtr ace
Ġign or
ĠFil m
N ear
Ġw ars
Ġm os
Ġpro fit
D raw
L uc
ar se
Ġob vious
Ġlead s
Ġ196 5
Ġz ero
3 9
Ġd ing
ĠS ub
Ġsp ray
ze ch
Ġshar ply
Ġphot o
Nic ole
J u
Ġst ab
ight y
ĠJew s
Ġpump kin
or gan
ĠD og
ĠF le
Ġcur ios
Ġdet ail
Ġabs or
ĠSwed ish
Ġb oun
es ome
Ġintrodu ce
ĠR yan
Ġro ots
Ġstrong ly
Ex cept
Ġprofess ion
S uch
ĠA gain
ĠD iana
Ġmusic ian
go ing
U E
Ġy ell
Ġsp ill
Ġsur re
Ġdraw er
ĠSte ven
4 8
ĠB road
Ġsp aces
Ġpre viously
Ġans wers
Ġass ault
Ġestab lish
D O
Ġar row
ĠK enneth
ĠFran ces
col m
l an
Ġmom ma
cha rd
Ġm ice
ro ck
ak ers
od a
ult an
Ġmist aken
Ġfir ing
R oll
it ra
Ġr age
ĠR aj
Ġcl ay
Ġcandid ate
Ġk itten
ĠPol ish
Ġox ygen
ĠR us
L ara
R el
ĠS uch
ĠA LL
ĠP art
Ġresour ces
Ġsym pt
ic ip
Ġcolor ing
ĠĠĠĠĠĠĠĠĠĠĠĠĠĠĠĠ ĠĠĠĠĠĠĠĠ
ĠCo ast
Ġdiscuss ion
Ġcarr ots
L emme
Ġmother s
Ġsubject s
Ġsund ay
R ound
Ġc ush
st an
ĠB elle
Ġj ury
ack ed
Ġbr ide
br ush
Ġbur nt
Ġhast ily
Ġneigh bors
Ġpupp et
Ġne p
Ġsit u
Ġenorm ous
Ġd ashed
ar o
ĠA L
ĠA RE
ig r
ra gon
ak h
Ġten nis
Ġterri bly
Ġbe cky
ov ie
gg er
Ġdef ence
ĠSha h
Ġpack age
Ġindepend ence
Ġs ke
at ers
ĠF anny
Ġsk irt
Ġref lect
Ġmill ions
ĠDan iel
Ġfr idge
Ġbeing s
Ġhor iz
Ġchair man
p han
Ġp atch
ĠC her
ĠC OM
ĠD olly
Ġvis ible
ĠBe at
Ġsuggest ion
uk i
A bsolutely
ri ver
ne ver
Ġball et
T a
Ġf estival
ĠM oo
ĠR en
ĠSer ies
p o
or us
Ġr aces
ood y
Ġv on
Ġpro ced
Ġliter ature
Ġs ou
Ġl un
p ress
it able
Ġre fe
Ġ3 6
Ġnep hew
C han
ĠM ill
ĠM oon
Ġyoung est
ĠPr iscilla
Ġview s
m ission
ĠR oss
ĠHe ad
Ġgl oves
angar oo
alend ar
C ertainly
in ent
it als
Ġn ails
ĠG reg
ĠL ang
Ġcom in
ear ch
ect ion
Go es
Ġground s
in ter
Ġim pr
ĠReg ion
P ig
ck now
F ish
u en
ol as
Ġacc used
Ġdeal ing
F all
un te
ri fic
Ġun ique
Ġter min
ale m
Ġmis chief
Ġsc out
Ġbu nd
Ġscream ing
K itty
B ook
Ã £
le ment
ĠS ister
Ġlight ed
Ġsevent een
c r
Ġend ing
Ġend eav
k ind
ir y
St ep
ĠU P
ect ive
Ġmain tain
ĠBur ton
Ġintellig ence
w alk
Ġgo lf
ĠAn gel
ĠLes lie
n ut
Ġso fa
Ġown ers
Ġhur ting
Ġpor ch
Ġg ifts
Ġstart led
ĠCommand er
Ġs ighed
Ġst ew
th ree
ĠN E
cher s
Ġw oo
ink s
ĠL eg
ip er
Ġfe e
Ġclos et
Ġinvent ed
: âĢĶ
F eel
ri et
Ġfl av
ff in
Ġcompl icated
Ġcover ing
Love ly
g le
om on
Ġwe ary
os is
Ġgr ows
Ġinv itation
Ġincl ined
Person al
Ġcray on
Ġb ars
Ġmater ials
H enry
Ġs ung
as ures
Ġget tin
Ġ196 3
Ġru ined
ĠAir port
U ntil
Ġa wards
ĠH ans
ĠNor way
Ġlod ge
Ġincred ible
Ġass ume
ĠJohn ny
us ter
ur b
Ġworth y
s en
ĠB ol
ĠOff ice
k ward
Ġperson ality
Ġch um
ĠAl abama
Ġinter fe
Ġelect ions
Ġcontain ed
in ate
ĠB our
ĠD ie
ĠR and
Ġsc attered
Ġwide ly
g han
Ġ vel
Ġt une
or ney
un h
ĠG ro
ult ural
Ġacc ustomed
ker chief
B ird
l ah
Ġhel met
Ġhead ing
ĠNor man
4 6
F ollow
H aving
p ass
Ġg raph
ons ieur
Ġ194 7
Ġdep os
c ake
or i
ĠD NA
Ġsu e
Ġfl ung
Ġinf ormed
Ġconf usion
H arry
ry ing
ĠF ive
ĠHow ard
Ġ194 8
Ġclub s
Ġthe atre
ĠG ot
ĠL ine
ĠV ill
Ġimp ressed
Ġst or
Ġem peror
Ġ196 1
S O
Ġn aked
Ġh ollow
Ġfr iday
Ġshe lf
hen s
on ies
ĠP ope
OU R
Ġ195 9
Ġneg ro
Ġf og
Ġal oud
ĠD ON
Ġmon keys
oo kee
ĠM un
pr ise
Ġpossess ed
Ġexperien ced
B ER
I X
ĠI owa
ĠF el
Ġdef ense
Ġpoet ry
et ime
Ġre venge
Ġsub mar
Ġscen es
T ony
a fter
r ont
Ġf oss
ĠNew s
Pur die
W oof
Ġo k
ĠPhil adelphia
Ġcommand ed
Ġp arliament
Ġdec ent
Ind eed
D one
ch i
el son
u art
ĠMos cow
Ġw ins
Ġc ert
le g
ĠH ir
ĠTh us
Ġnewsp apers
Ġuncom fort
C atch
S ame
j an
Ġsh ift
ĠK han
Ġbl ows
Ġapp ointment
Ġca res
ĠMay or
Ġpray ers
Ġth read
ĠW HAT
Ġfore head
h is
Ġshell s
Ġsquee ze
Ġd ared
Ġre ject
ĠC zech
Ġab road
Ġ3 2
Ġrest ing
Ġperson ally
Ġthank ful
Me an
AT ION
Ġliter ally
r ace
Ġw aved
Ġd ug
Ġprint ed
p hant
Ġin fect
ĠA ud
Ġsat urday
ĠColumb ia
L ou
g iving
Ġbr id
Ġsha de
Ġ3 00
r ie
es ota
Ġr ip
ea re
Ġsun ny
3 2
Ġr att
Ġmon arch
Ġswe ets
Ġble eding
Ġm art
Ġro ast
Ġcarr ot
T hings
Ġdest ruction
ĠRob inson
Ġr ushing
Ġday light
av an
sh it
Ġoper ations
Ġoper ating
izz y
ĠHind u
Ġin ner
ĠR ich
Ġwor m
Ġexp and
Ġepis odes
Mil k
Ġalp habet
o cc
id en
ĠSt and
Ġed ition
Ġy ield
ĠS in
vel ope
Ġ196 2
Ġpot ty
Ġfirm ly
P o
P ost
Ġ Â¶
Ġp ed
Ġemploy ed
P ass
s ong
Al ways
Ġcontin ues
Ġ195 2
ĠH un
Ġsc issors
UN T
Ġre ference
Ġint ent
ĠViet nam
O y
Ġl ick
oo ped
Ġsh o
ĠL i
Ġcha sing
Ġband s
cient ists
Ġfant astic
B illy
Ġg a
ĠN O
ild a
Ġon line
Ġbl own
Ġinj ury
ur i
un ty
Ġsur vey
Ġa cknow
E ach
S aid
ĠS ab
te enth
Ġmass ive
Ġbeha vior
Ġn app
Ġman ners
Ġadd ressed
Ġwa ist
Ġmurm ured
Ġcurios ity
B a
M ight
er a
ood le
Ġwho a
ĠK a
Ġswe ep
Ġ195 7
De ath
Ã¨ re
ĠM iller
ĠT ob
ĠSpani ards
v ant
Ġgu arant
Ġmem ories
Ġd ess
Ġp and
Ġgather ing
Ġgradu ated
W ork
Ġf uss
Ġr oo
ĠM oses
Ġlong est
Ġsuper ior
ĠSim on
C ount
ĠG en
ond isse
Ġindust rial
Ġsquir rel
M alley
u ction
ĠChar lotte
Ġcrit ical
Ġdistur b
ĠH en
Ġlet s
Ġlight ning
Ġcost ume
Ġdi agn
oph ie
G eneral
Ġs an
ĠA manda
Ġca using
Ġexec utive
Ġw ret
Ġp unch
ĠD E
K ing
T HAT
ĠH ockey
aken ed
Ġequ ally
ĠChan nel
Ġ `
Ġst adium
Ġkn ight
Ġwho ever
Ġpock ets
Ġdesp ite
C up
Ġcar oline
Ġang le
Ġdanc ed
Ġdesp air
ĠC ON
Ġco c
ĠSt op
Ġent ering
Ġinst inct
du ction
Ġaw kward
ĠTur key
IF A
z ed
in ating
ha rd
Ġm ush
ag a
Ġtri angle
Ġref uge
Ġspeak er
Ġf isher
Ġann ounce
Ġprotect ed
Ġextra ordinary
Ġath let
A ir
s omet
Ġrel atives
Ġsn iff
Ġ195 8
Ġself ish
G osh
ĠH art
Ġdro ps
Ġlo aded
Ġcand les
Ġh its
ot i
ter y
ĠG ET
Ġro ot
Ġpre y
Ġmar ched
Ġcow ard
ĠFrank lin
Ġdeb t
ĠMinn esota
g age
Ġc ateg
Ġgl ue
Ġsit es
ĠL E
ĠK night
Ġjournal ist
ograp her
Ġb rig
ĠJ ordan
ĠBr idge
cul es
Ġast ron
d r
ĠB R
ag ers
Ġrec all
j amin
ut her
ĠDe f
gr im
Ġrep utation
Ġfro st
v ard
ĠB BC
ĠG re
ĠH ong
Ġpe pper
Ġplan es
ĠSam uel
ĠCr own
Ġclaim s
bre ak
ĠGree ce
R ichard
n i
Ġflo ating
Bi ography
j ac
Ġh oo
ay a
ĠP ost
Ġapp et
Ġacc ur
Other wise
C ont
g i
Ġl www
Ġhapp ily
bor ough
ĠBav aria
Ġc alendar
Ġrest ed
Ġbreak s
Ġfootball er
Ġearth qu
1 00
ous es
19 5
Ġev olution
Ġstick er
Ġill egal
Ġsad dle
, .
S aint
ĠW y
Ġm hm
ĠT al
ĠH ER
Ġbr ook
ik i
Ġfast ened
Ġra ising
X X
Ġin ch
Ġwe igh
ĠL arry
Br other
k ers
ĠC reek
Ġv ice
ĠN ep
ĠN ations
Ġcoll ar
Ġdig ger
Ġpuzz led
g ood
Ġd art
pp ose
Ġen velope
fect ure
Ġe llie
ĠP oint
Ġpat ience
Ġtest s
Ġgar bage
ĠGra ham
Ġn arr
Ġthem e
Ġag ric
ien na
ĠDan ny
Ġtravell ing
G imme
t is
Ġl ane
Ġe ffic
Ġbl oom
Ġlist ed
ĠSpr ing
Ġe cho
ld om
ad ies
4 9
Ġexplos ion
Ġdip l
) :
p ter
ĠL ITTLE
Ġlea p
Ġsing les
Ġpot ential
Ġhast e
Ġcraw l
Ġapolog ize
W ind
w oman
Ġm obile
Th rough
ĠV ery
Ġadd itional
ĠChrist ians
Ġsevent h
uild ing
R ep
Ġc uddle
Ġm ask
Ġstuff ed
Che ese
Ġs ed
im al
ĠS U
Ġso ci
ĠIn s
ĠAr ts
Ġalcoh ol
i very
t il
Ġtr ay
ag ne
Ġcount ed
Ġrepl ace
Ġsoft ware
Ġur ged
Ġresist ance
n els
ab led
OU GH
Ġnecess arily
ĠPict ures
Peek aboo
H alf
Ġall ows
ĠF estival
ĠR alph
Ġadd ing
Any body
Ġgrant ed
ĠFore st
Ġexha usted
B it
w ich
ro b
ĠG ri
Ġr oses
Ġ7 5
Ġ194 6
Ġdesce nd
Ġslipp ers
F e
s ay
Ġw ww
ing le
ats on
Ġ194 9
Ġconcl usion
Ġh ood
You ng
Ġsk ills
Ġliber ty
3 1
H at
i w
Ġm orn
Ġde ed
itt ens
Ġar ts
Ġer a
Ġreason able
ips y
Ġattempt ed
ĠI V
Ġj unior
ĠK h
Ġ18 0
Ġgra v
ĠWrest ling
ĠA M
Ġkn ights
Ġsh one
Ġplain ly
Ġvir us
ĠS ara
IN K
ned y
ĠâĨ Ĺ
ĠPat rick
Ġb ib
Ġli z
ct op
ĠG ive
Ġkick ing
W onder
t op
Ġb ills
Ġp aj
ag an
ey ed
Ġopp osed
fl ies
Ġdivor ce
Ġper ceived
Ġann ual
I P
l ife
he ll
Ġd ates
ĠT imes
ĠDe ath
Ġinf ant
Ġtom ato
Ġstar red
Ġeffect ive
Ġsuspect ed
Ġhorn s
olley ball
D el
m ont
n est
p iece
Ġp ause
Ġde ce
ĠSt r
Ġgen ius
Ġstran gers
ĠCor por
Ġreview s
u j
Ġd iet
AS T
Ġpract ical
ida e
n or
u i
Ġl azy
Ġclean ed
R ock
P ar
Ġgr anny
Ġinterest s
Ch icken
Ġvisit or
Ġtast es
Tr ain
Ġvol unte
Ġexam ples
Ġsuppl ies
s an
Ġto ol
or por
Ġse mi
ĠG R
ia h
Ġdel iber
Ġdig ging
Ġbless ed
Ad am
augh ing
Ġprepar ing
c ill
k h
Ġp arl
Ġl est
ĠM ain
Ġsearch ing
Ġsurround ing
T rans
Ġt ones
Ġm ild
Ġinstr uments
Ġdom estic
m ade
Ġre in
ĠC art
Ġmer ged
Ġtrail er
Ġchee ky
ĠC ard
ĠSt ra
Ġbel oved
Ġleg isl
Ġrain bow
Ġconne ct
Ġcontroll ed
Ġd ick
Ġdev oted
Ġhand kerchief
ĠAll en
Ġexcept ion
Ġlat est
R ec
on ne
Ġh itting
al ty
ad er
ĠS O
Ġmagn ific
ĠS oon
Ġred uced
An n
OW N
bec ca
Ġuncomfort able
Ġp anda
EN D
Ġschol ars
ĠMoo re
4 4
Ġlea ped
Ġsk i
g un
an ne
Ġfro zen
ĠBo ys
H ooray
Ġsc an
on ent
ell er
ĠG ran
: :
a ver
Ġt ire
Ġbur den
er ick
Ġaccount s
Ġident ity
ĠRepresent atives
P art
Ġdi aper
L ight
Ġlook in
Ġcr ashed
Ġhous ing
Ġsteal ing
B unny
g ive
Ġb ored
and al
Ġv otes
ach t
ail ing
Ġcre ation
Ġcre ep
Ġphot os
Ġattract ive
ĠJac ob
Ġpengu in
w ould
ac on
Ġcon ver
Ġpo ly
Ġsmell s
ĠAust in
Ġimm ense
Ġhed ge
T otal
Ġto ps
Ġj oking
S pe
Ġc ure
Ġoff ering
Ġs han
Ġbe w
ĠD ak
ĠL at
St ar
AT E
ĠComm un
ĠMount ain
En ough
Ġentertain ment
ĠIntern et
qu et
ĠAr nold
Ġcir cles
Ġ195 4
ĠHu gh
ĠHarr is
ĠHoll and
resp ond
S il
ap ore
Ġvis iting
kes p
Ġt ube
Ġf ake
ĠB ir
Ġam id
Ġneed le
AN G
Ġ194 2
Char lie
Ġin her
ro vers
ĠP itt
ĠH ug
ort on
ĠAl aska
ĠRob in
c order
Ġask s
Ġc ad
Ġr ival
Al so
Ġmic key
S at
l k
Ġcan non
qu is
at ched
Ġhe e
ĠP ot
ĠD er
Ġam us
Ġunfortun ate
v as
Ġpur p
Ġassoci ation
3 3
am m
Ġmus cles
ĠBl ake
Ġkiss ing
Ġdust bin
ĠEgypt ian
7 5
B less
E asy
H ope
um in
ĠP ass
Ġrail road
O l
Ġb ishop
st ick
ĠB ab
ott ie
T er
ĠB alt
ct ures
ĠP ear
so ft
Ġsympt oms
Ġiss ued
Ġindivid uals
ĠDou glas
T iger
ĠM as
Ġse ar
ig ers
Ġpr ices
Ġfl ows
on ight
ĠL ead
Ġins ist
Ġf iction
ĠM anchester
ĠN iger
uff y
Ġcomput ers
Ġme ad
ĠAr m
Ġhonest ly
S on
Y et
Ġb ust
Ġ19 20
Ġhur ricane
Ġsn ack
Y ummy
Ġt u
ĠA R
Ġact ors
Ġsk ull
Ġdrown ed
d am
ĠI ra
Ġdo ck
ĠF IFA
ĠSt ation
Ġrep air
OR E
TH ING
AC E
( '
Ġc ong
Ġp aul
Ġwh irl
ol and
Will iam
Ġbab a
kesp eare
B oom
H ome
Ġbe ads
Ġre nd
Ġse ldom
ĠK elly
Ġpass es
Ġincre asing
Ġswing ing
ri ger
ĠJ os
Th irty
Ġz ebra
ĠEd na
ĠTurk ish
ul ting
Ġdis gr
âĻª âĻª
Ġl isa
Ġin k
at ures
Ġsecret s
Ġbab e
M en
Ġsha ring
Ġcoll ea
Br own
Ġinsp ired
Ġd ating
ĠH it
ĠL ane
Ġsomet ime
te xt
Ġball oons
Ġaer oplane
T im
ro d
ĠT oday
ra ham
ĠK ings
Ġmet res
Ġcheck ing
' '
Ġd ia
Ġwh ip
hed ral
Ġveh icles
C L
Ġg own
as per
ĠP ays
tain ment
ony m
ĠR el
Ġpo em
Ġvers ions
Ġsuit able
Ġapp ropriate
Ġcount ies
Ġvan ished
Ġcompos er
B ow
M c
Ġt ag
ĠF ederal
ĠV ienna
Ġcons ists
Ġaut umn
Ġut tered
Ġtremb ling
m und
Ġw ool
ĠB ald
ĠBr ook
pr on
ĠDe b
Ġswe at
Ġgas ped
ĠLouis iana
M el
Ġb ubble
ĠP a
ĠW ork
Ġpos itions
Ġhar bor
an tern
ĠP R
Ġdist ress
Ch ild
ĠCl ara
Ġ195 5
it led
ac c
ĠC hat
Ġint e
Ġrel ieved
Ġcustom ers
Ġcris is
p ur
ĠB und
E gg
O b
if ted
Ġbron ze
H o
h ile
ĠW ars
Ġsp an
cl ass
Ġunder ground
Ġsl ope
Ġmeet ings
ĠAt t
ham mad
Ġfarm ers
ĠGe off
" ;
S y
p ha
Ä ĩ
Ġ ;
Ġto mb
ĠP ut
ĠBe ach
yl er
Ġ193 9
Ġattract ed
9 9
m ble
ged y
Ġpain ful
Ġbeha vi
orks hire
EF A
us ive
Ġland l
ĠCh ildren
Ġdress es
Ġrece iving
Ġdisapp ointment
Ġshr ie
ĠPers ian
ĠJ ake
Ġ194 4
Ġdream ed
ĠEm ma
Ġpra ise
c alled
Ġpe el
ĠK az
Ġworld wide
gr oup
Ġsol o
Ġconsider ing
ĠBor is
Ġbord ers
in ch
Ġf ans
ĠA mb
ĠB Y
Ġsp oons
Ġcl o
Ġadminist rative
Ġapp ly
Ġsec ured
Ġneck lace
Ġhun ter
Ġmethod s
ĠPier re
B I
Ġn ations
ĠP ower
Ġapp la
ĠCom mon
Ġcurtain s
Ġaband oned
ell o
Ġreg ist
Ġcomb ined
Ġtal ent
Ġm ock
ĠS ultan
ard o
Ġaw hile
Ġcous ins
Ġlou der
ant ha
Ġtax i
Ġimpro ved
Ġmor al
4 2
Ġr asc
Ġj er
ol ve
Look ing
Ġpass enger
Ġdeath s
Ġsail s
Ġimmedi ate
ir m
op y
ĠG a
ens ity
Ġstr ain
ox y
Ġcomb at
ĠM aur
He ad
Ġle aned
Ġ3 8
Ġhigh way
Ġbab ys
ĠC ook
ĠF amily
if ully
ĠHar old
R es
W ash
Ġan ge
ĠE ddie
Ġ194 1
Ġcow boy
ĠAd ams
ĠCent re
Ġchap ter
Ġconstit u
Ġbac ter
o kay
Ġu na
ĠC D
Ġsh ield
ul gar
uck s
Ġhelp ful
Ġfound er
Me ow
Ġ194 3
ĠSer geant
u is
Ġtr ash
Ġle cture
Ġsim pl
Ġban anas
Ġm ath
Ġh osp
Ġg ina
ĠA is
ass ador
Ġremind s
Ġwrest ling
ĠL ion
Ġun p
Ġsol ve
Ġsens ible
Ġcommunic ation
Ġbot hered
ĠC are
Ġso ber
Ġdoor way
Get ting
enn ifer
Would n
Ġdam aged
bour ne
Ġaccom pany
Ġmotor cy
Ġsusp icious
Ġha n
Th ough
Ġcr imes
Ġexp osed
ĠRad io
v ation
ĠM eg
ĠG ulf
Ġno ises
ĠN est
Ġ4 8
ĠInd ones
Ġbeha ve
M orning
S ur
Ġor anges
Ġor phan
Ġcelebr ate
Ġexperien ces
Ġdisc har
w he
Ġha mb
Ġbr ass
Ġdr am
Ġdri ves
Ġcor respond
Ġdess ert
D ere
M ed
ou st
Ġshe ets
Ġass ure
Ġpaj amas
S H
ul pt
We e
Ġpack et
Ġwid ow
r ain
t uce
am ation
Ġtw ins
OR Y
Ġstri king
Ġimag ination
Ġmam m
ĠMus lim
C O
Ġo ink
or ia
Ġh ind
Ġam end
Ġgl orious
ĠSw iss
g ro
Ġit em
ir it
ul es
Ġam az
Ġrec on
Ġrel ative
Ġass ass
Ġarrange ments
Ġadult s
ĠEve lyn
D ar
b us
ĠJ UST
Ġcons ent
Ġsubmar ine
A g
g irl
Ġwe ars
ĠM ot
Ġsouth west
Ġconstit ution
Ju ice
B A
or f
am en
ĠE X
Ġant icip
Ġgodd ess
T ra
W ake
ĠE nd
ĠHe nd
Ġref ers
Ġprec ise
Ġcher ry
Ġli ed
ĠH ope
Ġjo ining
eder ation
P ress
Ġbe hold
Ġal ert
Ġle aning
Ġ3 7
Ġappro x
war f
Ġtrave ling
M aking
Ġl oll
Ġdes ired
ont o
Ġsurv ived
ut ter
ĠU EFA
Ġfeat ured
Ġprompt ly
or ation
ĠĠ ĠĊ
Ġover all
Ġearl iest
Ġprincip le
Ġnort heast
o ft
op les
ĠH IS
Ġsp eaks
Ġres ign
ma id
Ġimp at
ĠBar ry
Ġimag ined
Ġce iling
Ġp arrot
ĠA v
Ġse w
Ġback s
ik o
ĠCon ne
Ġ193 4
Ġperman ent
H ors
N at
R a
W oo
Ġgr ain
ĠIn c
Ġ195 1
Ġthe rap
ĠC ir
ĠC ab
ĠC ape
Ġtest ing
Ġdivor ced
lah oma
S uddenly
Ġne ut
os l
head ed
Ġcustom er
ĠP ur
ĠN a
Ġchild sname
Ġinse cts
Ġsuspic ion
Ġtw ist
Ġtr im
ĠO pen
ci ences
Ġbusiness man
Ha fta
Was n
f ight
ĠN elson
Ġtr ump
Ġcap acity
Ã© s
Ġabs olute
Ġfem ales
Ġgard ens
st ate
ĠC ooper
Ġsu itc
ĠL l
Ġex isted
Ġim ages
Ġind ic
D in
Ġc ongress
ĠR O
Ġhat ch
Ġdec isions
ĠInd eed
Ġsat ell
ĠZ e
Ġsum mon
ĠSy stem
Ġhesit ated
ĠBelg ium
Ġmunicipal ities
Ġh ose
Ġst air
Ġ195 3
Ã£ o
B us
ĠW OR
Ġpl ung
Ġcl ue
Ġtra pped
Ġmess ages
Ġknock ing
Could n
Ġt uck
Ġcreat ing
Ġstri p
Ġmeant ime
Ġblank ets
b ro
Ġm ales
ĠJ a
ond e
Ġfl ame
irl ines
ĠWh it
ĠSing apore
ing o
Ġh ip
Ġconsider ation
Ġbull ets
ĠSom ers
Ġwebs ite
C ourse
es ar
Ġp ad
ar c
pp le
ĠH old
ĠF ound
ĠIn stead
Ġform al
Ġjud gment
Ġident ified
ocr acy
Ġphr ase
M ike
Ġc ub
sel s
ĠCl ar
AT H
Ġ193 6
Qu ack
ĠJust ice
M ax
W est
sc ape
ennes see
M aster
ĠH ospital
Ġsu p
ĠF ield
Ġdel ivery
Ġprov inces
h ole
Ġt el
Ġc ust
om p
Ġse lect
ĠB an
Ġdistur bed
Ġpurp oses
ĠAis ne
ĠO b
Ġtyp ical
C ur
Y o
ow een
iz ations
Ġrem ote
Ġengine ering
Ġplant ed
Ġshad ows
ĠAB OUT
Ġp ence
Ġbed time
G old
Ġg aze
Ġh int
Ġbe an
Ġal ike
Ġappl ication
t ub
Ġout fit
ĠJ uan
ĠO per
ĠTh ough
as ha
Ġdepart ure
Ġbeast s
m ay
o en
ĠS OME
ĠK ir
j e
Ġw olves
Ġc ra
ad i
Ġr ay
Ġk ite
ĠS orry
Ġsa uc
res ents
ĠN ik
Ġmin i
Ġcop per
o i
ĠM ack
Ġat om
ĠF riend
Ġdia lect
Ġf ab
ĠM m
em en
." --_
Ġag ents
Ġcons cience
Ġterri fic
G O
M ister
h op
Ġc able
Ġrob in
ĠMor gan
t an
Ġc ooper
Ġde e
em et
Ġlo an
Ġspo il
Ġdea f
H am
Ġto x
Ġn erve
ĠB urn
ĠY orkshire
sh irt
Ġpop ped
Ġtri umph
Ġspec im
S al
s ix
ĠG y
od ore
Ġbr ac
St ick
Ġcondu ctor
A F
s l
w all
Ġd an
ĠP ete
ĠN ich
Ġneed n
Ġf ears
ĠM AN
Ġhop eless
H im
Ġso ccer
ĠT ennessee
Ġreg iment
R os
p oint
Ġt ut
ig en
Ġcol umn
OU ND
ON G
Ġscr amb
Ġswift ly
Bea utiful
Ġf ulf
ar ms
ĠT an
ĠD ennis
ĠN an
ĠTh om
Ġmon sters
Ġstead ily
ĠC ould
ps hire
Ġbar rel
Ġb aa
Ġd ow
Ġg ap
Ġdeep er
Ġ193 8
M arch
re te
ĠBo ard
, ,
I VE
c hen
Ġw ives
ro st
Ġchar ity
Ġterri f
Ġbene fits
Ã¼ r
Ġconcer ning
, ...
ĠM ans
ĠC amer
th y
sh ips
IS H
ĠTr ump
Ġgall op
h ol
Ġd ent
ĠA uthor
ĠM ist
ĠB os
ĠO fficer
Ġbr u
az ir
Ġtem porary
Ġneg oti
Ġur ban
Ġdeb ate
Ġw ax
Ġk ettle
Ġas semb
Ġcom ic
Ġle nd
Ġcomp ass
Ġslight est
Ġaltern ative
ĠUkr aine
m ic
Ġj e
Ġv est
Ġtri f
Ġfill ing
Ġpainting s
d in
ĠK r
Ġrep resents
Ġobs er
Ġrough ly
Ġdesce nded
ĠAnton io
Ġdign ity
Y S
t own
it age
ĠC ru
Ġso da
ĠP u
ĠR y
ĠE lect
ins ula
Ġem otion
RE AM
min ist
Ġunc ertain
ĠBang l
z el
Ġf itted
Ġar gue
Ġcomp ete
ple asant
Ġp ha
ess ica
Ġprom oted
cast le
ch oo
ĠP ra
ĠG ard
ĠR oll
Ġsmall est
ĠPl an
ĠSe ven
Ġw rap
Ġl ions
Ġsc ulpt
Ġsurpr ising
Ġbatt les
L ING
m ir
ĠB ack
ĠT R
Ġsk ipper
Ġbeha lf
Ġsour ces
Ġdesert ed
b urn
Ġg ear
Ġr aw
Ġevery day
Ġcol ony
Ġmar vell
Ġkiss es
Ġsad ly
Ġemp ire
Ġintellig ent
Ġr uth
ĠS P
ĠA ge
ĠC all
Ġfl ock
Ġreg ional
Ġhor rid
Ġpark ing
ĠAm os
Ġpriv ile
Ġcondu cted
ĠHarr ison
Ġbuff alo
Ġst roll
De f
Ġrese mb
Ġh ire
ic ians
Ġtalk in
Ġcr ust
Ġele g
Ġfil es
Ġmist akes
ALL Y
es ter
ac ha
Ġsee king
ĠK evin
room s
Ġstat ue
Fran ce
Ġpand emic
Ġe e
ĠT en
own ed
ĠK arl
ere corder
Ġdiscuss ed
ĠSil ver
ĠBrad ford
Ġd ot
Ġre ception
Ġr ack
ro it
Ġcut s
ĠCar ter
ĠMat thew
pher d
4 1
C C
Ġv oted
Ġbl oss
Ġrel ation
Ġpudd ing
K e
R ay
Ġs her
st eps
ĠJ essie
Ġcol ours
E ver
u ese
Ġcont em
ĠWh ich
Ġins ult
Ġcamp ing
Ġadm ire
Ġdream ing
Ġcult ural
ĠWel sh
E v
j or
t ail
Do or
Ġnew ly
Ġdist ract
Cha ir
Ġearnest ly
ĠGirl s
Ġfortun ate
Ġdyn asty
P as
S a
ĠO ak
Ġqu id
ĠSha kespeare
Ġcontain ing
Ġbye bye
H y
H ouse
m ph
Ġg ig
ĠC as
ĠR ub
ca re
ump y
Ġchar ts
Ġsqu eak
lo ad
Ġdanc er
um ing
ĠW WE
ĠCh ile
Ġsur f
IR L
ĠSol omon
es se
id i
ĠS up
ĠP un
Ġcont rovers
Ġtest ed
Ġlab our
Ġcere mon
ĠKen nedy
v or
Ġm onday
Ġheart ily
Ġanswer ing
Ġsens itive
Ġpan ic
uzz y
Ġg azing
Ġj ames
Ġno d
Ġinvol ve
Ġs ack
Ġco co
ĠBud dy
ĠEnter tainment
Ġb unk
Ġtell y
Ġlear nt
fortun ately
Ġnapp ie
Ġy elled
Ġst ool
Ġguess ed
: --
P H
ut t
ĠK ath
Ġmed ium
ĠMart ha
Ġcomb ination
aly mp
Ġphilos ophy
ĠSpe cial
ĠHolly wood
Es pecially
F ar
on ic
Ġbr ains
Ġcl erk
Ġhome work
Ġ6 5
Ġcabin et
ĠOk lahoma
Ġc reek
ud es
ĠNo bel
ĠMic ro
Ġto re
ed y
ĠS eth
ĠA ut
ĠM aid
ĠD ream
Ġle an
Ġloud ly
Ġactiv ist
Ġl antern
Ġre new
Ġreg ister
Ġed ges
ĠPar alymp
Ġoccas ions
Ġenvironment al
Ġanal ysis
ctop us
b ased
Ġp ension
ĠW oman
Ġacquaint ance
Ġk angaroo
Ġbo il
Ġ3 9
Ġlive ly
ĠStan ley
Ġadmir ation
Ġautom obile
Ġt roll
Ġbu gs
Ġcont ents
A V
K iss
Ġr uff
am us
Ġhung er
Ġpeace ful
ĠCont in
Ġutter ly
he ld
Ġint r
ru it
Ġ4 00
ĠJo han
ĠPortug al
ĠLI KE
Ġh ob
ĠW ANT
ĠD omin
Ġscient ist
M usic
s a
Ġc athy
ctor al
Ġpeek aboo
r um
Ġthe ater
Ġm ent
Ġme als
cl ing
Ġpour ing
Ġtransfer red
Ġpist ol
Ġsout heast
emet ery
Ġb ounce
Ġor bit
ĠL ily
Ġover come
Ġsha ped
Ġdep ression
Ele phant
Mean while
m itted
o a
Ġar rows
Ġmus k
Ġass umed
Ġbrief ly
Ġinterp ret
Ġwis dom
Ġamus ement
W ay
g ian
Ġe ve
ag u
Ġprov isions
e very
Ġw iped
Ġun pleasant
the m
ĠON E
Ġs ession
ind ing
Ġbelie ves
ĠMount ains
ĠRay mond
ĠPhilipp ines
Ġdo l
ĠS everal
ĠA y
and o
ĠMal colm
Ġstrugg ling
Ġcontr ast
Bill board
T ea
ĠM O
ol o
Th ought
Ġcrit ics
Ġaston ishment
Ġretire ment
Ġinte gr
le m
ĠB ed
Ġmin us
ĠChrist opher
Ġvent ure
Ġgy m
in ations
Ġn it
Ġdr ill
At t
ĠCol or
ĠPet ers
ĠIra q
Ġha w
ĠP oor
ĠN ative
Ġpat rol
Pur ple
r ary
id y
Ġtw in
act ory
Ġsna pped
Ġpurs uit
Ġrib bon
Ġaccompl ished
5 5
C A
ĠH istory
ĠH ERE
pl ash
ĠInd epend
Ar ab
Ġvol unt
Ġadminist ration
Ġsp ons
Ġcl aws
Ġdis gu
ph ones
AR S
ĠSqu are
Ġbac on
ctic ut
âĨ Ĵ
T ur
Ġhe m
ĠL ast
ĠR IGHT
Ġfl ames
ĠMary land
Ġmagaz ines
J ean
N ana
T ON
ĠB and
ĠO R
Ġen qu
Ġfl ashed
ĠAnd erson
Ġwar rant
ĠSp ace
ias m
ĠDak ota
A c
U D
Ġo ars
âĢ ¢
Ġfin est
the l
Ġlight ly
Ġclear ing
Ġsus pend
Ġhy p
S and
ent ine
ĠC ensus
Ġdis order
Ġsc orn
AN K
wo ke
ĠGer ald
Ġ193 3
Ġide al
as ks
Ġh ither
ĠA ff
ĠH orn
arl et
Ġstri pes
Ġpract ically
Ġbuck s
Ġarrange ment
Ġmagnific ent
f are
z ona
ang led
Ġsw amp
OU S
Ġaw esome
Ġbelong ing
abr iel
Ġan k
He ar
Ġad just
Your s
ĠAd vent
Ġprop ose
Ġexam ined
ĠArgent ina
4 3
H it
m ind
Ġg ross
ĠF ame
ĠR ap
Ġex ists
Ġgr inned
Ġexam ination
S us
Ġp ots
ill on
ĠE p
angu age
ĠQu oth
Ġinit i
ĠTem ple
g ate
Ġt ons
Ġd um
Ġe aster
all el
Ġfr ies
ĠT W
ud dy
Ġsc old
Ġpun ished
C ongratulations
r ous
Ġo ak
or ters
ĠS now
ĠB ry
Ġsh ine
Ġoffic ials
Ġmess enger
ĠAf ghan
Ġemp has
ĠTe chn
aps ed
Ġcomr ade
Ġconsequ ence
ĠP rem
Ġcoun sel
Ġwrit ers
oo ping
Ġhead ache
Ġcare less
ĠHot el
st ream
ĠM i
Ġab use
Ġab und
Ġcl am
Ġz one
Ġ15 0
Ġabs ent
Tr ue
Ġphys ics
Bre ak
Ġe c
ĠB al
ĠH IM
Ġag ency
ĠV ice
