{"<s>":0,"<pad>":1,"</s>":2,"<unk>":3,"<mask>":4,"!":5,"\"":6,"#":7,"$":8,"%":9,"&":10,"'":11,"(":12,")":13,"*":14,"+":15,",":16,"-":17,".":18,"/":19,"0":20,"1":21,"2":22,"3":23,"4":24,"5":25,"6":26,"7":27,"8":28,"9":29,":":30,";":31,"<":32,"=":33,">":34,"?":35,"@":36,"A":37,"B":38,"C":39,"D":40,"E":41,"F":42,"G":43,"H":44,"I":45,"J":46,"K":47,"L":48,"M":49,"N":50,"O":51,"P":52,"Q":53,"R":54,"S":55,"T":56,"U":57,"V":58,"W":59,"X":60,"Y":61,"Z":62,"[":63,"\\":64,"]":65,"^":66,"_":67,"`":68,"a":69,"b":70,"c":71,"d":72,"e":73,"f":74,"g":75,"h":76,"i":77,"j":78,"k":79,"l":80,"m":81,"n":82,"o":83,"p":84,"q":85,"r":86,"s":87,"t":88,"u":89,"v":90,"w":91,"x":92,"y":93,"z":94,"{":95,"|":96,"}":97,"~":98,"¡":99,"¢":100,"£":101,"¤":102,"¥":103,"¦":104,"§":105,"¨":106,"©":107,"ª":108,"«":109,"¬":110,"®":111,"¯":112,"°":113,"±":114,"²":115,"³":116,"´":117,"µ":118,"¶":119,"·":120,"¸":121,"¹":122,"º":123,"»":124,"¼":125,"½":126,"¾":127,"¿":128,"À":129,"Á":130,"Â":131,"Ã":132,"Ä":133,"Å":134,"Æ":135,"Ç":136,"È":137,"É":138,"Ê":139,"Ë":140,"Ì":141,"Í":142,"Î":143,"Ï":144,"Ð":145,"Ñ":146,"Ò":147,"Ó":148,"Ô":149,"Õ":150,"Ö":151,"×":152,"Ø":153,"Ù":154,"Ú":155,"Û":156,"Ü":157,"Ý":158,"Þ":159,"ß":160,"à":161,"á":162,"â":163,"ã":164,"ä":165,"å":166,"æ":167,"ç":168,"è":169,"é":170,"ê":171,"ë":172,"ì":173,"í":174,"î":175,"ï":176,"ð":177,"ñ":178,"ò":179,"ó":180,"ô":181,"õ":182,"ö":183,"÷":184,"ø":185,"ù":186,"ú":187,"û":188,"ü":189,"ý":190,"þ":191,"ÿ":192,"Ā":193,"ā":194,"Ă":195,"ă":196,"Ą":197,"ą":198,"Ć":199,"ć":200,"Ĉ":201,"ĉ":202,"Ċ":203,"ċ":204,"Č":205,"č":206,"Ď":207,"ď":208,"Đ":209,"đ":210,"Ē":211,"ē":212,"Ĕ":213,"ĕ":214,"Ė":215,"ė":216,"Ę":217,"ę":218,"Ě":219,"ě":220,"Ĝ":221,"ĝ":222,"Ğ":223,"ğ":224,"Ġ":225,"ġ":226,"Ģ":227,"ģ":228,"Ĥ":229,"ĥ":230,"Ħ":231,"ħ":232,"Ĩ":233,"ĩ":234,"Ī":235,"ī":236,"Ĭ":237,"ĭ":238,"Į":239,"į":240,"İ":241,"ı":242,"Ĳ":243,"ĳ":244,"Ĵ":245,"ĵ":246,"Ķ":247,"ķ":248,"ĸ":249,"Ĺ":250,"ĺ":251,"Ļ":252,"ļ":253,"Ľ":254,"ľ":255,"Ŀ":256,"ŀ":257,"Ł":258,"ł":259,"Ń":260,"Ġt":261,"he":262,"Ġa":263,"in":264,"Ġthe":265,"ou":266,"Ġw":267,"re":268,"Ġs":269,"ha":270,"on":271,"er":272,"Ġb":273,"nd":274,"it":275,"is":276,"Ġc":277,"Ġm":278,"ĠĊ":279,"Ġo":280,"Ġd":281,"Ġf":282,"ing":283,"ll":284,"Ġy":285,"Ġto":286,"an":287,"ed":288,"or":289,"hat":290,"Ġyou":291,"en":292,"es":293,"Ġp":294,"Ġg":295,"Ġl":296,"ar":297,"Ġand":298,"Ġof":299,"as":300,"Ġin":301,"Ġn":302,"at":303,"om":304,"ow":305,"Ġhe":306,"'s":307,"Ġh":308,"ot":309,"Ġha":310,"Ġit":311,"et":312,"ve":313,"ĠI":314,"le":315,"ay":316,"Ġth":317,"Ġon":318,"ic":319,"us":320,"Ġthat":321,"id":322,"Ġbe":323,"gh":324,"Ġis":325,"Ġe":326,"ut":327,"ld":328,"al":329,"Ġwe":330,"Ġwas":331,"oo":332,"The":333,"'t":334,"im":335,"ke":336,"ac":337,"ver":338,"..":339,"ght":340,"Ġre":341,"ad":342,"ir":343,"Ġfor":344,"se":345,"Ġr":346,"ly":347,"ent":348,"Ġdo":349,"am":350,"ion":351,"Ġst":352,"Ġu":353,"out":354,"Ġk":355,"st":356,"Ġ=":357,"âĢ":358,"ĠS":359,"ith":360,"Ġme":361,"ight":362,"ea":363,"Ġan":364,"Ġwith":365,"ome":366,"ĠA":367,"her":368,"ur":369,"You":370,"Ġgo":371,"all":372,"Ġas":373,"ĠM":374,"ill":375,"Ġse":376,"ch":377,"Ġwh":378,"Ġli":379,"Ġnot":380,"ter":381,"ould":382,"He":383,"Ġi":384,"Ġhave":385,"ĠC":386,"ro":387,"Ġat":388,"Ġthis":389,"ĠB":390,"Ġkn":391,"ce":392,"Ġare":393,"ust":394,"ie":395,"il":396,"ant":397,"What":398,"Ġhis":399,"ell":400,"Ġthey":401,"ain":402,"un":403,"and":404,"Ġone":405,"ct":406,"Ġfr":407,"ook":408,"Ġknow":409,"Ġj":410,"op":411,"Ġcan":412,"eah":413,"...":414,"Ġthere":415,"ore":416,"Ġyour":417,"um":418,"Oh":419,"Ġher":420,"Ġne":421,"No":422,"Ġup":423,"Ġdon":424,"Ġhad":425,"Ġso":426,"Ġwhat":427,"Ġ\"":428,"Ġall":429,"Ġshe":430,"ĠT":431,"Ġmy":432,"ge":433,"Yeah":434,"pp":435,"Ġsa":436,"Ġsh":437,"ri":438,"Ġwhe":439,"xx":440,"Ġlike":441,"ĠThe":442,"our":443,"ĠP":444,"ood":445,"Ġde":446,"And":447,"Ġ1":448,"It":449,"th":450,"Ġout":451,"Ġhim":452,"ol":453,"ab":454,"ack":455,"ink":456,"ul":457,"'re":458,"ake":459,"Ġab":460,"ry":461,"ĠW":462,"ig":463,"Ġpl":464,"Ġal":465,"art":466,"Ġget":467,"red":468,"Ġbut":469,"ck":470,"Ġfrom":471,"ĠD":472,"han":473,"ers":474,"Ġwere":475,"el":476,"ĠG":477,"Ġsee":478,"very":479,"Ġor":480,"ation":481,"ess":482,"ĠH":483,"That":484,"Ġdid":485,"Ġsu":486,"est":487,"ist":488,"'m":489,"Ġby":490,"ĠF":491,"Ġthem":492,"ame":493,"ind":494,"ra":495,"os":496,"ound":497,"ĠL":498,"qu":499,"ard":500,"ong":501,"itt":502,"ĠJ":503,"nt":504,"Ġno":505,"ĠR":506,"Ġgot":507,"na":508,"own":509,"Ġcom":510,"one":511,"Ġsome":512,"Ġthink":513,"ast":514,"Ġus":515,"Ġwor":516,"Ġabout":517,"Ġhere":518,"Ġsp":519,"Ġ2":520,"Ġwant":521,"Ġsaid":522,"res":523,"ive":524,"if":525,"'ll":526,"Ġjust":527,"em":528,"ally":529,"ep":530,"ĠĠ":531,"Ġwould":532,"ak":533,"Ġcon":534,"od":535,"Ġlook":536,"ate":537,"Ġv":538,"ĠE":539,"ice":540,"Ġif":541,"Ġwho":542,"ap":543,"Ġex":544,"ber":545,"ĠN":546,"Ġman":547,"ort":548,"ime":549,"ich":550,"âĢľ":551,"Ġwhen":552,"Ġany":553,"ven":554,"ough":555,"ine":556,"use":557,"ick":558,"âĢĿ":559,"Ġnow":560,"kay":561,"fe":562,"Ġright":563,"Ġ(":564,"hing":565,"Ġthen":566,"Ġwill":567,"Ġtw":568,"âĢĻ":569,"Ġsay":570,"ide":571,"ittle":572,"ear":573,"ĠHe":574,".\"":575,"Ġtr":576,"ies":577,"Yes":578,"ĠO":579,"ag":580,"ous":581,"ca":582,"ther":583,"Ġint":584,"We":585,"Ġbo":586,"'ve":587,"Wh":588,"ost":589,"Ġpro":590,"--":591,"Ġlittle":592,"ose":593,"way":594,"Ġgoing":595,"Ġag":596,"Ġbeen":597,"Ġdown":598,"other":599,"Ġch":600,"Ġtime":601,"Ġcould":602,"Ġback":603,"Ġ19":604,"Ġbr":605,"Ġcl":606,"Ġgood":607,"Ġmore":608,"Ġtheir":609,"ĠIt":610,"Ġput":611,"Ġar":612,"Ġhas":613,"Ġtoo":614,"ace":615,"Ġ20":616,"Ġoff":617,"Ġover":618,"ity":619,"Ġvery":620,"cause":621,"Ġwhich":622,"lf":623,"Ġpe":624,"Well":625,"ite":626,"ree":627,"Ġgr":628,"ip":629,"ud":630,"Th":631,"ish":632,"Ġtwo":633,"Ġother":634,"Whe":635,"There":636,"Ġqu":637,",\"":638,"are":639,"ure":640,"Ġthing":641,"ĠK":642,"Ġfe":643,"But":644,"Ġle":645,"Do":646,"ove":647,"my":648,"Ġaf":649,"Ġplay":650,"ne":651,"Okay":652,"reat":653,"xxx":654,"Ġ'":655,"Ġxxx":656,"ue":657,"hed":658,"Ġcome":659,"orn":660,"ft":661,"Ġ.":662,"Ġbl":663,"ian":664,"omet":665,"ond":666,"ought":667,"ment":668,"ople":669,"onna":670,"Ġro":671,"ty":672,"age":673,"ass":674,"irst":675,"Ġer":676,"Ġinto":677,"ire":678,"alk":679,"ia":680,"ade":681,"Ġway":682,"urn":683,"Ġgonna":684,"Ġhow":685,"iv":686,"Ġagain":687,"Ġen":688,"Ġwhere":689,"Ġmake":690,"So":691,"Ġthan":692,"ild":693,"ater":694,"Ġpeople":695,"Ġwork":696,"Ġpr":697,"ount":698,"pl":699,"Ġdoes":700,"ble":701,"ase":702,"Ġcall":703,"ĠU":704,"Ġday":705,"Ġwell":706,"uck":707,"ary":708,"Ġfirst":709,"Ġsomet":710,"Ġtake":711,"Ġco":712,"Ġam":713,"iss":714,"Ġtell":715,"uch":716,"so":717,"Ġcar":718,"uh":719,"Ġneed":720,"Is":721,"Ġmean":722,"ng":723,"ran":724,"Ġafter":725,"They":726,"ĠSt":727,"ord":728,"pe":729,"nder":730,"This":731,"Ġpart":732,"Ġbet":733,"Ġfl":734,"ff":735,"we":736,"per":737,"fore":738,"pt":739,"Ġour":740,"self":741,"Ġonly":742,"ile":743,"wn":744,"Ġlet":745,"ull":746,"mer":747,"ov":748,"Where":749,"ub":750,"ach":751,"ys":752,"ather":753,"Ġthr":754,"Ġshould":755,"She":756,"ark":757,"Ġte":758,"Ġevery":759,"act":760,"ci":761,"av":762,"Ġdidn":763,"ĠĠĠĠ":764,"Ġmuch":765,"Ġun":766,"Ġsha":767,"ouse":768,"Ġmade":769,"ress":770,"Ġthese":771,"ock":772,"ady":773,"ren":774,"Ġhand":775,"thing":776,"Ġbig":777,"Ġhapp":778,"ting":779,"Ġyear":780,"irl":781,"ool":782,"Ġcha":783,"au":784,"Ġlong":785,"ied":786,"Ġdis":787,"Ġreally":788,"Ġpre":789,"Ġsomething":790,"cl":791,"man":792,"Ġsm":793,"Ġad":794,"Ġgu":795,"ob":796,"og":797,"Look":798,"ee":799,"iz":800,"ĠâĢľ":801,"anna":802,"day":803,"able":804,"te":805,"cc":806,"Ġwent":807,"ew":808,"Ġbefore":809,"ated":810,"Ġbecause":811,"ory":812,"Uh":813,"ions":814,"Ġke":815,"ave":816,"ody":817,"ang":818,"Ġaway":819,"Ġsc":820,"be":821,"Ġhel":822,"ps":823,"'d":824,"oll":825,"How":826,"Ġunder":827,"Ġwr":828,"Can":829,"Ġold":830,"ĠV":831,"Ġgirl":832,"In":833,"Ġim":834,"Why":835,"ving":836,"ĠMr":837,"Ġrem":838,"ix":839,"ĠIn":840,"Ġcame":841,"?\"":842,"Ġdoing":843,"ny":844,"Ġalso":845,"ict":846,"ful":847,"old":848,"Let":849,"Ġnever":850,"ath":851,"Ġthought":852,"les":853,"tain":854,"Now":855,"Ġhome":856,"Ġtalk":857,"ise":858,"atch":859,"Ġper":860,"Ġapp":861,"Ġask":862,"Ġpo":863,"Ġthree":864,"Ġthose":865,"Ġwanna":866,"Ġact":867,"ence":868,"Ġmay":869,"00":870,"gg":871,"ward":872,"hm":873,"ried":874,"dy":875,"Ġcr":876,"ors":877,"Ġthings":878,"Ġnew":879,"Ġeven":880,"Right":881,"Ġmust":882,"Ġmany":883,"Ġgreat":884,"pen":885,"oh":886,"Come":887,"Ġbu":888,"Ġmom":889,"Ġeat":890,"ious":891,"ved":892,"Ġfind":893,"Ġthrough":894,"ons":895,"Don":896,"ance":897,"Are":898,"Ġcomp":899,"Ġhouse":900,"ĠShe":901,"Xxx":902,"oc":903,"aby":904,"ks":905,"Ġhead":906,"lease":907,"Ġbit":908,"iend":909,"hes":910,"ail":911,"ily":912,"ait":913,".âĢĿ":914,"land":915,"oot":916,"Ġcalled":917,"Ġgive":918,"Ġwon":919,"Ġlast":920,"Ġhelp":921,"Ġsl":922,"Ġfound":923,"Ġstill":924,"up":925,"Ġturn":926,"int":927,"ĠCh":928,"oy":929,"Ġdone":930,"Who":931,"Ġ201":932,"Ġstart":933,"Ġanother":934,"air":935,"Ġmight":936,"Ġboy":937,"Ġhappen":938,"get":939,"ect":940,"ummy":941,"ans":942,"ĠTh":943,"Ġlea":944,"rd":945,"Ġchild":946,"Ġser":947,"Ġnight":948,"Ġbel":949,"ign":950,"Ġmin":951,"Here":952,"Ġlove":953,"med":954,"ves":955,"body":956,"ru":957,"Ġlot":958,"Ġres":959,"Ġel":960,"igh":961,"Ġshow":962,"Ġname":963,"Ġchan":964,"aking":965,"ĠUn":966,"Ġtry":967,"If":968,"oth":969,"xt":970,"aw":971,"Mhm":972,"iver":973,"ms":974,"ah":975,"ars":976,"Ġfriend":977,"ope":978,"ĠY":979,"Ġits":980,"side":981,"Ġown":982,"Ġisn":983,"Ġdif":984,"Ġcont":985,"Be":986,"Ġche":987,"ually":988,"Ġkind":989,"chool":990,"oney":991,"ever":992,"oss":993,"Mm":994,"ates":995,"ult":996,",âĢĿ":997,"als":998,"Ġcomm":999,"ember":1000,"Ġgl":1001,"ling":1002,"Ġmost":1003,"Ġbetter":1004,"ĠThey":1005,"Ġcare":1006,"Ġbook":1007,"ĠYou":1008,"Ġbaby":1009,"Ġbeing":1010,"Ġsec":1011,"Ġwater":1012,"Ġcount":1013,"!\"":1014,"Ġey":1015,"ww":1016,"Ġrec":1017,"Not":1018,"Ġused":1019,"ical":1020,"Ġyears":1021,"Did":1022,"imes":1023,"Ġplace":1024,"Ġend":1025,"led":1026,"ways":1027,"rent":1028,"ĠAnd":1029,"Ġfeel":1030,"port":1031,"Ġmov":1032,"Ġsuch":1033,"ited":1034,"Ġaround":1035,"ph":1036,"Ġsure":1037,"ott":1038,"Ġwhy":1039,"ings":1040,"Ġcour":1041,"ince":1042,"Ġkeep":1043,"Ġelse":1044,"Ġopen":1045,"Ġnice":1046,"amp":1047,"Ġfour":1048,"Ġlife":1049,"inn":1050,"ens":1051,"Ġuh":1052,"Than":1053,"Ġanything":1054,"Ġsame":1055,"Ġdes":1056,"ute":1057,"All":1058,"Ġdad":1059,"Ġsupp":1060,"Ġdoesn":1061,"anc":1062,"ike":1063,"Ah":1064,"Ġear":1065,"Hey":1066,"St":1067,"Ġbre":1068,"Ġokay":1069,"Ġwhile":1070,"Ġsaw":1071,"orry":1072,"row":1073,"Ġrun":1074,"ĠBr":1075,"Ġfin":1076,"ere":1077,"the":1078,"uc":1079,"Ġbec":1080,"orm":1081,"Ġschool":1082,"Um":1083,"outh":1084,"Ġtold":1085,"Ġbeg":1086,"Ġsw":1087,"ations":1088,"atter":1089,"Ġmother":1090,"ER":1091,"Ġbus":1092,"Ġdr":1093,"ss":1094,"Ġleft":1095,"ition":1096,"My":1097,"Ġfar":1098,"Ġalways":1099,"Ġ3":1100,"aught":1101,"ĠBut":1102,"ican":1103,"Ġyeah":1104,"ï¿":1105,"ï¿½":1106,"ction":1107,"Ġset":1108,"und":1109,"Ġmon":1110,"Ġwee":1111,"Ġnext":1112,"ird":1113,"ident":1114,"ib":1115,"oon":1116,"leep":1117,"ĠNo":1118,"Ġyes":1119,"Ġspe":1120,"Ġword":1121,"Ġele":1122,"ont":1123,"Ġmen":1124,"Ġfather":1125,"Ġtook":1126,"Ġhard":1127,"ump":1128,"Ġdiffe":1129,"Ġever":1130,"Go":1131,"Ġfam":1132,"pr":1133,"Ġatt":1134,"Just":1135,"ug":1136,"ness":1137,"Good":1138,"Ġnum":1139,"Ġcle":1140,"Ġgone":1141,"Ġunt":1142,"Ġroom":1143,"Ġpres":1144,"vel":1145,"Ġcol":1146,"hen":1147,"Ġuse":1148,"mp":1149,"Ġfun":1150,"ta":1151,"IN":1152,"ĠAmer":1153,"by":1154,"Ġread":1155,"Ġsit":1156,"Ġ200":1157,"Ġthough":1158,"Ġwom":1159,"Ġwait":1160,"right":1161,"mber":1162,"vent":1163,"Ġpol":1164,"ĠMar":1165,"âĻ":1166,"Ġind":1167,"Ġstop":1168,"ung":1169,"Ġenough":1170,"ished":1171,"orning":1172,"Ġcoming":1173,"Ġmoney":1174,"ister":1175,"Ġerm":1176,"When":1177,"On":1178,"ream":1179,"Ġsur":1180,"âĻª":1181,"Ġwar":1182,"erson":1183,"ins":1184,"Ġbed":1185,"Ġhear":1186,"ower":1187,"sh":1188,"Ġac":1189,"Ġret":1190,"az":1191,"ger":1192,"Ġeyes":1193,"Ġdoor":1194,"\".":1195,"akes":1196,"Ġacc":1197,"Ġyoung":1198,"pect":1199,"Ġmar":1200,"Ġasked":1201,"One":1202,"Then":1203,"Ġuntil":1204,"uff":1205,"Thank":1206,"Ġplease":1207,"Ġreal":1208,"rew":1209,"ier":1210,"ĠAr":1211,"Ġstr":1212,"ired":1213,"Ġfive":1214,"ĠAl":1215,"here":1216,"Ġquite":1217,"Ġbelie":1218,"Ġkill":1219,"Ġmorning":1220,"Ġreg":1221,"oup":1222,"Ġpass":1223,"Ġseen":1224,"HE":1225,"Ġside":1226,"ash":1227,"Ġlight":1228,"ased":1229,"mb":1230,"Ġcourse":1231,"Ġface":1232,"ces":1233,"Ġgoes":1234,"ret":1235,"ĠFran":1236,"Ġdist":1237,"Ġ_":1238,"Ġbest":1239,"Ġwalk":1240,"Ġround":1241,"Ġnear":1242,"Ġfew":1243,"Ġob":1244,"ollow":1245,"Ġnothing":1246,"Ġworld":1247,"ĠThis":1248,"Al":1249,"ational":1250,"Ġhur":1251,"Ġdifferent":1252,"Hm":1253,"ial":1254,"ellow":1255,"Ġsing":1256,"ross":1257,"fta":1258,"raw":1259,"huh":1260,"reen":1261,"Ġknown":1262,"Ġsmall":1263,"ank":1264,"Ġent":1265,"Ġstay":1266,"ets":1267,"Ġchar":1268,"aster":1269,"Ġsk":1270,"Ġshall":1271,"Ġ202":1272,"Ġsix":1273,"Ġsays":1274,"oun":1275,"Ġyet":1276,"ible":1277,"Ġdog":1278,"ween":1279,"Ġrel":1280,"Ġsoon":1281,"Ġonce":1282,"me":1283,"der":1284,"ts":1285,"Ġupon":1286,"Ġcap":1287,"ning":1288,"Ġter":1289,"Ġfire":1290,"Ġstand":1291,"âĢĵ":1292,"Ġph":1293,"Ġhafta":1294,"Ġred":1295,"ush":1296,"ents":1297,"),":1298,"ery":1299,"Ġheard":1300,"Ġmil":1301,"uring":1302,"Ġlooking":1303,"oe":1304,"Ġbro":1305,"ctor":1306,"Ġsleep":1307,"gether":1308,"Ġtogether":1309,"ered":1310,"Ġgetting":1311,"Ġwind":1312,"ener":1313,").":1314,"Ġsecond":1315,"Ġbad":1316,"eak":1317,"ĠAn":1318,"Ġdear":1319,"Ġremember":1320,"ĠCha":1321,"Ġboth":1322,"une":1323,"Ġhold":1324,"Ġchildren":1325,"but":1326,"Ġeach":1327,"Ġtoday":1328,"Ġmind":1329,"eth":1330,"âĢĶ":1331,"ipp":1332,"ably":1333,"Ġwithout":1334,"any":1335,"rist":1336,"Ġlooked":1337,"orth":1338,"Because":1339,"ason":1340,"ĠĠĠĠĠĠĠĠ":1341,"ale":1342,"ics":1343,"Ġlar":1344,"Ġhimself":1345,"Ġdri":1346,"Ġum":1347,"Ġhat":1348,"Ġbetween":1349,"Ġrest":1350,"âĮ":1351,"ife":1352,"An":1353,"See":1354,"Ġnumber":1355,"ged":1356,"less":1357,"Ġleave":1358,"Ġlist":1359,"ohn":1360,"ures":1361,"Ġwatch":1362,"ular":1363,"llo":1364,"Ġhappened":1365,"Ġ18":1366,"ton":1367,"Ġhalf":1368,"Ġfollow":1369,"Ġperson":1370,"Ġwanted":1371,"io":1372,"ames":1373,"Ġtrain":1374,"Ġfall":1375,"Ġhaving":1376,"Ġdaddy":1377,"Ġpret":1378,"ĠWhat":1379,"Ġdec":1380,"Ġfoot":1381,"its":1382,"Ġsn":1383,"Ġhands":1384,"Ġknew":1385,"ĠEng":1386,"fect":1387,"most":1388,"ĠDe":1389,"ork":1390,"ĠThere":1391,"Er":1392,"Ġpie":1393,"sel":1394,"Ġhaven":1395,"Ġlater":1396,"Ġball":1397,"Ġmus":1398,"Ġinst":1399,"osed":1400,"Ġsorry":1401,"ating":1402,"Ġmatter":1403,"gr":1404,"Ġoh":1405,"Ġsort":1406,"iet":1407,"ĠWe":1408,"aut":1409,"ĠNew":1410,"?âĢĿ":1411,"Ġcons":1412,"Ġ4":1413,"Sh":1414,"Ġheart":1415,"Ġwond":1416,"Ġpoint":1417,"ertain":1418,"Ġhigh":1419,"dd":1420,"ma":1421,"Ġmummy":1422,"ched":1423,"ĠUnited":1424,"Ġans":1425,"Ġgave":1426,"oor":1427,"ĠAs":1428,"Ġalong":1429,"ats":1430,"Ġdays":1431,"Ġ199":1432,"ĠAmerican":1433,"ĠWh":1434,"Ġpretty":1435,"Ġhour":1436,"Get":1437,"Ġlive":1438,"Ġair":1439,"Ġcity":1440,"ane":1441,"cial":1442,"Ġagainst":1443,"Ġpop":1444,"Ġtra":1445,"ither":1446,"ines":1447,"Ġboys":1448,"Ġready":1449,"cle":1450,"tern":1451,"ual":1452,"ern":1453,"AN":1454,"Ġid":1455,"stand":1456,"att":1457,"Put":1458,"Ġmiss":1459,"Ġeverything":1460,"Ġhor":1461,"Ġstory":1462,"ject":1463,"Ġ?":1464,"----":1465,"Ġdied":1466,"ina":1467,"ubl":1468,"ball":1469,"cept":1470,"\",":1471,"Ġmove":1472,"wo":1473,"app":1474,"Have":1475,"part":1476,"iness":1477,"ped":1478,"clud":1479,"Ġwasn":1480,"Ġinv":1481,"Ġdire":1482,"Ġtri":1483,"ised":1484,"Ġsy":1485,"enty":1486,"ully":1487,"Ġbreak":1488,"Ġtop":1489,"Ġfamily":1490,"Ġanim":1491,"Ġdisc":1492,"Ġbelieve":1493,"ok":1494,"Ġbring":1495,"OU":1496,"uth":1497,"Ġsound":1498,"Ġadd":1499,"ĠInd":1500,"ole":1501,"Ġste":1502,"ows":1503,"Ġwhole":1504,"ten":1505,"ĠGod":1506,"Ġsaying":1507,"ision":1508,"uss":1509,"Ġmaking":1510,"ief":1511,"Ġca":1512,"Ġstarted":1513,"May":1514,"Ġsince":1515,"Ġborn":1516,"Ġass":1517,"Ġstud":1518,"Ġ5":1519,"Ġcur":1520,"Ġcut":1521,"ï¿½ï¿½":1522,"Ġmoment":1523,"Ġsub":1524,"Ġtown":1525,"Ġpick":1526,"idd":1527,"aid":1528,"ĠMrs":1529,"aken":1530,"vern":1531,"Your":1532,"fter":1533,"ax":1534,"illy":1535,"ced":1536,"unt":1537,"Ġdel":1538,"oke":1539,"bably":1540,"Ġpur":1541,"Ġwhite":1542,"Ġreturn":1543,"ters":1544,"Ġland":1545,"Ġcent":1546,"erest":1547,"ield":1548,"ready":1549,"ote":1550,"||":1551,"Ġactually":1552,"ye":1553,"Ġdrink":1554,"ants":1555,"ING":1556,"Ġgrand":1557,"Ġwonder":1558,"orrow":1559,"Ġfood":1560,"Ġmeet":1561,"Ġteam":1562,"aj":1563,"omas":1564,"Ġbuild":1565,"Ġsir":1566,"ined":1567,"Ġinf":1568,"ustr":1569,"oice":1570,"ert":1571,"Ġwouldn":1572,"Ġbecame":1573,"vers":1574,"ec":1575,"For":1576,"Ġtalking":1577,"Ã©":1578,"Ġbegan":1579,"Ġpict":1580,"Ġfeet":1581,"Ġswe":1582,"Ġmet":1583,"www":1584,"Ġinterest":1585,"Ġson":1586,"Ġalmost":1587,"Ġbrother":1588,"Ġimp":1589,"ots":1590,"Ġlooks":1591,"Ġsong":1592,"ĠMiss":1593,"Ġbox":1594,"Ġhair":1595,"Ġunderstand":1596,"ĠStates":1597,"Ġquest":1598,"Ġrep":1599,"Ġsign":1600,"Ġposs":1601,"Ġcountry":1602,"ĠThen":1603,"oes":1604,"Ġalready":1605,"Ġwrong":1606,"Ġpap":1607,"undred":1608,"Ch":1609,"Ġgame":1610,"where":1611,"Ġhot":1612,"Ġclose":1613,"Ġtre":1614,"Ġminute":1615,"Ġtrying":1616,"Ġinc":1617,"Ġeight":1618,"ison":1619,"Ġcomes":1620,"Ġwoman":1621,"Ġblack":1622,"ik":1623,"wards":1624,"Ġsent":1625,"oud":1626,"ĠGer":1627,"eb":1628,"Ġjob":1629,"Hello":1630,"Ġ198":1631,"elt":1632,"Ġeas":1633,"ony":1634,"ying":1635,"Huh":1636,"Ġsat":1637,"ĠCl":1638,"ared":1639,"Ġinclud":1640,"Ġplayed":1641,"ative":1642,"Ġpain":1643,"Ġleg":1644,"Ġpay":1645,"Ġfact":1646,"Ġten":1647,"ama":1648,"Ġblue":1649,"ital":1650,"ĠIs":1651,"ĠBl":1652,"Ġbeaut":1653,"Mom":1654,"ities":1655,"Sha":1656,"Ġfriends":1657,"ĠSp":1658,"cess":1659,"Ġidea":1660,"ĠPr":1661,"!âĢĿ":1662,"Ġtimes":1663,"Ġlost":1664,"Ġlau":1665,"Ġref":1666,"tend":1667,"Ġkid":1668,"Ġlead":1669,"ON":1670,"As":1671,"ĠGr":1672,"Ġhundred":1673,"ivers":1674,"ĠSo":1675,"eter":1676,"Ġdro":1677,"key":1678,"olog":1679,"cted":1680,"ĠJohn":1681,"HA":1682,"Ġgirls":1683,"Ġgotta":1684,"ey":1685,"du":1686,"ently":1687,"Ġgi":1688,"hind":1689,"19":1690,"Ġbrought":1691,"Ġfull":1692,"ene":1693,"Ġmommy":1694,"Ġfight":1695,"Ġcoll":1696,"Ġseemed":1697,"Ġguess":1698,"ese":1699,"To":1700,"Ġdead":1701,"bo":1702,"Ġsqu":1703,"Ġprobably":1704,"ages":1705,"ury":1706,"Dad":1707,"ric":1708,"Ġconf":1709,"Does":1710,"Ġfine":1711,"Ġcertain":1712,"Ġplan":1713,"Ġaw":1714,"Ġ,":1715,"arl":1716,"Ġhappy":1717,"Ġran":1718,"Mummy":1719,"Ġgreen":1720,"Ġmusic":1721,"Ġ6":1722,"Ġquick":1723,"Ġturned":1724,"Ġstuff":1725,"airs":1726,"Ġparty":1727,"Ġspeak":1728,"lly":1729,"Ġmovie":1730,"Ġduring":1731,"Ġhope":1732,"ner":1733,"Ġcat":1734,"Ġbear":1735,"Ġhuh":1736,"haps":1737,"Ġmeans":1738,"Ġweek":1739,"ober":1740,"lish":1741,"ster":1742,"Ġmonth":1743,"hip":1744,"ided":1745,"ned":1746,"Ġshort":1747,"ead":1748,"cy":1749,"aces":1750,"Ġgener":1751,"ĠZ":1752,"end":1753,"Maybe":1754,"Ġproble":1755,"ĠAt":1756,"Ġable":1757,"Some":1758,"ete":1759,"utes":1760,"Ġlear":1761,"ense":1762,"iful":1763,"Ġoffic":1764,"Ġbehind":1765,"Ġsim":1766,"ured":1767,"Ġchair":1768,"Ġsun":1769,"Ġ197":1770,"unch":1771,"Ġexpl":1772,"Ġple":1773,"Ġones":1774,"ple":1775,"for":1776,"ĠAll":1777,"Ġcolor":1778,"Ġoften":1779,"ives":1780,"Ġtaken":1781,"aur":1782,"Ġhum":1783,"Ġyourself":1784,"arr":1785,"Ġdeath":1786,"Ġprom":1787,"ĠKing":1788,"ouble":1789,"Ġplaying":1790,"Ġpoor":1791,"Ġaren":1792,"Ġcompl":1793,"Ġrepl":1794,"ĠTHE":1795,"wer":1796,"ĠBe":1797,"Ġcook":1798,"Ġfore":1799,"ĠHow":1800,"Ġtable":1801,"Ġcouldn":1802,"Ġed":1803,"Like":1804,"rom":1805,"Ġlisten":1806,"Ġform":1807,"Ġexc":1808,"Ġlate":1809,"Ġimport":1810,"son":1811,"Ġes":1812,"ĠChrist":1813,"Ġ7":1814,"Ġ8":1815,"you":1816,"Ġinter":1817,"Ġoutside":1818,"Ġstre":1819,"At":1820,"Or":1821,"ĠCom":1822,"ney":1823,"eed":1824,"room":1825,"iam":1826,"pped":1827,"itting":1828,"ize":1829,"Ġpull":1830,"zz":1831,"Two":1832,"Ġfell":1833,"Ġeng":1834,"Please":1835,"ized":1836,"OR":1837,"Ġwants":1838,"to":1839,"Ġless":1840,"ĠSc":1841,"fully":1842,"irth":1843,"Ġmyself":1844,"selves":1845,"Ġev":1846,"inner":1847,"br":1848,"ĠThat":1849,"ĠGerman":1850,"rog":1851,"Ġrock":1852,"ments":1853,"Ġdraw":1854,"Ġwords":1855,"ones":1856,"Ġmine":1857,"Ġthank":1858,"Ġlarge":1859,"range":1860,"Ġbar":1861,"Ġmaybe":1862,"ouch":1863,"Ġmark":1864,"ĠHis":1865,"Ġbusiness":1866,"head":1867,"Ġdark":1868,"Ġdress":1869,"ards":1870,"ĠQ":1871,"Ġmed":1872,"Ġminutes":1873,"Ġwife":1874,"Ġvis":1875,"eg":1876,"ides":1877,"Ġtill":1878,"Ġfront":1879,"ES":1880,"Ġbird":1881,"Ġmain":1882,"ĠJack":1883,"aim":1884,"Ġroad":1885,"Ġfelt":1886,"Ġbott":1887,"Ġrather":1888,"Ġhorse":1889,"Ġage":1890,"ific":1891,"ider":1892,"oub":1893,"Mr":1894,"ĠâĢĵ":1895,"Ġtaking":1896,"used":1897,"men":1898,"Ġsister":1899,"ries":1900,"ape":1901,"ĠMay":1902,"not":1903,"Ġcold":1904,"Ġart":1905,"ĠTom":1906,"amed":1907,"Ġship":1908,"ex":1909,"ask":1910,"ze":1911,"ĠWhen":1912,"enn":1913,"Ġmouth":1914,"Ġguy":1915,"ĠOh":1916,"Ġext":1917,"Ġtree":1918,"AR":1919,"iew":1920,"Ġgiven":1921,"Ġlady":1922,"Ġhurt":1923,"Ġcontin":1924,"Ġcase":1925,"Ġvoice":1926,"gan":1927,"Ġstate":1928,"irty":1929,"ention":1930,"ted":1931,"Ġstick":1932,"Ġstrong":1933,"ists":1934,"born":1935,"rest":1936,"Ġrecord":1937,"ham":1938,"Ġago":1939,"Ġlad":1940,"Ġserv":1941,"Ġmakes":1942,"ĠFor":1943,"Ġpower":1944,"Ġjo":1945,"Ġmag":1946,"Ġwood":1947,"Alright":1948,"Shall":1949,"Ġem":1950,"Ġcry":1951,"gin":1952,"Ġbody":1953,"Ġpresent":1954,"Ġ196":1955,"rench":1956,"ald":1957,"ached":1958,"aughter":1959,"Ġeither":1960,"Ġinside":1961,"gy":1962,"Ġtele":1963,"Ġbirth":1964,"Ġbeautiful":1965,"ĠEnglish":1966,"Ġline":1967,"Ġchange":1968,"eng":1969,"Ġfif":1970,"els":1971,"Ġins":1972,"ĠPh":1973,"ĠOn":1974,"Ġalone":1975,"Ġboat":1976,"Ġlik":1977,"bit":1978,"Ġsweet":1979,"ĠSh":1980,"Ġwear":1981,"Ġloc":1982,"arent":1983,"Ġmess":1984,"Ġground":1985,"Ġfunny":1986,"Ġothers":1987,"ians":1988,"Ġ9":1989,"Ġtrue":1990,"Ġimportant":1991,"Ġpat":1992,"ming":1993,"umb":1994,"Ġocc":1995,"ring":1996,"Ġpast":1997,"ĠCount":1998,"Ġpri":1999,"Ġpubl":2000,"iously":2001,"Ġsil":2002,"Ġgovern":2003,"Ġleast":2004,"ches":2005,"Ġtwenty":2006,"Ġsometimes":2007,"With":2008,"Ġnat":2009,"Ġcir":2010,"Ġfair":2011,"bed":2012,"owing":2013,"Ġcried":2014,"EN":2015,"Ġwish":2016,"ained":2017,"Ġsomeone":2018,"Ġfast":2019,"ues":2020,"000":2021,"Ġtom":2022,"Ġclass":2023,"Ġpiece":2024,"Ġprov":2025,"ened":2026,"LL":2027,"Ġz":2028,"ĠBob":2029,"Ġearly":2030,"Ġfav":2031,"Ġsea":2032,"Ġorder":2033,"ism":2034,"ĠIf":2035,"Ġlay":2036,"idge":2037,"ĠJan":2038,"Ġcreat":2039,"Ġdeal":2040,"Ġdar":2041,"read":2042,"Ġty":2043,"Ġadv":2044,"Ġgun":2045,"Ġ10":2046,"Hi":2047,"ffe":2048,"icha":2049,"Me":2050,"ops":2051,"Ġbuy":2052,"Ġworking":2053,"Ġtrans":2054,"Ġwomen":2055,"ley":2056,"ĠâĻª":2057,"iving":2058,"ety":2059,"duc":2060,"Uhhuh":2061,"ĠBrit":2062,"ken":2063,"ĠFrance":2064,"Ġfloor":2065,"Ġpicture":2066,"Ġmilk":2067,"Ġgroup":2068,"Ġsever":2069,"Ġclear":2070,"Ġpaper":2071,"fic":2072,"Ġsum":2073,"Ġbag":2074,"Ġlaw":2075,"Ġdoll":2076,"Ġforg":2077,"ately":2078,"Ġhon":2079,"ator":2080,"Ġfuck":2081,"Ġwin":2082,"har":2083,"Ġnews":2084,"Ġhung":2085,"ilt":2086,"fort":2087,"Ġseven":2088,"Ġquestion":2089,"Ġarea":2090,"ica":2091,"Ġguys":2092,"ĠĠĊ":2093,"Every":2094,"Ġtried":2095,"Ġblood":2096,"II":2097,"stem":2098,"erv":2099,"Ġlo":2100,"iting":2101,"Ġfish":2102,"Ġnin":2103,"Ġbur":2104,"iding":2105,"ĠHar":2106,"Ġfinished":2107,"Ġseveral":2108,"overed":2109,"ana":2110,"Ġacross":2111,"Ġclean":2112,"Ġglad":2113,"Ġthomas":2114,"eared":2115,"uary":2116,"ains":2117,"Ġcup":2118,"Ġ2020":2119,"ĠHer":2120,"ept":2121,"ĠWill":2122,"Ġjump":2123,"owed":2124,"Ġrece":2125,"uly":2126,"rence":2127,"Ġanimals":2128,"Ġtea":2129,"Ġ[":2130,"eor":2131,"Ġexpect":2132,"orld":2133,"Wait":2134,"ering":2135,"Ġpos":2136,"Ġkilled":2137,"Ġcamp":2138,"Ġfellow":2139,"Ġfree":2140,"Ġcompany":2141,"ĠFl":2142,"raz":2143,"Ġreason":2144,"Ġclot":2145,"ford":2146,"ĠCan":2147,"Ġsold":2148,"Ġthinking":2149,"Ġprot":2150,"Ex":2151,"Ġpolit":2152,"Ġmill":2153,"ution":2154,"aced":2155,"Ġ-":2156,"isc":2157,"Ġrele":2158,"ousand":2159,"iter":2160,"20":2161,"Ġhit":2162,"urch":2163,"angu":2164,"Ġheld":2165,"Ġamong":2166,"rict":2167,"apan":2168,"Ġdinner":2169,"Ġexp":2170,"ued":2171,"raid":2172,"ived":2173,"osp":2174,"TER":2175,"Ġdepart":2176,"ox":2177,"Ġmod":2178,"Bl":2179,"ara":2180,"Ġwall":2181,"arch":2182,"raph":2183,"Would":2184,"oof":2185,"Ġvill":2186,"Which":2187,"Ġopp":2188,"Any":2189,"Ġbecome":2190,"Ġpartic":2191,"ges":2192,"Ġkept":2193,"Ġda":2194,"iversity":2195,"Ġchance":2196,"ĠFrench":2197,"Ġ195":2198,"Ġcarry":2199,"Ġadm":2200,"cri":2201,"that":2202,"Ġlived":2203,"fess":2204,"Take":2205,"ium":2206,"Ġstra":2207,"Ġstood":2208,"irt":2209,"Ġ!":2210,"Ġconc":2211,"Ġherself":2212,"Ġsend":2213,"ounds":2214,"Ġice":2215,"Ġdoctor":2216,"Ġdarling":2217,"ement":2218,"ices":2219,"Ġthousand":2220,"IS":2221,"olly":2222,"Tell":2223,"Ġsal":2224,"Ġwrite":2225,"ĠCounty":2226,"unk":2227,"wered":2228,"rop":2229,"Ġann":2230,"Ġsurpr":2231,"ude":2232,"alth":2233,"Ġtrouble":2234,"Ġegg":2235,"Ġpen":2236,"de":2237,"ĠYork":2238,"band":2239,"Ġbooks":2240,"Ġsomebody":2241,"Ġcorn":2242,"Ġstep":2243,"Ġfur":2244,"Ġband":2245,"Ġdef":2246,"Cl":2247,"ĠJapan":2248,"Ġusually":2249,"Ġyellow":2250,"Ġattack":2251,"anger":2252,"Ġgets":2253,"Ġstar":2254,"dden":2255,"Ġfig":2256,"Ġreplied":2257,"Ġpost":2258,"rol":2259,"Ġ194":2260,"Ġfing":2261,"Ġcor":2262,"Ġsystem":2263,"cil":2264,"Ġquiet":2265,"Ġ17":2266,"yl":2267,"Ġfil":2268,"Ġanswered":2269,"teen":2270,"Ġfootball":2271,"Ġafraid":2272,"itten":2273,"Ġlov":2274,"ract":2275,"mon":2276,"Ġra":2277,"ically":2278,"ĠWorld":2279,"Ġbirthday":2280,"ĠYes":2281,"ĠX":2282,"bum":2283,"Ġrunning":2284,"inning":2285,"ears":2286,"Ġproblem":2287,"Ġfly":2288,"ĠJanuary":2289,"Mommy":2290,"Ġliving":2291,"Ġnorth":2292,"ĠCap":2293,"Ġshop":2294,"Ġpot":2295,"Ġsudden":2296,"Ġmer":2297,"Ġwindow":2298,"ional":2299,"inc":2300,"ĠEur":2301,"Ġking":2302,"Will":2303,"ality":2304,"Ġheav":2305,"mas":2306,"Ġmount":2307,"Ġhours":2308,"Ġhist":2309,"ĠChar":2310,"itc":2311,"Ġtouch":2312,"Ġhar":2313,"Ġalright":2314,"Ġnamed":2315,"ĠMarch":2316,"ural":2317,"ping":2318,"Ġnose":2319,"aul":2320,"Ġthemselves":2321,"Ġpu":2322,"Ġanswer":2323,"ility":2324,"Ġcross":2325,"Ġarm":2326,"Ġfix":2327,"Erm":2328,"Ġtem":2329,"ugust":2330,"Ġfrog":2331,"cha":2332,"Ġord":2333,"ode":2334,"Ġlangu":2335,"aint":2336,"entle":2337,"owers":2338,"IT":2339,"RE":2340,"Ġlaugh":2341,"Ġletter":2342,"iddle":2343,"Ġmarried":2344,"Daddy":2345,"Ġ15":2346,"though":2347,"Ġdaughter":2348,"Ġpig":2349,"Ġreleased":2350,"ĠPro":2351,"Ġsitting":2352,"Ġexper":2353,"Ġtired":2354,"urs":2355,"ient":2356,"Ġreport":2357,"Say":2358,"Ġspecial":2359,"Ġsand":2360,"Ġroll":2361,"bs":2362,"Ġgra":2363,"reed":2364,"ĠCon":2365,"ajor":2366,"Ġcatch":2367,"ron":2368,"iff":2369,"Ġbath":2370,"oose":2371,"asure":2372,"Ġteac":2373,"Ġseries":2374,"wh":2375,"Ġnine":2376,"velop":2377,"ored":2378,"com":2379,"Ġsuppose":2380,"ccess":2381,"Ġcheck":2382,"ĠWar":2383,"Ġill":2384,"ĠEd":2385,"no":2386,"Ġtomorrow":2387,"Ġju":2388,"gue":2389,"Ġhus":2390,"oman":2391,"Ġwithin":2392,"Ġknows":2393,"Ġalbum":2394,"vision":2395,"ories":2396,"Ġdra":2397,"Ġmot":2398,"Ġclothes":2399,"Ġyours":2400,"Ġlives":2401,"oint":2402,"Ġcow":2403,"ls":2404,"Ġpassed":2405,"Very":2406,"Ġlow":2407,"uit":2408,"pril":2409,"Ġdream":2410,"Ġpar":2411,"ĠCar":2412,"Ġgold":2413,"ev":2414,"Ġeasy":2415,"Ġgovernment":2416,"ctober":2417,"Ġspec":2418,"Ġperhaps":2419,"Ġkiss":2420,"These":2421,"After":2422,"Ġmonths":2423,"unic":2424,"attle":2425,"Ġclim":2426,"Of":2427,"ler":2428,"actly":2429,"Ġrain":2430,"Ġtruck":2431,"ager":2432,"AT":2433,"ĠBritish":2434,"Ġwhether":2435,"Ġworked":2436,"een":2437,"aged":2438,"over":2439,"Ġsail":2440,"Ġpossible":2441,"Ġseems":2442,"ĠJune":2443,"ĠSouth":2444,"cient":2445,"itch":2446,"Ġdeep":2447,"Ġfield":2448,"Wow":2449,"Ġdiv":2450,"Ġevent":2451,"Ġya":2452,"amb":2453,"Ġ12":2454,"Ġstraight":2455,"Ġmoved":2456,"vember":2457,"Ġton":2458,"aimed":2459,"ĠDon":2460,"Ġsca":2461,"Ġexcl":2462,"arden":2463,"ulation":2464,"unny":2465,"Ġproper":2466,"Ġdoub":2467,"Ã¡":2468,"Ġcoup":2469,"Ġfa":2470,"che":2471,"Ġresp":2472,"Ġkids":2473,"Ġpress":2474,"Ġcannot":2475,"Ġsingle":2476,"Ġwaiting":2477,"ai":2478,"hern":2479,"Ġhowever":2480,"Ġshot":2481,"Ġdie":2482,"Ġforget":2483,"cember":2484,"Ġfit":2485,"Ġ16":2486,"ĠAugust":2487,"ĠDo":2488,"Ġhusband":2489,"Ġhop":2490,"Ġriver":2491,"ĠEl":2492,"par":2493,"Ġreached":2494,"Stop":2495,"Ġla":2496,"Ġdanger":2497,"Ġ193":2498,"Ġsafe":2499,"Ġcharac":2500,"joy":2501,"come":2502,"hant":2503,"Sorry":2504,"Ġmember":2505,"tle":2506,"ĠSw":2507,"more":2508,"eptember":2509,"rigin":2510,"Ġlots":2511,"ĠJim":2512,"Ġlovely":2513,"ĠNorth":2514,"ĠEurope":2515,"fast":2516,"Ġphone":2517,"ĠYeah":2518,"ĠAd":2519,"Ġtoys":2520,"ĠBar":2521,"Ha":2522,"âĢĺ":2523,"Ġdiffic":2524,"Ġ*":2525,"Was":2526,"ruary":2527,"ĠPhil":2528,"Ġmum":2529,"Ġsol":2530,"Br":2531,"Ġshoes":2532,"Ġnational":2533,"stairs":2534,"ral":2535,"Ġsight":2536,"udd":2537,"Ġsoft":2538,"Ġsuccess":2539,"ĠGo":2540,"Ġconst":2541,"Ġâ":2542,"let":2543,"Ġhors":2544,"eal":2545,"Ġgentle":2546,"ardon":2547,"ĠOctober":2548,"well":2549,"ging":2550,"Ooh":2551,"Ġvar":2552,"Bye":2553,"Ġslow":2554,"Ġluck":2555,"Ġlonger":2556,"aser":2557,"ior":2558,"Ġcouple":2559,"mand":2560,"ĠGeor":2561,"Ġappro":2562,"Ġeverybody":2563,"ebruary":2564,"AS":2565,"ean":2566,"Ġreturned":2567,"ĠOne":2568,"iday":2569,"ĠMan":2570,"Ġsnow":2571,"His":2572,"ience":2573,"Ġcaught":2574,"Ġeye":2575,"ĠĠĠĠĠĠĠĠĠĠĠĠĠĠĠĠ":2576,"--------":2577,"Give":2578,"Ġelect":2579,"Ġabove":2580,"Ġpolice":2581,"Ġdet":2582,"ĠEngland":2583,"Ġthrow":2584,"Ġengine":2585,"ĠFrank":2586,"Ġbroken":2587,"Ġdat":2588,"Ġfavor":2589,"lex":2590,"Ġseem":2591,"Ġgrow":2592,"ĠCol":2593,"ĠNovember":2594,"Ġain":2595,"Ġcommon":2596,"Ġmist":2597,"avid":2598,"Ġcos":2599,"ĠJoe":2600,"LE":2601,"Ġneeds":2602,"Ġforward":2603,"Ġdam":2604,"Ġdest":2605,"Ġworry":2606,"Ġdepartment":2607,"gram":2608,"Ġtreat":2609,"Ġring":2610,"Ġformer":2611,"Ġsick":2612,"ĠJuly":2613,"Ġmur":2614,"Ġoffice":2615,"Ġesc":2616,"Ġthird":2617,"eally":2618,"Ġstation":2619,"Ġboard":2620,"ĠAfter":2621,"pes":2622,"ĠApril":2623,"Ġfeeling":2624,"bye":2625,"Ġahead":2626,"Ġoper":2627,"Ġabs":2628,"Ġhang":2629,"Ġevening":2630,"Ġeating":2631,"ĠPres":2632,"Ġdrive":2633,"Ġve":2634,"Pl":2635,"ĠSeptember":2636,"ĠNow":2637,"Ġchick":2638,"ĠDecember":2639,"Ġshar":2640,"Ġequ":2641,"ograph":2642,"terday":2643,"Ġcal":2644,"ature":2645,"Ġterri":2646,"ising":2647,"ange":2648,"Ġarms":2649,"Ġstri":2650,"yn":2651,"gest":2652,"Ġmillion":2653,"ĠAb":2654,"Ġhungry":2655,"what":2656,"Ġquickly":2657,"Ġarri":2658,"Ġtonight":2659,"Ġdevelop":2660,"llustr":2661,"ĠPar":2662,"ĠPe":2663,"ondon":2664,"Ġtrees":2665,"Ġhuman":2666,"Ġfear":2667,"Ġsad":2668,"Ġanyway":2669,"Ġclub":2670,"Ġnearly":2671,"ien":2672,"Ġvisit":2673,"con":2674,"omb":2675,"Ġtelevision":2676,"emy":2677,"ample":2678,"Ġbuilding":2679,"Ġfill":2680,"ggest":2681,"rat":2682,"Ġparent":2683,"ky":2684,"ĠYOU":2685,"Ġwarm":2686,"Ġregion":2687,"ĠFebruary":2688,"Ġseat":2689,"Ġjuice":2690,"Ġsuper":2691,"Ġsecret":2692,"Ġenjoy":2693,"Ġvillage":2694,"ĠUniversity":2695,"Ġchanged":2696,"ĠMin":2697,"Ġopened":2698,"Ġwild":2699,"Ġsuggest":2700,"Ġisland":2701,"ffect":2702,"Ġnoise":2703,"now":2704,"'.":2705,"Ġplayer":2706,"Ġbuilt":2707,"ĠTo":2708,"Ġstopped":2709,"Ġ]":2710,"Ġbab":2711,"Ġshut":2712,"Ġest":2713,"Ġled":2714,"Ġbroke":2715,"oops":2716,"Ġpublic":2717,"Ġorgan":2718,"ĠCal":2719,"Ġknock":2720,"Ġshoot":2721,"Ġah":2722,"iny":2723,"Ġmeant":2724,"Ġputting":2725,"Ġcareful":2726,"Ġwhatever":2727,"Ġwhom":2728,"Ġtelling":2729,"Ġindeed":2730,"Ġbow":2731,"Ġ...":2732,"ology":2733,"ustral":2734,"Ġprofess":2735,"Ġstat":2736,"Ġcost":2737,"Ġfollowed":2738,"Ġorigin":2739,"ĠCaptain":2740,"Ġsupport":2741,"Ġdecided":2742,"Ġshout":2743,"ele":2744,".'":2745,"Ġlie":2746,"ĠTr":2747,"Ġsupposed":2748,"Ġcareer":2749,"ills":2750,"mbers":2751,"Ġprison":2752,"uk":2753,"Ġdisapp":2754,"noon":2755,"ips":2756,"unity":2757,"Ġglass":2758,"Ġseason":2759,"Ġmad":2760,"ffic":2761,"Ġbright":2762,"Ġ11":2763,"cially":2764,"Ġstrange":2765,"ĠPl":2766,"Ġcool":2767,"Ġstanding":2768,"Ġride":2769,"Ġbreakfast":2770,"ĠGu":2771,"Ġsave":2772,"ĠLe":2773,"Ġtest":2774,"Ġinstead":2775,"omin":2776,"Ġwritten":2777,"CHA":2778,"OM":2779,"Re":2780,"Ġadded":2781,"Ġstore":2782,"ĠDr":2783,"ospital":2784,"ĠMy":2785,"Ġav":2786,"uel":2787,"Ġmiles":2788,"que":2789,"Ġafternoon":2790,"Ġpark":2791,"Ġanyone":2792,"Ġcre":2793,"Ġbreat":2794,"Ġcommand":2795,"ceed":2796,"Ġcake":2797,"Ġgarden":2798,"Ġheavy":2799,"Ġru":2800,"Ġswim":2801,"Ġhell":2802,"Thanks":2803,"net":2804,"ĠItal":2805,"idence":2806,"Ġval":2807,"ĠPer":2808,"Ġduck":2809,"Ġlearn":2810,"ray":2811,"Ġpage":2812,"Ġparticular":2813,"ĠBen":2814,"Ġdecl":2815,"Ġperfect":2816,"ĠWell":2817,"ĠSome":2818,"Ġsilly":2819,"ales":2820,"Ġbes":2821,"Ġeffect":2822,"ushed":2823,"oul":2824,"Ġang":2825,"Yep":2826,"Un":2827,"Ġbas":2828,"Ġweeks":2829,"Somet":2830,"Ġrequ":2831,"Ġprotect":2832,"ĠSha":2833,"ĠTO":2834,"Ġfollowing":2835,"ror":2836,"Ġworks":2837,"Mum":2838,"Ġappear":2839,"bor":2840,"ĠAustral":2841,"Ġwat":2842,"ND":2843,"Ġbottom":2844,"Ġsouth":2845,"Ġearth":2846,"Ġexactly":2847,"Ġbrown":2848,"ining":2849,"iled":2850,"Ġexclaimed":2851,"night":2852,"ĠCity":2853,"Ġ14":2854,"Ġdirect":2855,"Ġbought":2856,"Ġquar":2857,"Ġsus":2858,"Ġhappens":2859,"ĠLondon":2860,"ĠRep":2861,"Ġyesterday":2862,"Ġbread":2863,"Ġinform":2864,"Ġtrack":2865,"Ġmat":2866,"Ġir":2867,"Ġcast":2868,"Ġprop":2869,"ĠAf":2870,"Ġdev":2871,"isten":2872,"Ġmiddle":2873,"Ġwhose":2874,"Ġposition":2875,"Ġprodu":2876,"ĠWest":2877,"Ġstreet":2878,"ĠNational":2879,"Ġproduc":2880,"Ġblock":2881,"ege":2882,"Ġmis":2883,"ĠâĮ":2884,"Gr":2885,"dom":2886,"uthor":2887,"Ġpack":2888,"Ġdoubt":2889,"Ġcertainly":2890,"Ġwrote":2891,"Ġcomplete":2892,"Ġlegs":2893,"IC":2894,"Ġburn":2895,"go":2896,"Ġfarm":2897,"Ġbutter":2898,"Ġpract":2899,"Ġfort":2900,"Ġbelong":2901,"Sure":2902,"co":2903,"Ġcaptain":2904,"Ġobject":2905,"Ġtruth":2906,"ÃŃ":2907,"ician":2908,"Ġprogram":2909,"tered":2910,"Ġworth":2911,"ĠRuss":2912,"Really":2913,"Ġmembers":2914,"Ġ13":2915,"Ġexcept":2916,"Ġusing":2917,"Ġdistrict":2918,"Got":2919,"Ġteacher":2920,"Ġview":2921,"ouncil":2922,"ĠMary":2923,"Ġexample":2924,"like":2925,"Ar":2926,"Ġrad":2927,"Want":2928,"ĠBy":2929,"rey":2930,"lie":2931,"ĠOF":2932,"oop":2933,"Ġvi":2934,"arty":2935,"amer":2936,"Ġhasn":2937,"Ġsummer":2938,"resent":2939,"Ġlanguage":2940,"gar":2941,"Ġgeneral":2942,"ffee":2943,"min":2944,"Ġplaces":2945,"Ġsell":2946,"ances":2947,"Ġgiving":2948,"Ġtick":2949,"Ġcover":2950,"Ġban":2951,"ula":2952,"ED":2953,"Ġchurch":2954,"ĠIndian":2955,"OW":2956,"ift":2957,"itted":2958,"nel":2959,"Ġservice":2960,"etty":2961,"ĠWith":2962,"PTER":2963,"ĠĠĠĠĠĠ":2964,"Ġcirc":2965,"ĠOr":2966,"Ġhol":2967,"More":2968,"Ġneck":2969,"gn":2970,"ishing":2971,"ris":2972,"ternational":2973,"fl":2974,"izz":2975,"Three":2976,"Ġhig":2977,"Ġhistory":2978,"rit":2979,"Ġreceived":2980,"board":2981,"Those":2982,"ency":2983,"Ġtowards":2984,"Ġdep":2985,"Ġcarried":2986,"Ġfail":2987,"Ġmaster":2988,"Nothing":2989,"Ġrev":2990,"Ġtail":2991,"Ġdi":2992,"Ġlevel":2993,"CHAPTER":2994,"iers":2995,"Ġought":2996,"Ġsomewhere":2997,"Ġpieces":2998,"ubb":2999,"Ġconsider":3000,"ĠNot":3001,"Ġobs":3002,"Ġmach":3003,"ĠLord":3004,"itty":3005,"Ġtakes":3006,"Ġhast":3007,"Ġcause":3008,"work":3009,"ogn":3010,"ases":3011,"ified":3012,"Illustr":3013,"Ġstuck":3014,"Ġfinish":3015,"mie":3016,"Ġtast":3017,"ille":3018,"andy":3019,"Ġcop":3020,"itchen":3021,"Ġcond":3022,"fer":3023,"ancy":3024,",--":3025,"Ġcompan":3026,"Sp":3027,"Ġtot":3028,"cuse":3029,"Ġincluding":3030,"Ġpretend":3031,"time":3032,"aff":3033,"Ġresult":3034,"Ġdescri":3035,"Ġgod":3036,"resh":3037,"Ġcommune":3038,"ichael":3039,"Ġmajor":3040,"ays":3041,"Ġlunch":3042,"Qu":3043,"Ġspace":3044,"la":3045,"ĠAm":3046,"Ġdefe":3047,"bur":3048,"mpions":3049,"Ġspir":3050,"Ġspoke":3051,"Ġfifty":3052,"ĠThese":3053,"ĠWhy":3054,"Hel":3055,"ipe":3056,"Ġleaving":3057,"ashing":3058,"Ġappeared":3059,"Ġcharacter":3060,"Ġanymore":3061,"pecially":3062,"Ġhospital":3063,"Ġdifficult":3064,"Ġsense":3065,"hel":3066,"Ġtoward":3067,"Ġbusy":3068,"Ġbeat":3069,"ĠPresident":3070,"Ġparents":3071,"Ġpopulation":3072,"Pardon":3073,"ĠâĨ":3074,"ĠSam":3075,"Ġhole":3076,"GH":3077,"gie":3078,"THE":3079,"Ġsuddenly":3080,"Ġdry":3081,"Ġtrust":3082,"cent":3083,"TH":3084,"Ġ30":3085,"Tr":3086,"Ġanybody":3087,"ording":3088,"ada":3089,"rap":3090,"Ġcontrol":3091,"Ġwatching":3092,"Ġorange":3093,"Ġeveryone":3094,"form":3095,"Ġport":3096,"Ġlock":3097,"Ġflowers":3098,"bers":3099,"ĠMart":3100,"Ġcontinued":3101,"Ġcab":3102,"oph":3103,"Ġthirty":3104,"how":3105,"By":3106,"Ġallowed":3107,"Ġimag":3108,"Illustration":3109,"Ġteeth":3110,"ti":3111,"erry":3112,"ipped":3113,"eep":3114,"king":3115,"Ġhoney":3116,"ocol":3117,"Ġwhis":3118,"Ġcomfort":3119,"ï¿½ï¿½ï¿½ï¿½":3120,"ghed":3121,"ggy":3122,"oom":3123,"Ġkitchen":3124,"Ġclos":3125,"estern":3126,"iod":3127,"iger":3128,"Ġcompet":3129,"Ġweren":3130,"ino":3131,"Ġneigh":3132,"Ġwalked":3133,"Watch":3134,"eddy":3135,"Ġcurrent":3136,"Ġreach":3137,"iced":3138,"Ġrul":3139,"uation":3140,"Ġfurther":3141,"Ġsex":3142,"Ġstru":3143,"Ġemp":3144,"Ġexpress":3145,"bout":3146,"Ġnor":3147,"ĠLea":3148,"roy":3149,"Ġpounds":3150,"Ġdesign":3151,"ĠAmerica":3152,"reet":3153,"Per":3154,"Ġanimal":3155,"Ġaccept":3156,"Ġlikes":3157,"ID":3158,"Ġrecogn":3159,"Ġseeing":3160,"Ġrace":3161,"ek":3162,"Ġmid":3163,"Ġfat":3164,"Could":3165,"Ġtall":3166,"ĠMc":3167,"ĠCent":3168,"Ġmix":3169,"uty":3170,"Ne":3171,"Ġjour":3172,"Ġwet":3173,"Ġvol":3174,"Ġcollect":3175,"HAT":3176,"Ġfigure":3177,"het":3178,"Ġremark":3179,"Ġ2018":3180,"mm":3181,"Ġapart":3182,"Ġfle":3183,"Ġthou":3184,"pend":3185,"olute":3186,"empt":3187,"cer":3188,"Ġpopular":3189,"razy":3190,"Ġvict":3191,"Ġgrass":3192,"Ġvide":3193,"Ġate":3194,"Ġcoffee":3195,"Ġlaughed":3196,"unicip":3197,"asant":3198,"Ġwide":3199,"Ġbeginning":3200,"Ġtor":3201,"Ġmoving":3202,"Ġgames":3203,"ĠNor":3204,"ship":3205,"Ġbra":3206,"Ġlose":3207,"ĠRe":3208,"Ġfucking":3209,"Ġspend":3210,"Ġgen":3211,"Ġhorses":3212,"US":3213,"Ġcounty":3214,"Ġlift":3215,"Ġalthough":3216,"Ġtype":3217,"lin":3218,"Baby":3219,"ĠDan":3220,"bert":3221,"Ġcreated":3222,"Ġpresident":3223,"acy":3224,"Ġ192":3225,"Ġdropped":3226,"elve":3227,"itions":3228,"Ġbank":3229,"Ġgas":3230,"Ġpriv":3231,"ala":3232,"Ġmeeting":3233,"iling":3234,"Ġaccount":3235,"ilar":3236,"Wanna":3237,"Ġitself":3238,"Ġbased":3239,"Ġcentury":3240,"ades":3241,"Listen":3242,"Ġauthor":3243,"clock":3244,"Ġmoon":3245,"riage":3246,"Ġsmell":3247,"Ġentire":3248,"asket":3249,"lo":3250,"ĠGeorge":3251,"Ġlim":3252,"phone":3253,"Ġinformation":3254,"Ġrab":3255,"Ġnecess":3256,"olved":3257,"Ġdistance":3258,"Ġwash":3259,"Pe":3260,"ume":3261,"Ġspot":3262,"Ġ2021":3263,"Ġcorner":3264,"wood":3265,"ĠGl":3266,"ĠBrown":3267,"uge":3268,"Ġsounds":3269,"ston":3270,"Ġpictures":3271,"ida":3272,"Big":3273,"Ġcard":3274,"ission":3275,"Ġ25":3276,"Ġpush":3277,"Ġdelight":3278,"Ġrespect":3279,"ounded":3280,"Ġjud":3281,"Ġfeed":3282,"Up":3283,"Her":3284,"Ġgrew":3285,"ĠEx":3286,"Ġliked":3287,"uture":3288,"ashed":3289,"ĠLou":3290,"por":3291,"Isn":3292,"ĠBlack":3293,"Ġears":3294,"Ġcars":3295,"Ġperiod":3296,"Ġpock":3297,"Ġvers":3298,"sc":3299,"Ġhealth":3300,"Ġcapital":3301,"._":3302,"Ġcell":3303,"icks":3304,"Ġelep":3305,"itive":3306,"Ġrob":3307,"Ġpink":3308,"lt":3309,"nie":3310,"OK":3311,"Ġblow":3312,"raft":3313,"From":3314,"cell":3315,"Ġsky":3316,"ĠSpan":3317,"riend":3318,"Ġcream":3319,"10":3320,"Ġdanc":3321,"Ġdig":3322,"AL":3323,"Ġbull":3324,"chn":3325,"Ġmatch":3326,"ĠGood":3327,"Ġletters":3328,"Ġparts":3329,"ĠGrand":3330,"Ġfamous":3331,"Ġperfor":3332,"ply":3333,"ĠGermany":3334,"roll":3335,"ato":3336,"Ġwalking":3337,"ĠSe":3338,"AY":3339,"Ġself":3340,"Hold":3341,"Ġinteresting":3342,"Ġmention":3343,"Ġshouldn":3344,"Ġshowed":3345,"Sit":3346,"Ġlab":3347,"ounced":3348,"Ġlocal":3349,"Ġwonderful":3350,"Ġfavorite":3351,"ires":3352,"Ġcheese":3353,"ĠPol":3354,"Ġforce":3355,"Ġincre":3356,"ius":3357,"Ġma":3358,"Ġanx":3359,"isted":3360,"Ġchicken":3361,"Ġhate":3362,"of":3363,"Ġarmy":3364,"Ġ$":3365,"Ġalive":3366,",'":3367,"Uhoh":3368,"Ġwel":3369,"Ġpaid":3370,"Ġhall":3371,"Ġpolic":3372,"Ġdance":3373,"ĠPaul":3374,"ĠMad":3375,"rian":3376,"Ġnorm":3377,"ĠâĢĺ":3378,"Ġsle":3379,"Ġhy":3380,"iforn":3381,"ĠQue":3382,"aves":3383,"Ġthee":3384,"Che":3385,"ĠMag":3386,"oly":3387,"Ġnames":3388,"Ġneeded":3389,"ivil":3390,"Ġstars":3391,"Mar":3392,"medi":3393,"Ġcrow":3394,"cher":3395,"Ġrose":3396,"Ġnone":3397,"die":3398,"Ġaut":3399,"Excuse":3400,"aper":3401,"field":3402,"Ġinterested":3403,"ival":3404,"rel":3405,"Ġ#":3406,"ĠSu":3407,"Ġquestions":3408,"Ġcrazy":3409,"Ġï¿½":3410,"Ġforgot":3411,"ĠEm":3412,"Ġsna":3413,"Ġhous":3414,"soci":3415,"Ġcharge":3416,"Ġeggs":3417,"Ġfuture":3418,"Ġattention":3419,"off":3420,"Ġtrad":3421,"ĠHowever":3422,"Eh":3423,"ustom":3424,"itary":3425,"Ġwriting":3426,"Ġserious":3427,"Ġspeed":3428,"Ġmm":3429,"Ġofficer":3430,"light":3431,"viously":3432,"eneral":3433,"acing":3434,"ifornia":3435,"Pro":3436,"Ġplant":3437,"Com":3438,"cious":3439,"ination":3440,"ĠâĨĴ":3441,"ocolate":3442,"ption":3443,"Ġholding":3444,"ĠTe":3445,"ĠLet":3446,"Ġtape":3447,"_,":3448,"Ġbirds":3449,"Ġiss":3450,"rs":3451,"Ġbene":3452,"Ġmem":3453,"18":3454,"sy":3455,"ribut":3456,"Ġcapt":3457,"Ġbottle":3458,"mpionship":3459,"Ġlying":3460,"Ġfinger":3461,"Ġfraser":3462,"osaur":3463,"Ġkick":3464,"ĠBill":3465,"kes":3466,"Ġbigger":3467,"Ġfinally":3468,"Ġpray":3469,"âĮī":3470,"Ġdrop":3471,"Ġhost":3472,"Ġhide":3473,"iles":3474,"ĠRiver":3475,"ids":3476,"bing":3477,"Ġphot":3478,"\")":3479,"ĠIN":3480,"Ġkey":3481,"ument":3482,"Ġfool":3483,"ĠComm":3484,"ploy":3485,"isf":3486,"Ġcomput":3487,"Ġ2019":3488,"don":3489,"ises":3490,"upid":3491,"Ġrap":3492,"Ġsubject":3493,"Ġloved":3494,"obert":3495,"lymp":3496,"Ġmunicip":3497,"ĠHarry":3498,"Ġviol":3499,"ĠWilliam":3500,"uts":3501,"ĠQu":3502,"Ġsurprise":3503,"Make":3504,"Ġcontain":3505,"Another":3506,"Ġclosed":3507,"Ġchief":3508,"Ġtit":3509,"Ġfir":3510,"Ġmass":3511,"Ġinn":3512,"Ġinfl":3513,"Ġtur":3514,"Ġplate":3515,"Ġgar":3516,"Ġconne":3517,"hood":3518,"Ġbelow":3519,"Ġproblems":3520,"af":3521,"anor":3522,"iant":3523,"Ġscared":3524,"Ġfilm":3525,"eder":3526,"Has":3527,"ether":3528,"Ġsheep":3529,"ET":3530,"Ġrid":3531,"ils":3532,"âĮĭ":3533,"Ġsmile":3534,"AC":3535,"ya":3536,"Ġbridge":3537,"Ġspecies":3538,"Ġcountries":3539,"wise":3540,"Ġpet":3541,"ĠJust":3542,"Ġcrying":3543,"Ġvideo":3544,"Ġshare":3545,"gain":3546,"name":3547,"Ġthanks":3548,"ĠTH":3549,"ĠChristmas":3550,"chan":3551,"house":3552,"Ġprep":3553,"Ġespecially":3554,"orts":3555,"Ġfre":3556,"iment":3557,"Ġ24":3558,"rug":3559,"Ġeduc":3560,"Ġterrible":3561,"Ġshore":3562,"Ġaccident":3563,"ĠBilly":3564,"alley":3565,"ength":3566,"ĠHouse":3567,"AM":3568,"reg":3569,"ichard":3570,"ites":3571,"ili":3572,"Ġfresh":3573,"ĠParty":3574,"Ġcourt":3575,"Ġshit":3576,"str":3577,"olution":3578,"iel":3579,"ĠGreat":3580,"ĠSy":3581,"Ġ(\"":3582,"ĠCalifornia":3583,"Ġfem":3584,"Car":3585,"Ġslowly":3586,"kin":3587,"Ġdue":3588,"Should":3589,"line":3590,"Ġserved":3591,"Ġep":3592,"Even":3593,"lect":3594,"ĠOlymp":3595,"ĠRoman":3596,"Ġhelped":3597,"omes":3598,"Ġasleep":3599,"Ġtwelve":3600,"gged":3601,"yle":3602,"Ġwest":3603,"Ġextra":3604,"Ġinvest":3605,"Ġbell":3606,"Se":3607,"Ġchoo":3608,"set":3609,"Ġ2017":3610,"pose":3611,"Ġbasket":3612,"Ġremain":3613,"Ġfright":3614,"ĠDavid":3615,"Ġcovered":3616,"Ġplays":3617,"Ġapple":3618,"Ġpuzz":3619,"ĠMa":3620,"VE":3621,"Ġinclude":3622,"Ġpolitician":3623,"Turn":3624,"Ġsepar":3625,"Ġspl":3626,"ads":3627,"Ġloud":3628,"Ġpal":3629,"epend":3630,"ĠAND":3631,"Ġvan":3632,"Ġjoined":3633,"ico":3634,"Ġexam":3635,"Ġpeace":3636,"Ġtour":3637,"Ġhardly":3638,"ĠPark":3639,"Ġdogs":3640,"Ġfol":3641,"ĠIndia":3642,"Ġlikely":3643,"gel":3644,"conom":3645,"Man":3646,"Ġspent":3647,"Ġamount":3648,"bour":3649,"lands":3650,"Ġasking":3651,"Ġrepresent":3652,"Ġnobody":3653,"Ġterm":3654,"val":3655,"Ġmachine":3656,"Ġaccom":3657,"Ġforest":3658,"Ġsleeping":3659,"Ġcaused":3660,"ingly":3661,"Ġprocess":3662,"Ġways":3663,"ĠSec":3664,"ĠDad":3665,"Ġbye":3666,"ĠBon":3667,"Rem":3668,"ĠUS":3669,"ns":3670,"Ġlearned":3671,"Ġsimilar":3672,"Ġstage":3673,"Ġcrowd":3674,"uten":3675,"Ġmic":3676,"ause":3677,"Ġpers":3678,"Ġdirty":3679,"Only":3680,"Ġolder":3681,"Ġ21":3682,"ressed":3683,"Ġreading":3684,"Ġentered":3685,"Ġtalked":3686,"ĠAunt":3687,"ĠLeague":3688,"inite":3689,"ĠThan":3690,"ĠPeter":3691,"Ġbase":3692,"Ġleaves":3693,"oses":3694,"Ġdirection":3695,"Ġimmedi":3696,"Ġ2022":3697,"olutely":3698,"Ġuncle":3699,"zer":3700,"erve":3701,"illa":3702,"Ġspread":3703,"ĠPat":3704,"Ġattempt":3705,"cience":3706,"cks":3707,"yeah":3708,"Ġpicked":3709,"ĠSm":3710,"Ġpromise":3711,"osh":3712,"Ġdeclared":3713,"Ġmeat":3714,"Ġmonkey":3715,"Ġstone":3716,"Ġstudy":3717,"Ġbattle":3718,"olf":3719,"Ġcoat":3720,"arth":3721,"Ġwheel":3722,"ĠEast":3723,"antly":3724,"Ġearl":3725,"hem":3726,"ĠBetty":3727,"Four":3728,"Ġworse":3729,"esus":3730,"ĠSir":3731,"ĠLa":3732,"Ġchrist":3733,"asc":3734,"ĠMe":3735,"istory":3736,"Ġforty":3737,"Ġfingers":3738,"Ġcrack":3739,"yond":3740,"ena":3741,"De":3742,"aven":3743,"ĠWhere":3744,"'?":3745,"Ġthy":3746,"Ġver":3747,"aded":3748,"Ġmountain":3749,"Ġoccas":3750,"reek":3751,"Ġtoy":3752,"ĠRepubl":3753,"Ġut":3754,"Ġris":3755,"Ġsatisf":3756,"ensus":3757,"Ġconcern":3758,"ĠGovern":3759,"Ġcomb":3760,"Ġpocket":3761,"Ġsituation":3762,"inary":3763,"aughty":3764,"Ġjack":3765,"Ġsize":3766,"Ġforth":3767,"mit":3768,"astic":3769,"aker":3770,"ĠRed":3771,"Think":3772,"arm":3773,"Ġspring":3774,"ĠJapanese":3775,"otten":3776,"Ġmama":3777,"Ġrail":3778,"ĠOf":3779,"ĠWho":3780,"Ġbroad":3781,"ization":3782,"erved":3783,"Ġnatural":3784,"Ġdestroy":3785,"Ġscr":3786,"ĠUncle":3787,"Ġlength":3788,"Ġsevent":3789,"Ġrepe":3790,"Ġrelig":3791,"First":3792,"Ġcand":3793,"nam":3794,"Ġden":3795,"Ġstories":3796,"isy":3797,"Ġdin":3798,"Never":3799,"Ġenc":3800,"Ġdollars":3801,"va":3802,"Oops":3803,"Ġ23":3804,"Ġsearch":3805,"Ġguard":3806,"Ġrich":3807,"Ġhey":3808,"Ġlaid":3809,"ĠCome":3810,"Try":3811,"orthern":3812,"reme":3813,"Ġwelcome":3814,"Ġpath":3815,"Ġenemy":3816,"Ġaff":3817,"Our":3818,"Ġhill":3819,"ergy":3820,"ummer":3821,"urday":3822,"Ġemb":3823,"ĠMinister":3824,"order":3825,"ĠSer":3826,"Ġlargest":3827,"Ġ2010":3828,"Ġneg":3829,"ĠAnt":3830,"Am":3831,"ams":3832,"Ġbill":3833,"Ġhurry":3834,"do":3835,"Ġhm":3836,"ctions":3837,"Ġeast":3838,"gu":3839,"Ġslight":3840,"Ġskin":3841,"Ġow":3842,"Open":3843,"Ġstupid":3844,"OT":3845,"ests":3846,"Little":3847,"Ġwinter":3848,"anny":3849,"essie":3850,"cul":3851,"sidered":3852,"Ġtiny":3853,"Ġconsidered":3854,"ka":3855,"Ġbite":3856,"Ġsett":3857,"Ġbeyond":3858,"ĠAust":3859,"arah":3860,"Ġangry":3861,"Ġmovies":3862,"Ġ22":3863,"astern":3864,"Blue":3865,"Ġrese":3866,"Ġagreed":3867,"God":3868,"nded":3869,"Ġleader":3870,"rican":3871,"she":3872,"Ġdeter":3873,"Ġjoy":3874,"Ġcalling":3875,"edd":3876,"Ġjoin":3877,"Ġbeha":3878,"Ġdressed":3879,"llen":3880,"Ġrole":3881,"ppy":3882,"Ow":3883,"Ġturning":3884,"Tw":3885,"ously":3886,"zen":3887,"Ġtight":3888,"Ġcloud":3889,"ĠColl":3890,"ĠJames":3891,"Ġstreng":3892,"ography":3893,"oyal":3894,"Ġphys":3895,"Ġsquare":3896,"Ġelephant":3897,"Ġshows":3898,"Sc":3899,"ĠAustralia":3900,"ĠHere":3901,"12":3902,"oles":3903,"Ġdirected":3904,"Ġrespons":3905,"Ġpossib":3906,"Ġdrew":3907,"Ġthrew":3908,"elly":3909,"Ġfighting":3910,"Ġ100":3911,"Ġpoo":3912,"Ġaction":3913,"ux":3914,"Ġattend":3915,"Nice":3916,"ĠMor":3917,"pping":3918,"Lea":3919,"ĠAre":3920,"Ġintro":3921,"Ġsmart":3922,"icious":3923,"Ġfinal":3924,"Ġdriving":3925,"Ġchocolate":3926,"Ġcult":3927,"Ġrough":3928,"Ġvarious":3929,"Ġbreath":3930,"hered":3931,"ita":3932,"Ġdiscovered":3933,"they":3934,"ĠII":3935,"AD":3936,"under":3937,"Ġeff":3938,"Ġconv":3939,"Ġexplain":3940,"uses":3941,"ference":3942,"hal":3943,"arrow":3944,"Ġraised":3945,"Ġthick":3946,"ĠFr":3947,"cture":3948,"anta":3949,"Ġwatched":3950,"stit":3951,"Ġscar":3952,"Ġsoldiers":3953,"Ele":3954,"ĠNe":3955,"Ġarrived":3956,"ĠState":3957,"Ġ2011":3958,"Ġrabbit":3959,"Miss":3960,"itude":3961,"hold":3962,"Ġgoin":3963,"atic":3964,"ĠMon":3965,"ĠSan":3966,"sp":3967,"Ġplaced":3968,"Ġsimple":3969,"Ġsuit":3970,"Ġmissing":3971,"ĠLuc":3972,"Ġdifference":3973,"Ġnumbers":3974,"antic":3975,"Ġmedic":3976,"Ġide":3977,"Ġupstairs":3978,"Ġsens":3979,"essel":3980,"ville":3981,"ĠCo":3982,"Ġspoon":3983,"Ġclever":3984,"Ġeasily":3985,"uke":3986,"Ġeager":3987,"ushing":3988,"rer":3989,"Ġnurs":3990,"Ġrelations":3991,"Ġproud":3992,"Ġescape":3993,"Ġur":3994,"Whoa":3995,"Ġmam":3996,"Ġcrit":3997,"vell":3998,"Ġble":3999,"Ġpun":4000,"Gu":4001,"fit":4002,"Ġhappening":4003,"Ġtrip":4004,"Ġgrandma":4005,"Ġhelen":4006,"alt":4007,"ially":4008,"Ġdemand":4009,"ĠFred":4010,"Ġformed":4011,"Ġregular":4012,"nes":4013,"ĠSat":4014,"ĠCup":4015,"Ġdriver":4016,"Ġbabies":4017,"Ġstraw":4018,"Ġtemper":4019,"Ġbang":4020,"Ġhouses":4021,"aura":4022,"inct":4023,"Ġbud":4024,"Ġsuff":4025,"Aw":4026,"ĠMer":4027,"Ġmarket":4028,"ails":4029,"Ġweap":4030,"ciety":4031,"Ġweather":4032,"Ġwoods":4033,"uce":4034,"urse":4035,"face":4036,"IR":4037,"itor":4038,"Ġhiding":4039,"ĠDick":4040,"Keep":4041,"ander":4042,"Ġpulled":4043,"Dr":4044,"ĠBur":4045,"Ġpleasure":4046,"Ġmissed":4047,"Ġprofessional":4048,"Ġflying":4049,"ivid":4050,"...?":4051,"Ġactiv":4052,"Ġspirit":4053,"Ġ2016":4054,"Ġoffe":4055,"kn":4056,"umber":4057,"Ġ26":4058,"Ġblank":4059,"Ġconvers":4060,"ett":4061,"ĠSpanish":4062,"Ġmouse":4063,"Ġcollege":4064,"Ġcrew":4065,"ashion":4066,"John":4067,"Ġdiscuss":4068,"Ġet":4069,"Ġmanage":4070,"can":4071,"ables":4072,"Thomas":4073,"Ġtax":4074,"Tom":4075,"Ġspell":4076,"azing":4077,"ĠSchool":4078,"Ġgate":4079,"Ġneedta":4080,"Ġgrad":4081,"Ġdangerous":4082,"Ġsteps":4083,"ĠGeneral":4084,"Ġunless":4085,"Ġmanner":4086,"ago":4087,"Ġbound":4088,"Ġlines":4089,"ground":4090,"Ġfilled":4091,"Ġtaste":4092,"utenant":4093,"pens":4094,"Ġ&":4095,"outhern":4096,"Ġemploy":4097,"utch":4098,"iest":4099,"Ġclock":4100,"inal":4101,"Ġanywhere":4102,"oved":4103,"Ġund":4104,"sey":4105,"Ġcous":4106,"Ġdepend":4107,"Ġwit":4108,"Ġthinks":4109,"Ġvessel":4110,"Nin":4111,"Ġannounced":4112,"ira":4113,"Ġstream":4114,"Ġcoast":4115,"Ġtechn":4116,"Ġhadn":4117,"Ġmater":4118,"ora":4119,"asons":4120,"ences":4121,"Ġgives":4122,"ĠBlue":4123,"Ġsurprised":4124,"Ġthreat":4125,"Ġcircle":4126,"Fran":4127,"Ġended":4128,"15":4129,"ees":4130,"ĠTur":4131,"erm":4132,"ĠMed":4133,"ĠChristian":4134,"Ġsharp":4135,"ĠCr":4136,"Ġlaughing":4137,"Ġcheer":4138,"Ġregard":4139,"Ġhero":4140,"ĠMex":4141,"Ġnature":4142,"Out":4143,"action":4144,"Ġshr":4145,"gl":4146,"Ġbeside":4147,"Ġwearing":4148,"Ġholiday":4149,"Ġfro":4150,"ĠHigh":4151,"17":4152,"Ġaunt":4153,"Ġhun":4154,"Ġhuge":4155,"Ġstran":4156,"Ġpleasant":4157,"Ġinj":4158,"Ġfault":4159,"Ġtherefore":4160,"cean":4161,"ĠRobert":4162,"Ġstarting":4163,"ĠBel":4164,"Ġhonest":4165,"Ġcompletely":4166,"Ġdeg":4167,"Ġscene":4168,"pin":4169,"Remember":4170,"OS":4171,"ĠMother":4172,"osing":4173,"heart":4174,"Ġcivil":4175,"ĠBo":4176,"Ġexpected":4177,"Ġsandw":4178,"Ġcomputer":4179,"Ġsocial":4180,"Ġ27":4181,"ĠParis":4182,"Ġinflu":4183,"Ġactor":4184,"Ġshape":4185,"Ġshirt":4186,"LD":4187,"hin":4188,"Ġjwww":4189,"ugg":4190,"Ġlion":4191,"ĠSte":4192,"elle":4193,"ĠFrom":4194,"enry":4195,"Ġbelieved":4196,"Mrs":4197,"Ġquarter":4198,"ij":4199,"incess":4200,"Ã¼":4201,"Ġbegin":4202,"anced":4203,"Perhaps":4204,"Ġpossess":4205,"cast":4206,"Ġdate":4207,"Ġsinging":4208,"Ġdust":4209,"Ġlog":4210,"Ġsimply":4211,"Ġnaughty":4212,"Ġopport":4213,"Ġsurv":4214,"hest":4215,"Ġduty":4216,"Ġnecessary":4217,"UT":4218,"ĠEn":4219,"Ġpaint":4220,"Ġpolitical":4221,"ĠMal":4222,"aine":4223,"Ġsongs":4224,"ĠMus":4225,"Ġpurpose":4226,"Ġcere":4227,"icle":4228,"ĠAir":4229,"Ġplain":4230,"CH":4231,"Ġcabin":4232,"oken":4233,"Play":4234,"Ġnotice":4235,"rupt":4236,"Ġfaith":4237,"Ġwake":4238,"Ġplane":4239,"Ġenergy":4240,"Help":4241,"Ġeconom":4242,"Ġfruit":4243,"Ġsmoke":4244,"Ġmilitary":4245,"ĠEuropean":4246,"iot":4247,"Ġfalling":4248,".,":4249,"oring":4250,"ledge":4251,"Ġoriginal":4252,"Ġagree":4253,"Ġiron":4254,"ĠJane":4255,"Ġexperience":4256,"Ġroof":4257,"Ġ2014":4258,"Down":4259,"ĠHall":4260,"ĠTex":4261,"ggie":4262,"Ġfeat":4263,"Ġsinger":4264,"Ġpleased":4265,"Ġmodern":4266,"ights":4267,"Ġarrest":4268,"pa":4269,"Ġproject":4270,"Ġteddy":4271,"Ġthus":4272,"abel":4273,"Ġflat":4274,"Ġmeaning":4275,"Ġmunicipality":4276,"Ġ28":4277,"ĠRob":4278,"AND":4279,"Ġpan":4280,"Over":4281,"Ġdrug":4282,"ĠBobby":4283,"Ġhigher":4284,"----------------":4285,"Ġlower":4286,"road":4287,"igg":4288,"Ġtravel":4289,"da":4290,"ĠSund":4291,"Ġtap":4292,"Ġimmediately":4293,"ĠJul":4294,"Ġproduced":4295,"look":4296,"Ġprivate":4297,"eer":4298,"Ġallow":4299,"oups":4300,"aching":4301,"ĠAc":4302,"ette":4303,"Ġsupper":4304,"Ġusual":4305,"Ġ2012":4306,"Ġawful":4307,"rect":4308,"ĠIts":4309,"onel":4310,"ointed":4311,"anch":4312,"ria":4313,"Ġcustom":4314,"mar":4315,"Ġdisp":4316,"Ġjourney":4317,"bl":4318,"ae":4319,"Ġgrown":4320,"ĠCouncil":4321,"idden":4322,"IGH":4323,"Ġlake":4324,"Five":4325,"200":4326,"Ġheads":4327,"Ġnet":4328,"ĠMark":4329,"Ġ2013":4330,"Ġsettle":4331,"Ġpoints":4332,"Ã¶":4333,"incip":4334,"Ġbee":4335,"istan":4336,"Ġcro":4337,"Ġeh":4338,"ĠBer":4339,"Ġoffer":4340,"Whoops":4341,"Ġindust":4342,"Ste":4343,"Red":4344,"Ġident":4345,"Ġguns":4346,"History":4347,"Ġye":4348,"Ġant":4349,"Ġsoul":4350,"Ġempty":4351,"bered":4352,"ĠQueen":4353,"Ġlucky":4354,"mond":4355,"Ġmir":4356,"mother":4357,"Ġofficers":4358,"Ġcolors":4359,"pered":4360,"Ġbeach":4361,"ration":4362,"Ġradio":4363,"Ġtotal":4364,"Ġadvent":4365,"ators":4366,"Ġpromised":4367,"yer":4368,"Ġrefer":4369,"iber":4370,"Ġfallen":4371,"Ġlights":4372,"ners":4373,"Ġstruck":4374,"Ġbrave":4375,"ĠCor":4376,"Ġce":4377,"ĠRos":4378,"Ġterms":4379,"vey":4380,"ĠRichard":4381,"ĠIT":4382,"Ġstrength":4383,"Ġcensus":4384,"oted":4385,"Ġexist":4386,"Ġ2015":4387,"Care":4388,"inese":4389,"Ġham":4390,"eless":4391,"Ġplenty":4392,"ĠHey":4393,"Ġimpro":4394,"Ġimm":4395,"hah":4396,"Ġaud":4397,"Ġtwice":4398,"Ġnoticed":4399,"Ġbob":4400,"Ġmostly":4401,"Ġoppos":4402,"Ġspeaking":4403,"oid":4404,"Ġflower":4405,"Ġstorm":4406,"Ġdem":4407,"van":4408,"Ġtears":4409,"usion":4410,"rica":4411,"Ġdrawing":4412,"chie":4413,"bon":4414,"ĠLouis":4415,"Ready":4416,"Something":4417,"11":4418,"ossible":4419,"People":4420,"Ġsugar":4421,"Ġedge":4422,"50":4423,"ĠUnion":4424,"inger":4425,"EL":4426,"Ġsaved":4427,"ĠHam":4428,"Ġelection":4429,"Ġordered":4430,"oured":4431,"ĠST":4432,"ental":4433,"Ġdeck":4434,"Ġ2008":4435,"ively":4436,"gon":4437,"Ġnote":4438,"ĠPort":4439,"ords":4440,"ums":4441,"Didn":4442,"burg":4443,"Ġcoun":4444,"eds":4445,"Ġtrick":4446,"Ġap":4447,"Great":4448,"omen":4449,"add":4450,"ucky":4451,"Ġpound":4452,"Ġgrowing":4453,"ĠAlex":4454,"Hur":4455,"Ġgoodness":4456,"Ġboo":4457,"Ġchoice":4458,"Ġnea":4459,"initely":4460,"aps":4461,"Ġladies":4462,"30":4463,"Ġrub":4464,"Ġevidence":4465,"aving":4466,"ĠEarth":4467,"Ġattract":4468,"ĠYour":4469,"Ġmotor":4470,"lla":4471,"Ġoccup":4472,"Ġsnake":4473,"Ġexcited":4474,"Ġassist":4475,"Ġge":4476,"Ġyouth":4477,"Ġswimming":4478,"Ġmagic":4479,"ĠKingdom":4480,"hy":4481,"Ġflag":4482,"Ġcamer":4483,"oday":4484,"Ġ29":4485,"Ġ)":4486,"vere":4487,"jo":4488,"Ġstock":4489,"Ġnon":4490,"vious":4491,"ĠReg":4492,"ening":4493,"IM":4494,"Ġchem":4495,"Ġestab":4496,"Ġshoe":4497,"Ġdinosaur":4498,"ĠTV":4499,"father":4500,"ki":4501,"enny":4502,"Ġimagine":4503,"istics":4504,"Ġlistening":4505,"Ġfellows":4506,"kins":4507,"eman":4508,"ĠâĢĻ":4509,"urity":4510,"Ġcart":4511,"ĠTexas":4512,"Ġpair":4513,"Ġtiger":4514,"Ġtong":4515,"Ġtaught":4516,"ems":4517,"ĠMany":4518,"ĠRussian":4519,"Ġcarefully":4520,"pper":4521,"Ġgroups":4522,"Ġ2009":4523,"ĠON":4524,"Ġstret":4525,"Ġmistake":4526,"ĠItalian":4527,"Ġchristmas":4528,"Ġmessage":4529,"ĠChampionship":4530,"ĠScott":4531,"Ġtone":4532,"bie":4533,"Ġ2007":4534,"Ġearlier":4535,"Ġcondu":4536,"Ġrule":4537,"Ġopening":4538,"aa":4539,"Ġknife":4540,"Ġearn":4541,"ĠStan":4542,"aked":4543,"Ġshad":4544,"Ġareas":4545,"berg":4546,"aret":4547,"ĠâĮĪ":4548,"Ġbless":4549,"Ġpublished":4550,"anda":4551,"Ġkeeping":4552,"oming":4553,"Ġsac":4554,"Ġpil":4555,"Ġmurder":4556,"play":4557,"Foot":4558,"Ġoccur":4559,"Ġtower":4560,"izza":4561,"ĠWhite":4562,"yy":4563,"Ġhotel":4564,"oons":4565,"Ġgro":4566,"Ġdouble":4567,"Looks":4568,"Ġinvolved":4569,"Ġmeal":4570,"Other":4571,"Leave":4572,"ĠChina":4573,"Bob":4574,"agon":4575,"Ġchap":4576,"Ġpainting":4577,"ĠCanada":4578,"arry":4579,"Ġbrain":4580,"âĮĬ":4581,"ĠCharles":4582,"Ġpersonal":4583,"Ġremem":4584,"iction":4585,"ruction":4586,"Ġchoose":4587,"ĠSen":4588,"appy":4589,"ĠBunny":4590,"14":4591,"ĠSue":4592,"Ġdise":4593,"ĠOK":4594,"ĠOld":4595,"vi":4596,"Ġbuck":4597,"ĠOl":4598,"Ġepis":4599,"Six":4600,"UN":4601,"Ġscient":4602,"just":4603,"with":4604,"Ġbedroom":4605,"Ġintend":4606,"Ġfounded":4607,"Ġ2006":4608,"ĠLee":4609,"13":4610,"elebr":4611,"Ġplants":4612,"Ġtow":4613,"Ġhi":4614,"ĠPri":4615,"ĠChe":4616,"Ġsides":4617,"Ġmonster":4618,"ify":4619,"Ġsurr":4620,"rid":4621,"Ġgentleman":4622,"Ġswing":4623,"Ġorders":4624,"Ġmarry":4625,"itation":4626,"ĠFather":4627,"Ġstrugg":4628,"Ġacqu":4629,"ĠItaly":4630,"Ġaged":4631,"Ã¨":4632,"Ġnewsp":4633,"Ġcommunity":4634,"16":4635,"Ġheat":4636,"ĠDem":4637,"atives":4638,"Ġindepend":4639,"UR":4640,"ĠMichael":4641,"ĠArab":4642,"icated":4643,"ours":4644,"Ġdesp":4645,"Fl":4646,"Le":4647,"razil":4648,"arly":4649,"Ġbat":4650,"Cle":4651,"view":4652,"Ġ()":4653,"Ġshown":4654,"ulf":4655,"gent":4656,"Ġinqu":4657,"ule":4658,"Ġgall":4659,"Ġbrush":4660,"Ġpin":4661,"ĠChurch":4662,"Ġunc":4663,"Ġprepared":4664,"Ġevident":4665,"ENT":4666,"Mama":4667,"Act":4668,"Ġdeterm":4669,"Ġweight":4670,"ĠWashing":4671,"ittee":4672,"--\"":4673,"ĠBE":4674,"Ġmanaged":4675,"Ġtitle":4676,"osta":4677,"ero":4678,"Ġfemale":4679,"back":4680,"Ġlips":4681,"gypt":4682,"ordon":4683,"Ġfirm":4684,"rib":4685,"Ġclaim":4686,"athy":4687,"Fr":4688,"Ph":4689,"Ġsour":4690,"Ġstairs":4691,"ĠSch":4692,"Ġmor":4693,"using":4694,"Ġhello":4695,"Ġ50":4696,"Ġsmaller":4697,"Ad":4698,"ĠWashington":4699,"Ġfixed":4700,"Ġneither":4701,"Ġsilver":4702,"Ġprice":4703,"Ġamb":4704,"Ġversion":4705,"Aye":4706,"bel":4707,"ĠCarl":4708,"Ġmult":4709,"Ġremind":4710,"ipper":4711,"Ġharm":4712,"Ġworried":4713,"Ġloss":4714,"ishes":4715,"Ġtou":4716,"Ġscream":4717,"igs":4718,"ĠTheir":4719,"ĠJew":4720,"Ġspoken":4721,"arliam":4722,"ique":4723,"roat":4724,"Ġshoulder":4725,"Ġbother":4726,"ola":4727,"Ġlocated":4728,"Ġtrail":4729,"Ġsch":4730,"Ġenv":4731,"Ġjumped":4732,"berry":4733,"Sometimes":4734,"atin":4735,"Ġprim":4736,"Ġteach":4737,"Ġdirector":4738,"Ã³":4739,"ios":4740,"Ġcalm":4741,"Ġbloody":4742,"Pr":4743,"Ġdare":4744,"ata":4745,"cts":4746,"ples":4747,"ĠSim":4748,"Ġappl":4749,"Ġtim":4750,"den":4751,"pan":4752,"Ġfifteen":4753,"eteen":4754,"About":4755,"host":4756,"Ġremained":4757,"ĠIre":4758,"Ġeld":4759,"Ġsuggested":4760,"nce":4761,"Ġrate":4762,"eech":4763,"wing":4764,"WE":4765,"Ġrocks":4766,"Jack":4767,"ĠSunday":4768,"Ġrapid":4769,"Ġtraining":4770,"Ġeducation":4771,"arliament":4772,"ĠRo":4773,"Ġonto":4774,"ĠPeople":4775,"ĠAnge":4776,"ĠJo":4777,"ĠOkay":4778,"fly":4779,"Ġoccasion":4780,"ols":4781,"Ġblind":4782,"Ġappre":4783,"Ġimpossible":4784,"ĠIsland":4785,"Ġpurple":4786,"Ġpill":4787,"Ġcenter":4788,"rig":4789,"Ġforgotten":4790,"ression":4791,"Ġkinds":4792,"ourt":4793,"yr":4794,"asy":4795,"olic":4796,"Ġabsolutely":4797,"ĠStreet":4798,"lected":4799,"ĠEvery":4800,"ĠSummer":4801,"ĠGreen":4802,"Ġcases":4803,"ĠDist":4804,"ĠÃ":4805,"known":4806,"Ġprovince":4807,"Ġshouted":4808,"ĠBrazil":4809,"Ġdownstairs":4810,"Ġbowl":4811,"Ġweak":4812,"Ġgenerally":4813,"ĠAward":4814,"Sm":4815,"Ġemer":4816,"Ġopportunity":4817,"Ġdeb":4818,"Ġprincip":4819,"Poor":4820,"Ġtrade":4821,"Ġdancing":4822,"Ġrow":4823,"Ġaddress":4824,"Ġtells":4825,"Ġmovement":4826,"ĠGold":4827,"Ġplans":4828,"Cha":4829,"Ġindivid":4830,"Ġnormal":4831,"Ġconversation":4832,"west":4833,"Ġkitty":4834,"Bet":4835,"Sir":4836,"Ġbatter":4837,"Cause":4838,"Ġpool":4839,"Ġeverywhere":4840,"ĠBert":4841,"Ġoil":4842,"Ġancient":4843,"Ġhandle":4844,"Ġsurface":4845,"ĠAnn":4846,"Ġtun":4847,"Ġbutton":4848,"ĠLittle":4849,"aws":4850,"ĠAfrica":4851,"Ġelectric":4852,"Ġactress":4853,"Before":4854,"ĠRepublic":4855,"ĠIr":4856,"iron":4857,"Ġho":4858,"Ġavail":4859,"tering":4860,"ERE":4861,"Ġcousin":4862,"Ġenter":4863,"eff":4864,"Ma":4865,"Ġbits":4866,"onday":4867,"Everything":4868,"Ġgrave":4869,"Ġfashion":4870,"ĠDor":4871,"Ġvac":4872,"ĠOlympics":4873,"ĠEgypt":4874,"cles":4875,"Ġmedicine":4876,"illed":4877,"yes":4878,"aries":4879,"wr":4880,"ĠPal":4881,"Ġrules":4882,"aled":4883,"eping":4884,"ceeded":4885,"Ġevents":4886,"AK":4887,"Ġopin":4888,"iana":4889,"Ġloves":4890,"Cos":4891,"Ġdread":4892,"Ġchanges":4893,"Ġcookie":4894,"Ġcelebr":4895,"Ġassoci":4896,"Ġfinding":4897,"Ġstayed":4898,"Ġcarrying":4899,"ĠBonnet":4900,"RO":4901,"Ġcred":4902,"ALL":4903,"iety":4904,"ari":4905,"Ġexec":4906,"ademy":4907,"Ġpractice":4908,"Ġtent":4909,"Ġnurse":4910,"Ġmut":4911,"urt":4912,"Ġliter":4913,"pet":4914,"itional":4915,"ims":4916,"Ġ190":4917,"Ġpir":4918,"ĠChinese":4919,"Ġbunny":4920,"Back":4921,"rem":4922,"Ġfourth":4923,"ĠScot":4924,"Ġrelationship":4925,"Uhuh":4926,"Ġleading":4927,"Ġcentre":4928,"sych":4929,"nic":4930,"Ġperm":4931,"amn":4932,"Ġships":4933,"Ġclimb":4934,"Ġpercent":4935,"Ġbrothers":4936,"Move":4937,"icked":4938,"ores":4939,"Ġwedd":4940,"Ġrisk":4941,"Ġoffered":4942,"isa":4943,"Ġder":4944,"ooth":4945,"Ġnovel":4946,"Ġourselves":4947,"Ġinvestig":4948,"Ġprevent":4949,"Ġcalls":4950,"rees":4951,"ĠDep":4952,"Ġsaf":4953,"Su":4954,"orks":4955,"ĠMount":4956,"Ġox":4957,"Ġmel":4958,"Ġboss":4959,"ĠDid":4960,"Ġheaven":4961,"illiant":4962,"Ġcott":4963,"oms":4964,"Ġsake":4965,"ĠKore":4966,"Ġrope":4967,"ĠMost":4968,"aly":4969,"ĠNed":4970,"Ġtongue":4971,"Ġcards":4972,"Ġninety":4973,"Ġcontract":4974,"Ġaccording":4975,"gen":4976,"Ġrout":4977,"Ġmountains":4978,"âĢĿ.":4979,"Ġmagaz":4980,"Ġsmiled":4981,"ocrat":4982,"worth":4983,"Ġbal":4984,"Ġcouncil":4985,"Ġappearance":4986,"ii":4987,"Ġeleven":4988,"Ġboats":4989,"ching":4990,"ĠSwed":4991,"âĮī.":4992,"Ġfaces":4993,"Ġslide":4994,"oos":4995,"Ġdoin":4996,"nal":4997,"Ġalt":4998,"Ġwalls":4999,"Ġcrime":5000,"Ġaver":5001,"Ġstudio":5002,"Ġsuspect":5003,"ĠDoctor":5004,"icy":5005,"Ġreck":5006,"arently":5007,"istic":5008,"Ġshowing":5009,"irgin":5010,"ker":5011,"Ġresc":5012,"Once":5013,"lyn":5014,"Ġcondition":5015,"App":5016,"Ġcomed":5017,"Ġobviously":5018,"Ġeasier":5019,"Ġdecision":5020,"Ġshook":5021,"Ġpuzzle":5022,"Ġpurs":5023,"erc":5024,"Ġtoast":5025,"actor":5026,"ache":5027,"mend":5028,"hire":5029,"orough":5030,"ĠSpain":5031,"Ġretired":5032,"ups":5033,"Ġwheels":5034,"Ġ2000":5035,"Ġhonor":5036,"mn":5037,"Grand":5038,"Ġshell":5039,"Ġdoors":5040,"Going":5041,"cellent":5042,"Ġcy":5043,"useum":5044,"oking":5045,"ĠNat":5046,"oseph":5047,"Ġfrightened":5048,"ented":5049,"Ġhistor":5050,"Ġrights":5051,"gress":5052,"Ġsuccessful":5053,"Ġpants":5054,"Ġnarrow":5055,"ĠPrince":5056,"IF":5057,"Ġmarriage":5058,"Ġsixty":5059,"Ġextreme":5060,"hab":5061,"rans":5062,"there":5063,"Ġupset":5064,"Ġdoc":5065,"Ġdim":5066,"lig":5067,"Ġofficial":5068,"Ġstyle":5069,"Ġaffect":5070,"Ġcities":5071,"Ġfavour":5072,"Ġstudents":5073,"Char":5074,"rance":5075,"ini":5076,"ĠBessie":5077,"Ġeaten":5078,"Next":5079,"ongress":5080,"Ġflo":5081,"Ġbeauty":5082,"box":5083,"ĠHel":5084,"Ġexcuse":5085,"Ġideas":5086,"Ġyounger":5087,"Too":5088,"outs":5089,"note":5090,"Ġknee":5091,"ĠTwo":5092,"Ġsilence":5093,"inist":5094,"Ġscrew":5095,"Ġevil":5096,"Ġ2005":5097,"ĠSaturday":5098,"Ġanxious":5099,"Ġwilling":5100,"Ġcontact":5101,"Ġaward":5102,"ĠFranc":5103,"ĠMont":5104,"Ġrange":5105,"Ġexplained":5106,"Con":5107,"ogether":5108,"ĠMaggie":5109,"Nobody":5110,"ĠEr":5111,"Ġincluded":5112,"Ġshake":5113,"ota":5114,"ION":5115,"Ġhelping":5116,"Ġdetect":5117,"ials":5118,"semb":5119,"abeth":5120,"ĠRock":5121,"Ġvo":5122,"Ġsettled":5123,"alled":5124,"ĠProv":5125,"Green":5126,"fection":5127,"Eat":5128,"ounce":5129,"Ġbomb":5130,"ĠDay":5131,"Yup":5132,"Ġbump":5133,"ccording":5134,"Ġcomfortable":5135,"ĠMil":5136,"ĠTim":5137,"ĠJud":5138,"Ġflew":5139,"nding":5140,"Again":5141,"sing":5142,"Ġtar":5143,"ĠMac":5144,"Ġflight":5145,"eta":5146,"Ġmentioned":5147,"Ġbin":5148,"ĠDutch":5149,"Ġsomewhat":5150,"bes":5151,"Stay":5152,"Ġtie":5153,"Ġreply":5154,"arily":5155,"Ġwan":5156,"ĠDel":5157,"ĠInternational":5158,"ĠMaster":5159,"Ġforced":5160,"Ġbiggest":5161,"Ġwaited":5162,"Ġnineteen":5163,"Ġcoach":5164,"Fuck":5165,"Ġpa":5166,"Ġwine":5167,"Ġmotion":5168,"lor":5169,"sequ":5170,"Ġschools":5171,"oline":5172,"ST":5173,"cely":5174,"rible":5175,"Ġneighbor":5176,"apt":5177,"Ġstudied":5178,"Ġwindows":5179,"Â¶":5180,"Ġ2004":5181,"ification":5182,"Ġdeveloped":5183,"VER":5184,"Ġblocks":5185,"Ġcircum":5186,"Ġdun":5187,"izing":5188,"Ġafterwards":5189,"Everybody":5190,"ulous":5191,"Ġdecide":5192,"Ġsuc":5193,"Ġgreatest":5194,"ethod":5195,"elled":5196,"ĠHenry":5197,"Ġbathroom":5198,"Ġwhispered":5199,"ĠMartin":5200,"Ġknowledge":5201,"ĠLady":5202,"Were":5203,"Ġfairly":5204,"Ġodd":5205,"Ġperfectly":5206,"aud":5207,"idding":5208,"ĠSl":5209,"Ġpoet":5210,"Ġbrief":5211,"Ġbringing":5212,"Ġmud":5213,"Ġspeech":5214,"pill":5215,"Ġchat":5216,"ĠRog":5217,"asty":5218,"Ġhighest":5219,"Ġpapers":5220,"llie":5221,"icles":5222,"ĠSea":5223,"âĮĭ.":5224,"pany":5225,"isions":5226,"Ġshel":5227,"Ġparticularly":5228,"Ġjudge":5229,"Ġ2001":5230,"odes":5231,"Ġcamera":5232,"ĠCO":5233,"ĠWil":5234,"othy":5235,"....":5236,"Ġsociety":5237,"stood":5238,"Ġwise":5239,"Ġtelephone":5240,"ĠWal":5241,"Ġopposite":5242,"Ġbare":5243,"Footnote":5244,"Nope":5245,"Ġsandwich":5246,"Ġsteal":5247,"Ġremarked":5248,"Ġmale":5249,"Ġmemory":5250,"onder":5251,"Ġprove":5252,"icans":5253,"ĠSal":5254,"Ġplayers":5255,"Ġbi":5256,"Ġpossibly":5257,"Ġuses":5258,"augh":5259,"En":5260,"Ġchi":5261,"ĠSmith":5262,"ĠChan":5263,"ĠLo":5264,"ctors":5265,"Ġmere":5266,"Ġwedding":5267,"Ġruns":5268,"Ġsafety":5269,"atory":5270,"Ġstir":5271,"Ġscience":5272,"Ġnomin":5273,"Ġdrinking":5274,"ĠKen":5275,"Ġmurd":5276,"ĠJesus":5277,"Ġmail":5278,"see":5279,"Ġlarger":5280,"Ġsilent":5281,"Ġbike":5282,"Ġzoo":5283,"tr":5284,"otion":5285,"Ġmodel":5286,"EC":5287,"Anything":5288,"Aren":5289,"Ġdisease":5290,"uf":5291,"Ġhook":5292,"Ġmate":5293,"ĠWind":5294,"ĠWin":5295,"Ġwriter":5296,"Ġpowerful":5297,"ockey":5298,"Ġproperly":5299,"Ġlawyer":5300,"Ġteams":5301,"Ġshopping":5302,"Ġescap":5303,"Ġriding":5304,"ipping":5305,"Ġmo":5306,"Ġknowing":5307,"fortun":5308,"Ġquietly":5309,"Ġsmiling":5310,"Shut":5311,"Ġdirectly":5312,"aches":5313,"uits":5314,"Ġchee":5315,"Ġeighty":5316,"boy":5317,"aterpill":5318,"Ġhurried":5319,"orida":5320,"Ġmanager":5321,"Ġdevelopment":5322,"IL":5323,"Ġthoughts":5324,"Ġtroub":5325,"Ġworst":5326,"Ġperforman":5327,"Love":5328,"ĠSun":5329,"ĠCat":5330,"ros":5331,"Ġballoon":5332,"vert":5333,"Ġ40":5334,"Ġsigned":5335,"gers":5336,"kend":5337,"adian":5338,"Ġune":5339,"Ġfund":5340,"asing":5341,"Ġcancer":5342,"ĠDuring":5343,"Ġvote":5344,"Ind":5345,"ĠArmy":5346,"ĠBay":5347,"Ġnursery":5348,"Ġarch":5349,"Ġ1990":5350,"ictor":5351,"Ġmission":5352,"inda":5353,"Ġgrab":5354,"ingu":5355,"Ġstates":5356,"ĠMo":5357,"ilies":5358,"ĠFirst":5359,"rael":5360,"Ġcit":5361,"Ġafford":5362,"Ġstro":5363,"morrow":5364,"Ġdefinitely":5365,"Ġbisc":5366,"Ġfurn":5367,"Show":5368,"bre":5369,"icago":5370,"Ġservices":5371,"IGHT":5372,"rick":5373,"Ġneat":5374,"Ġrepeated":5375,"aning":5376,"ĠEmp":5377,"Ġtext":5378,"Ġpor":5379,"_.":5380,"Ġpeas":5381,"Ġresearch":5382,"Ġpizza":5383,"Ġboots":5384,"Ġduh":5385,"cream":5386,"ĠMel":5387,"Ġign":5388,"Ġbod":5389,"Ġgentlemen":5390,"Ġappreci":5391,"Fine":5392,"Since":5393,"Ġwa":5394,"Ġintell":5395,"ĠIS":5396,"opher":5397,"Ġcontinue":5398,"Ġpump":5399,"Ġmicro":5400,"Ġgay":5401,"ste":5402,"Ġbutt":5403,"Ġelected":5404,"Ġnap":5405,"isher":5406,"ulty":5407,"Ġwha":5408,"Ġburst":5409,"Ġshock":5410,"duced":5411,"ĠLaw":5412,"Ġfought":5413,"Ġkeeps":5414,"Ġnic":5415,"Ġweird":5416,"Actually":5417,"mark":5418,"itan":5419,"Pre":5420,"Ġavailable":5421,"asp":5422,"Ġremembered":5423,"ĠGO":5424,"Ġpour":5425,"uments":5426,"Ġrealize":5427,"Ġthrown":5428,"Ġchest":5429,"Ġbark":5430,"Ġprint":5431,"atoes":5432,"ĠAnne":5433,"Ġfired":5434,"ansas":5435,"Doesn":5436,"ĠME":5437,"Ġconcerned":5438,"oned":5439,"year":5440,"Ġdisappeared":5441,"AP":5442,"Ġsposta":5443,"Ġhanging":5444,"Ġcute":5445,"Ġlatter":5446,"Ġmatters":5447,"Ġsalt":5448,"amps":5449,"has":5450,"ands":5451,"Ġcastle":5452,"Ġwave":5453,"ĠBoy":5454,"Ġsoldier":5455,"Ġwished":5456,"Ġrelated":5457,"Ġinvent":5458,"ĠMic":5459,"Ġwings":5460,"Ġdebut":5461,"Ġserve":5462,"ĠLake":5463,"aign":5464,"Ġinternational":5465,"Ġtid":5466,"ann":5467,"bey":5468,"Ġfence":5469,"Ġwaste":5470,"Ġfancy":5471,"chief":5472,"fall":5473,"itar":5474,"Ġpushed":5475,"Ġhearing":5476,"ube":5477,"Ġ189":5478,"izabeth":5479,"Ġcorrect":5480,"Ġvalue":5481,"ona":5482,"ĠMat":5483,"ĠAcademy":5484,"Ġprefer":5485,"Ġpassing":5486,"ĠJer":5487,"ĠRome":5488,"thur":5489,"ironment":5490,"Ġkinda":5491,"Ġpra":5492,"Ġopinion":5493,"Ġstarts":5494,"ĠDes":5495,"Ġfarmer":5496,"Ġdolly":5497,"Ġpressure":5498,"place":5499,"Ġmetal":5500,"ĠFort":5501,"Ġpred":5502,"ĠCharlie":5503,"Ġknocked":5504,"ĠAh":5505,"Ġlanguages":5506,"cing":5507,"Ġwondering":5508,"Ġgoal":5509,"Ġsen":5510,"Ġturns":5511,"Ġwashing":5512,"Ġrom":5513,"iano":5514,"Ġfeelings":5515,"Ġthin":5516,"Ġrare":5517,"inting":5518,"Ġhorn":5519,"Ġgreater":5520,"El":5521,"ĠChief":5522,"etch":5523,"ĠIndians":5524,"iliar":5525,"Ġbeast":5526,"Ġpsych":5527,"ĠMom":5528,"ussy":5529,"sec":5530,"peror":5531,"itzer":5532,"Ġfeels":5533,"Ġnative":5534,"Ġreve":5535,"Ġforces":5536,"Ġpurdie":5537,"imate":5538,"cky":5539,"Ġproperty":5540,"199":5541,"Ġfailed":5542,"obile":5543,"Ġdozen":5544,"ban":5545,"ga":5546,"ishment":5547,"ias":5548,"Ġtied":5549,"Ġdism":5550,"Ġmile":5551,"aming":5552,"YOU":5553,"Ġcats":5554,"ological":5555,"Ġ1980":5556,"Ġaverage":5557,"ĠSov":5558,"Ġaware":5559,"Ġtroops":5560,"Ġadvant":5561,"Ġben":5562,"ĠSus":5563,"ĠGreek":5564,"Ġseconds":5565,"Somebody":5566,"rant":5567,"Ġgat":5568,"Ġtoil":5569,"ĠMass":5570,"Ġqual":5571,"col":5572,"achel":5573,"Ġweekend":5574,"Ġglasses":5575,"Ġsite":5576,"Ġstaff":5577,"Ġdrove":5578,"ĠSomet":5579,"ients":5580,"ĠThank":5581,"Ġpresence":5582,"Ġsam":5583,"lend":5584,"ĠRoyal":5585,"RI":5586,"hib":5587,"Ġfully":5588,"Yellow":5589,"Ġpit":5590,"Ġ2003":5591,"rate":5592,"ĠSing":5593,"ĠWestern":5594,"pir":5595,"aus":5596,"Ġnerv":5597,"ĠTony":5598,"Sl":5599,"craft":5600,"Ġtummy":5601,"Ġarrange":5602,"yan":5603,"ĠEven":5604,"ĠAustralian":5605,"Ġcloser":5606,"Ġloose":5607,"Ġnorthern":5608,"Ġfriendly":5609,"ĠAct":5610,"plane":5611,"azed":5612,"ĠDO":5613,"ĠFOR":5614,"Ġpositive":5615,"aring":5616,"Cr":5617,"Ġreported":5618,"ĠTHAT":5619,"ĠMarg":5620,"ropical":5621,"Ġmaterial":5622,"New":5623,"Ġotherwise":5624,"Ġtheory":5625,"ĠRose":5626,"Ġpatient":5627,"Ġplat":5628,"While":5629,"Ġwhist":5630,"ĠRussia":5631,"tt":5632,"Ġrank":5633,"Ġtouched":5634,"Ġdetermined":5635,"Ġjoke":5636,"Ġfoc":5637,"Ġarg":5638,"reedom":5639,"was":5640,"ĠJones":5641,"Ġacting":5642,"Ġfrequ":5643,"Ġdying":5644,"acher":5645,"ilities":5646,"ĠOther":5647,"Ġdistribut":5648,"ĠDistrict":5649,"Ġrelease":5650,"avy":5651,"tained":5652,"Ġexpens":5653,"bow":5654,"uzz":5655,"Ġtravell":5656,"Ġtip":5657,"Ġburied":5658,"Cap":5659,"Ġsink":5660,"Ġwitness":5661,"uan":5662,"BC":5663,"Ġcentral":5664,"dad":5665,"icate":5666,"ĠIsrael":5667,"ĠCollege":5668,"Ġartist":5669,"Ġentirely":5670,"Ġ2002":5671,"Ġfishing":5672,"ĠMax":5673,"Ġ188":5674,"hi":5675,"Ġconfir":5676,"Ġtypes":5677,"Ġmethod":5678,"vy":5679,"Ġveget":5680,"CK":5681,"Ġrib":5682,"iller":5683,"Ġdescribed":5684,"bury":5685,"Ġdrawn":5686,"Ġfond":5687,"ĠChicago":5688,"Ġinstant":5689,"Ġhen":5690,"esty":5691,"Ġrealized":5692,"sed":5693,"Ġdamn":5694,"Te":5695,"Ġfart":5696,"Ġincludes":5697,"Ġballs":5698,"this":5699,"Today":5700,"Ġgather":5701,"Ġbecoming":5702,"Ġphil":5703,"Ġqueen":5704,"ibility":5705,"âĮĪ":5706,"Ġforever":5707,"ĠLook":5708,"ked":5709,"ocratic":5710,"Ġwid":5711,"ĠIreland":5712,"sters":5713,"Ġuniversity":5714,"ĠMexico":5715,"ram":5716,"Ġbrilliant":5717,"Ġsees":5718,"igned":5719,"Ġestabl":5720,"Ġthroat":5721,"Ġeffort":5722,"Ġdesert":5723,"Ġexerc":5724,"ĠRes":5725,"Ġ186":5726,"Ġsav":5727,"Ġocean":5728,"quar":5729,"Ġdarkness":5730,"Ġyard":5731,"Most":5732,"Ġlibr":5733,"ĠPak":5734,"Ġfan":5735,"Ġcooking":5736,"Anyway":5737,"Ġ0":5738,"ware":5739,"OME":5740,"Ġfaster":5741,"Ġcrash":5742,".]":5743,"bits":5744,"Ġstones":5745,"gency":5746,"ading":5747,"cel":5748,"Gl":5749,"ĠSecret":5750,"ĠMur":5751,"ĠMajor":5752,"ĠPrime":5753,"ĠBecause":5754,"bly":5755,"down":5756,"Ġdamage":5757,"ĠFriday":5758,"Ġreb":5759,"Ġsports":5760,"eh":5761,"ĠAtl":5762,"Stand":5763,"Ġobserved":5764,"Ġmaid":5765,"Ġminister":5766,"Ġghost":5767,"Ġfamilies":5768,"Ġsoup":5769,"Ġbunch":5770,"Ġmixed":5771,"ĠFin":5772,"aging":5773,"Ġcloth":5774,"ila":5775,"Ġdump":5776,"ability":5777,"win":5778,"ĠCath":5779,"Ġfolks":5780,"Ġsport":5781,"stances":5782,"Ġexcit":5783,"Ġgift":5784,"Ġgathered":5785,"Ġstaying":5786,"',":5787,"Ġkm":5788,"eel":5789,"ĠAfrican":5790,"Ġexpression":5791,"Ġdegree":5792,"IE":5793,"Ġstranger":5794,"Ġfamiliar":5795,"eted":5796,"ential":5797,"ieutenant":5798,"isco":5799,"ĠGovernor":5800,"Ġwore":5801,"orse":5802,"Â°":5803,"Ġplanet":5804,"ĠRec":5805,".âĢĻ":5806,"Ġcraw":5807,"Ġsignal":5808,"acks":5809,"Ġgiant":5810,"ĠArt":5811,"Ġshooting":5812,"ulations":5813,"put":5814,"Ġadult":5815,"Ġtend":5816,"Ġprepar":5817,"Ġstring":5818,"Ġepisode":5819,"Ġsouthern":5820,"Ġnest":5821,"Ġthrowing":5822,"Ġpencil":5823,"ĠSoviet":5824,"Ġhunt":5825,"Ġscreen":5826,"Still":5827,"Ġcampaign":5828,"ĠPet":5829,"ĠCanadian":5830,"Ġmamma":5831,"Ġadvice":5832,"ĠAlice":5833,"Ġcompanion":5834,"aterpillar":5835,"Ġentertain":5836,"Ġpolicy":5837,"vin":5838,"enced":5839,"III":5840,"iece":5841,"esides":5842,"Mine":5843,"Ġsocks":5844,"Ġcarriage":5845,"Bo":5846,"Ġyards":5847,"Ġrespond":5848,"Ġvent":5849,"Ġcris":5850,"ĠCentral":5851,"Eleanor":5852,"war":5853,"ĠThomas":5854,"\"'":5855,"Ġta":5856,"Ġforms":5857,"Ġsecurity":5858,"ĠLab":5859,"Ġperform":5860,"Ġpointed":5861,"Ġjohn":5862,"ĠIrish":5863,"Ġast":5864,"ĠLos":5865,"book":5866,"Ġsusp":5867,"ension":5868,"Under":5869,"Ġknees":5870,"Ahhah":5871,"Ġdistur":5872,"Ġkeys":5873,"Carl":5874,"illing":5875,"Ġcrown":5876,"mo":5877,"Ġslept":5878,"Ã¤":5879,"osition":5880,"Ġdesper":5881,"Ġwestern":5882,"gs":5883,"NA":5884,"ested":5885,"Ġtractor":5886,"Ġdesire":5887,"Ġnewspaper":5888,"Ġfac":5889,"ima":5890,"ĠBart":5891,"ĠOs":5892,"Ġrang":5893,"Ġunderstood":5894,"Ġpic":5895,"Ġpaying":5896,"Ġshoulders":5897,"ĠVirgin":5898,"Ġcommunic":5899,"Ġcrim":5900,"Ġsore":5901,"ĠHaw":5902,"Ġpartner":5903,"Ġfairy":5904,"Ġclearly":5905,"Ġadminist":5906,"Ġinnoc":5907,"Ġreasons":5908,"Ġcourage":5909,"Ġhug":5910,"ĠâĮĬ":5911,"Ġlocked":5912,"bird":5913,"AU":5914,"Ġshame":5915,"Ġpros":5916,"Ġmatches":5917,"Ġlone":5918,"ez":5919,"Ġrise":5920,"Ġdestroyed":5921,"Col":5922,"Ġtoes":5923,"ĠSee":5924,"usic":5925,"Ġkilling":5926,"Ġsurely":5927,"Yay":5928,"Ġcray":5929,"hh":5930,"oma":5931,"Ġreceive":5932,"hess":5933,"Ġwondered":5934,"Ġlord":5935,"Ġhidden":5936,"ederal":5937,"Ġ1970":5938,"Ġtotally":5939,"ishop":5940,"Ġamazing":5941,"iverse":5942,"AG":5943,"Ġexcitement":5944,"Ġsword":5945,"Ġdiam":5946,"Ġbuildings":5947,"Happy":5948,"weet":5949,"Ġconstit":5950,"Ġveh":5951,"umn":5952,"Ġgray":5953,"Ġfier":5954,"Ġstom":5955,"rang":5956,"Ġcomment":5957,"iance":5958,"igan":5959,"Ġcurious":5960,"rough":5961,"Ġtough":5962,"alf":5963,"Ġrif":5964,"law":5965,"Ġowner":5966,"ĠEmpire":5967,"aining":5968,"otted":5969,"Ġissue":5970,"Mother":5971,"Ġuseful":5972,"OD":5973,"arn":5974,"Ġmeas":5975,"Ġspite":5976,"Ġtrains":5977,"Ġhorrible":5978,"Ġowned":5979,"âĢĶâĢĶ":5980,"Ġproved":5981,"Ġbitch":5982,"Ġwow":5983,"Ġmedical":5984,"Ġcurrently":5985,"Ġblanket":5986,"cod":5987,"ĠPen":5988,"Ġdere":5989,"Ġcutting":5990,"Boy":5991,"Ġforeign":5992,"Ġlistened":5993,"ault":5994,"friend":5995,"Ġstepped":5996,"Christ":5997,"ĠSaint":5998,"itzerland":5999,"via":6000,"Ġfox":6001,"ooper":6002,"fessor":6003,"Hurry":6004,"Ġlies":6005,"uesday":6006,"Ġcharacters":6007,"Ġadmir":6008,"ado":6009,"ĠSil":6010,"ucle":6011,"Ġrecorded":6012,"Ġwrest":6013,"za":6014,"ighs":6015,"ĠAmericans":6016,"ĠFlorida":6017,"Ġactive":6018,"Dis":6019,"ILL":6020,"Ġhonour":6021,"Ġstatistics":6022,"ella":6023,"Ġcarr":6024,"Early":6025,"ĠMore":6026,"aval":6027,"Ġmagn":6028,"Ġspider":6029,"Amer":6030,"Bring":6031,"ĠRay":6032,"Ġbarn":6033,"Ġcitiz":6034,"gly":6035,"uted":6036,"Ġsymb":6037,"ua":6038,"ĠJimmie":6039,"Ġmainly":6040,"Ġmagazine":6041,"Ġformula":6042,"Ġprisoners":6043,"lam":6044,"Ġ31":6045,"Ġinstr":6046,"Fraser":6047,"Ġestablished":6048,"Ġstreets":6049,"Ġ2023":6050,"Ġlifted":6051,"ĠRh":6052,"ĠVan":6053,"ĠVictor":6054,"Ġrecently":6055,"Someone":6056,"stead":6057,"Ġperformed":6058,"ĠGet":6059,"orter":6060,"ja":6061,"Ġcontr":6062,"Ġseparate":6063,"Ġjail":6064,"Ġleaf":6065,"Ġcopy":6066,"Ġtreasure":6067,"ĠWood":6068,"angle":6069,"Ġconfess":6070,"Ġcraft":6071,"ĠHill":6072,"Ġprogress":6073,"ĠScotland":6074,"Push":6075,"heast":6076,"Call":6077,"Ġsweetheart":6078,"Ġ--":6079,"Ġterror":6080,"Ġess":6081,"ĠHi":6082,"Ġprec":6083,"Ġscore":6084,"urance":6085,"oston":6086,"ĠBern":6087,"ĠCast":6088,"Ġburning":6089,"Ġencour":6090,"Ġwounded":6091,"Ġrush":6092,"ĠDen":6093,"Ġhorsie":6094,"ĠAngeles":6095,"ĠGar":6096,"Ġapparently":6097,"Ġcreature":6098,"ba":6099,"Ġinterview":6100,"neath":6101,"Ġcarl":6102,"mes":6103,"Ġinfluence":6104,"Ġlid":6105,"ursday":6106,"Ġlaws":6107,"Ġbranch":6108,"Ġmeasure":6109,"umper":6110,"Ġaccess":6111,"Ġstrike":6112,"Ġdivided":6113,"Haha":6114,"ĠSwitzerland":6115,"Ġholes":6116,"uns":6117,"Ġbodies":6118,"!'":6119,"ĠCont":6120,"25":6121,"Ġenvironment":6122,"Pull":6123,"Ġï¿½ï¿½ï¿½ï¿½":6124,"uries":6125,"Ġdata":6126,"donald":6127,"Ġweapons":6128,"ĠBig":6129,"osen":6130,"ĠSol":6131,"ocks":6132,"reck":6133,"Ġinit":6134,"Ġsole":6135,"Ġends":6136,"Ġenjoyed":6137,"Ġcompanies":6138,"Ġdrama":6139,"Ġcookies":6140,"Ġautom":6141,"Ġachie":6142,"arring":6143,"Ġpow":6144,"umble":6145,"Ġhandsome":6146,"Ġqueer":6147,"Ġbreaking":6148,"Ġscarcely":6149,"Ġfold":6150,"Ġspr":6151,"Ġ1960":6152,"Ġamy":6153,"SE":6154,"Ten":6155,"Ġgently":6156,"Last":6157,"ĠHon":6158,"Ġbesides":6159,"Ġ(;":6160,"Ġsorts":6161,"Ġspo":6162,"vo":6163,"Ġliber":6164,"usted":6165,"Ġfigures":6166,"Probably":6167,"Ġhabit":6168,"Ġmort":6169,"omer":6170,"ĠTer":6171,"met":6172,"Ġclouds":6173,"Ġnervous":6174,"Ġblame":6175,"lle":6176,"ĠDiv":6177,"berries":6178,"eek":6179,"Ġsisters":6180,"Ġfeatures":6181,"Ġaside":6182,"Ġextend":6183,"Ġexcellent":6184,"Ġoblig":6185,"Ġpulling":6186,"Ġperformance":6187,"Ġgradu":6188,"ĠLatin":6189,"Ġinvited":6190,"Ġdreams":6191,"ano":6192,"ĠRoger":6193,"Ġhes":6194,"IV":6195,"Ġ1999":6196,"Ġjumping":6197,"Ġgolden":6198,"ANT":6199,"OL":6200,"Ġadop":6201,"Ġlanded":6202,"ĠZeal":6203,"while":6204,"UST":6205,"vis":6206,"Ġupper":6207,"Mon":6208,"Ġpale":6209,"Ġcredit":6210,"Ġrubb":6211,"ĠWhile":6212,"Ġcolour":6213,"Ġlearning":6214,"ĠDis":6215,"estival":6216,"Ġbeneath":6217,"Quick":6218,"\"?":6219,"enth":6220,"âĢķ":6221,"40":6222,"engers":6223,"Ġgreatly":6224,"Ġcompeted":6225,"Ġevidently":6226,"Ġtransl":6227,"ĠAN":6228,"ĠRev":6229,"Ġtender":6230,"Ġgarage":6231,"ati":6232,"Ġcreate":6233,"Ġcant":6234,"ication":6235,"Ġremoved":6236,"tin":6237,"Ġtask":6238,"Ġwaves":6239,"Ġhunting":6240,"Ġtank":6241,"ĠMos":6242,"gend":6243,"Ġfields":6244,"ĠPakistan":6245,"Ġinterrupt":6246,"ednes":6247,"Ġthroughout":6248,"Ġglance":6249,"ailed":6250,"Ġdu":6251,"retty":6252,"ilty":6253,"Black":6254,"Ġwipe":6255,"innie":6256,"Ġstudent":6257,"Ġadvantage":6258,"umed":6259,"Ġsplend":6260,"Ġfeather":6261,"Ġreview":6262,"erk":6263,"?'":6264,"Ġyo":6265,"Ġdoggie":6266,"ĠCarol":6267,"Ġpapa":6268,"looking":6269,"Eight":6270,"Ġpresently":6271,"Ġfrogs":6272,"Ġterrit":6273,"ĠZealand":6274,"ĠBritain":6275,"water":6276,"ousers":6277,"Ġtrial":6278,"Ġnation":6279,"Ġbags":6280,"Ġunus":6281,"Ġrestaur":6282,"Ġseventy":6283,"Ġresponsible":6284,"ednesday":6285,"Ġhills":6286,"Ġpatter":6287,"ĠHot":6288,"Ġinstru":6289,"Ġwashed":6290,"Ġdifficulty":6291,"CE":6292,"Ġcash":6293,"Ġgoat":6294,"Ġtowns":6295,"inned":6296,"anches":6297,"Ġnearer":6298,"ĠWomen":6299,"ĠFox":6300,"aze":6301,"Ġrear":6302,"Ġsomehow":6303,"Pop":6304,"pro":6305,"Ġtear":6306,"Ġawake":6307,"Ġequal":6308,"Ġdish":6309,"iation":6310,"Ġroy":6311,"ITH":6312,"ĠMet":6313,"Ġdesce":6314,"hand":6315,"ĠGra":6316,"Dear":6317,"Fin":6318,"eps":6319,"Ġexperien":6320,"Sam":6321,"nine":6322,"ĠBest":6323,"Ġours":6324,"Ġprevious":6325,"Pur":6326,"esh":6327,"ieve":6328,"Ġnormally":6329,"Ġsection":6330,"ĠParliament":6331,"aboo":6332,"inson":6333,"Ġplanning":6334,"Ġsaus":6335,"Ġarran":6336,"Ġ1996":6337,"Ball":6338,"Ġrooms":6339,"Ġexciting":6340,"Ġtarget":6341,"Dat":6342,"Ġborder":6343,"Ġmap":6344,"istry":6345,"Ġladder":6346,"Ġfortune":6347,"ĠSuper":6348,"ĠRight":6349,"Ġtreated":6350,"Ġresist":6351,"Ġfolk":6352,"elling":6353,"OP":6354,"Ġresults":6355,"Ġpond":6356,"which":6357,"Ġrapidly":6358,"23":6359,"ĠEle":6360,"ĠSqu":6361,"Ġdrunk":6362,"Ġ187":6363,"Ġleaders":6364,"Fire":6365,"Whatever":6366,"rif":6367,"Ġcru":6368,"Ġengaged":6369,"Ġrushed":6370,"Ġgrant":6371,"Ġcommun":6372,"Hmm":6373,"Ġ1992":6374,"Ġraise":6375,"ĠFa":6376,"Ġmerc":6377,"Ġhath":6378,"Ġreckon":6379,"Ġprize":6380,"yo":6381,"Hang":6382,"Ġlack":6383,"ĠJeff":6384,"rose":6385,"Ġproduction":6386,"Ġbecomes":6387,"ĠAssoci":6388,"ildren":6389,"During":6390,"Ġrent":6391,"Ġtransport":6392,"Ġsymp":6393,"mhm":6394,"Ġlosing":6395,"Ġalarm":6396,"Ġslipped":6397,"Ab":6398,"ĠGovernment":6399,"Ġreligion":6400,"Ġdeliver":6401,"Ġboxes":6402,"EW":6403,"Ġbon":6404,"Ġbones":6405,"Ġborrow":6406,"Ġfal":6407,"Ġpony":6408,"kee":6409,"Ġordinary":6410,"Ġlod":6411,"Ġsuffe":6412,"engu":6413,"eau":6414,"Ġ..":6415,"orence":6416,"Ġtrunk":6417,"Ġchannel":6418,"geant":6419,"ĠMars":6420,"fish":6421,"Ġbears":6422,"Ġneighbour":6423,"Ġsupply":6424,"Ġbone":6425,"ĠHind":6426,"Zzz":6427,"uman":6428,"ĠTw":6429,"Ġspecific":6430,"Ġindividual":6431,"ouri":6432,"La":6433,"Ġgir":6434,"ĠHol":6435,"Ġchairs":6436,"Ġ1998":6437,"alo":6438,"Ġjobs":6439,"Everyone":6440,"Ġmirror":6441,"ĠMike":6442,"ura":6443,"Ġprincess":6444,"Ġreplaced":6445,"Ġpalace":6446,"Ġvoices":6447,"Ġwire":6448,"Ġpupp":6449,"ĠYoung":6450,"sk":6451,"Ġsigns":6452,"Ġlibrary":6453,"Ġjam":6454,"ĠLike":6455,"Ġhomes":6456,"Ġsmooth":6457,"ĠCle":6458,"Ġswear":6459,"Ġtv":6460,"Ġbadly":6461,"Ġpity":6462,"Ġicecream":6463,"ses":6464,"ĠChair":6465,"ĠGe":6466,"Ġetc":6467,"stitute":6468,"bec":6469,"Ġmultip":6470,"Ġaim":6471,"ĠHE":6472,"ĠHave":6473,"ulated":6474,"Ġchim":6475,"ĠWE":6476,"Ġbreast":6477,"Ġrequired":6478,"Da":6479,"Ġbutterfly":6480,"Ġlonely":6481,"Ġcruel":6482,"Ġindustry":6483,"Gonna":6484,"ĠHu":6485,"Ġhasta":6486,"Ġintellig":6487,"ĠBoston":6488,"Ġmighty":6489,"Ġgang":6490,"Ġlit":6491,"Ġtoilet":6492,"Ġaccepted":6493,"eding":6494,"ĠBa":6495,"emon":6496,"Ã©e":6497,"Ġlads":6498,"Ġrelief":6499,"Ġtraffic":6500,"Ġspare":6501,"Ġhearts":6502,"LY":6503,"Ġ1995":6504,"ajesty":6505,"Ġreligious":6506,"ĠProvince":6507,"Ġindependent":6508,"ĠIll":6509,"umps":6510,"Ġoriginally":6511,"Ġkidding":6512,"ĠEve":6513,"Know":6514,"Ġwolf":6515,"Ġdesk":6516,"Ġcompetition":6517,"Ġunif":6518,"Ġairplane":6519,"ĠCatholic":6520,"acle":6521,"ĠSince":6522,"rows":6523,"Twenty":6524,"Sw":6525,"Ġaer":6526,"Ġdunno":6527,"isha":6528,"Ġcaterpillar":6529,"ĠCourt":6530,"ĠOx":6531,"Ġgrace":6532,"ĠFar":6533,"Ġwra":6534,"Ġnodd":6535,"Ġrode":6536,"Ġprisoner":6537,"Oo":6538,"Ġpean":6539,"thew":6540,"Father":6541,"Ġairport":6542,"Ġpuppy":6543,"Ġcoal":6544,"anche":6545,"Ġshower":6546,"Ġtooth":6547,"Ġgor":6548,"Ġbaseball":6549,"Ġaid":6550,"Ġsevere":6551,"icky":6552,"Ġchosen":6553,"Ġrefused":6554,"ĠArthur":6555,"Ġjacket":6556,"arian":6557,"Ġdemanded":6558,"ĠFore":6559,"Ġintroduced":6560,"Ġcircumstances":6561,"Ġattacked":6562,"ointment":6563,"Ġcandid":6564,"Ġwinning":6565,"Ġsteam":6566,"Ġexchan":6567,"Ġvictory":6568,"Ġlink":6569,"Ġ1994":6570,"ĠBefore":6571,"Ġcontent":6572,"Aah":6573,"sha":6574,"Ġthousands":6575,"Ġrecom":6576,"ĠJean":6577,"artment":6578,"Ġteaching":6579,"ĠServ":6580,"emies":6581,"Ġwand":6582,"Ġbranches":6583,"Ġrising":6584,"five":6585,"ani":6586,"ĠSyl":6587,"ancing":6588,"ception":6589,"Ġcaptured":6590,"Ġapolog":6591,"wa":6592,"Ġmerry":6593,"ateg":6594,"Ġguitar":6595,"Ġhurts":6596,"ador":6597,"ĠVal":6598,"Ġincident":6599,"ĠAllah":6600,"Ġapartment":6601,"ĠCamp":6602,"Many":6603,"erg":6604,"Ġdoggy":6605,"ĠTed":6606,"Ġrecognized":6607,"Ġsplit":6608,"Ġinvol":6609,"Ġstomach":6610,"Ġfaint":6611,"uild":6612,"Ġpure":6613,"Ġdecor":6614,"Ġcompanions":6615,"Ġintern":6616,"Ġuseta":6617,"mpion":6618,"Run":6619,"Ġinha":6620,"Ġintended":6621,"Ġcandy":6622,"Ġload":6623,"Ġhoping":6624,"Ben":6625,"Find":6626,"Ġmister":6627,"Ġhoped":6628,"Ġescaped":6629,"Ġanti":6630,"Ġmyst":6631,"Ġdawn":6632,"Ġyum":6633,"Ġash":6634,"Ġgreet":6635,"Ġthorough":6636,"Ġregret":6637,"enger":6638,"Ġsuffic":6639,"otte":6640,"ĠLove":6641,"shine":6642,"Ġyyy":6643,"Ġguilty":6644,"eral":6645,"Throw":6646,"Ġadmit":6647,"Ġshed":6648,"Ġcock":6649,"Ġunderneath":6650,"Ġpoison":6651,"Ġfifth":6652,"21":6653,"icket":6654,"icted":6655,"Ġgy":6656,"Ġrat":6657,"Ġslightly":6658,"Ġagre":6659,"ĠJoseph":6660,"ĠElizabeth":6661,"Ġprofessor":6662,"Ġweapon":6663,"onse":6664,"Ġconce":6665,"Ġprovided":6666,"Ġearnest":6667,"Ġpant":6668,"Ġtemperature":6669,"stein":6670,"Read":6671,"Ġgained":6672,"oli":6673,"ĠGames":6674,"Ã±":6675,"sembly":6676,"Wha":6677,"overy":6678,"lers":6679,"Ġtrousers":6680,"Ġsweetie":6681,"Ġtal":6682,"Ġjigs":6683,"Ġappointed":6684,"Ġcrossed":6685,"Ġfarther":6686,"Ġdomin":6687,"ĠLes":6688,"emic":6689,"rences":6690,"then":6691,"Ġsource":6692,"Ġbot":6693,"Ġchanging":6694,"Ġwaters":6695,"ois":6696,"itz":6697,"Ġdelay":6698,"Ġplanned":6699,"uous":6700,"Ġavoid":6701,"Ġparties":6702,"gery":6703,"Ġculture":6704,"Ġpresents":6705,"Ġ1997":6706,"Ġconditions":6707,"ĠClub":6708,"athan":6709,"Ġparticip":6710,"ĠGeorg":6711,"Ġexpensive":6712,"erves":6713,"Ġbeer":6714,"Ġcomedy":6715,"ĠBrad":6716,"ERS":6717,"Ġpilot":6718,"ĠGordon":6719,"Ġseriously":6720,"Ġclosely":6721,"Ġdoo":6722,"Ġeagerly":6723,"Ġugly":6724,"Ġwooden":6725,"Ġcomr":6726,"Ġrice":6727,"Ġsignific":6728,"Ġdesigned":6729,"ĠGil":6730,"Ġprovide":6731,"ĠSom":6732,"Ġactual":6733,"hus":6734,"Ġlorry":6735,"Ġdivision":6736,"Ġmoments":6737,"ĠEdward":6738,"Ġpicnic":6739,"Ġgrandfather":6740,"Ġadvance":6741,"Ġrolled":6742,"Ġsatisfied":6743,"isl":6744,"ĠVer":6745,"Ġdivor":6746,"aren":6747,"urd":6748,"Ġshadow":6749,"Better":6750,"Ġcows":6751,"Ġguest":6752,"Ġkissed":6753,"py":6754,"Ġlessons":6755,"Ġcave":6756,"Ġquality":6757,"Ġadventure":6758,"amin":6759,"ongrat":6760,"ĠNight":6761,"Ġpicking":6762,"Ġtale":6763,"irteen":6764,"elcome":6765,"Ġwoke":6766,"Ġcritic":6767,"ige":6768,"Ġbitter":6769,"Ġsetting":6770,"Ġpooh":6771,"Ġchuck":6772,"Ġdefend":6773,"aned":6774,"iser":6775,"ĠTown":6776,"Ġmusical":6777,"AB":6778,"urally":6779,"ĠDorothy":6780,"22":6781,"sell":6782,"Ġpassage":6783,"Ġpoliceman":6784,"umph":6785,"Ġapproach":6786,"Ġflash":6787,"Ġgrandmother":6788,"ĠAng":6789,"ĠFil":6790,"Ġsystems":6791,"ĠJerry":6792,"Ġceased":6793,"keep":6794,"Ġmechan":6795,"Ġrecords":6796,"ĠCongress":6797,"Ġbelief":6798,"Ġforgive":6799,"ĠDa":6800,"Ġpages":6801,"ava":6802,"ĠJimmy":6803,"Ġintrodu":6804,"Ġclimbed":6805,"Ġsquir":6806,"Ġsang":6807,"Ġincreased":6808,"60":6809,"Ġsons":6810,"ĠSarah":6811,"Seven":6812,"when":6813,"ĠGirl":6814,"Captain":6815,"Ġslave":6816,"Ġentrance":6817,"ĠUp":6818,"Ġwound":6819,"ĠAT":6820,"Ġconsequ":6821,"Ġsuppl":6822,"Ġbelongs":6823,"hetti":6824,"ĠOnly":6825,"Ġdrugs":6826,"ĠCons":6827,"agn":6828,"ootball":6829,"Ġconnected":6830,"Ġfant":6831,"Ġlegal":6832,"Time":6833,"icing":6834,"ubbles":6835,"Ġhadta":6836,"Ġrolling":6837,"David":6838,"bin":6839,"unior":6840,"Ġfalls":6841,"Ġvictim":6842,"kel":6843,"who":6844,"ĠApp":6845,"Ġfunction":6846,"Ġelder":6847,"AVE":6848,"utive":6849,"Ġselected":6850,"bles":6851,"Ġtruly":6852,"ĠMonday":6853,"ĠBO":6854,"Ġ1988":6855,"Ġlesson":6856,"Ġaston":6857,"Ġsoap":6858,"Ġgrate":6859,"Åį":6860,"ĠWay":6861,"ĠDar":6862,"Ġenemies":6863,"Ġphilos":6864,"Michael":6865,"Pick":6866,"Ġwealth":6867,"Ġwhenever":6868,"Ġowl":6869,"Ġpurse":6870,"Ġcounter":6871,"otes":6872,"Ġoccurred":6873,"Ġpussy":6874,"lim":6875,"ĠNorthern":6876,"Ġ1991":6877,"Ġlap":6878,"abr":6879,"Ġoldest":6880,"Ġmarks":6881,"Ġproduce":6882,"Ġincrease":6883,"Ġsuffered":6884,"ĠBell":6885,"rial":6886,"ĠWater":6887,"ĠStone":6888,"Ġauthority":6889,"uz":6890,"Ġstandard":6891,"ĠAny":6892,"Ġtransfer":6893,"ĠSk":6894,"Ġeventually":6895,"Ġcam":6896,"Shh":6897,"Ġrescue":6898,"ĠBas":6899,"Ġchop":6900,"Ġguide":6901,"Ġpotato":6902,"Ġwarning":6903,"Ġdiscover":6904,"Ġconcent":6905,"ĠSpr":6906,"Ġremains":6907,"Ġhousehold":6908,"Both":6909,"sm":6910,"Steven":6911,"ĠDemocratic":6912,"Ġroles":6913,"vest":6914,"Ġbeans":6915,"ĠHa":6916,"hamed":6917,"icken":6918,"Ġchain":6919,"Ġleague":6920,"umbled":6921,"ĠBarb":6922,"Ġbast":6923,"olk":6924,"ĠXX":6925,"Ġstructure":6926,"Ġcher":6927,"lfriend":6928,"Ġscen":6929,"gt":6930,"avis":6931,"Ġsooner":6932,"Ġjew":6933,"ĠRad":6934,"Ġappears":6935,"ourse":6936,"Ġsorrow":6937,"Ġcommander":6938,"Talk":6939,"Ġextremely":6940,"Ġsplendid":6941,"Ġroyal":6942,"Ġshining":6943,"ĠRod":6944,"Ġwagon":6945,"NOW":6946,"ĠRuth":6947,"Ġburned":6948,"Orange":6949,"Ġtin":6950,"Ġcommer":6951,"ĠSecretary":6952,"ĠHy":6953,"Ġchips":6954,"Ġaddition":6955,"writer":6956,"Mark":6957,"Ġmc":6958,"azz":6959,"Ġharder":6960,"ĠThree":6961,"ĠProfessor":6962,"iraffe":6963,"Ġaltogether":6964,"ĠCam":6965,"Ġstands":6966,"198":6967,"ĠHarr":6968,"Ġconqu":6969,"Ġsprang":6970,"ture":6971,"Ġpipe":6972,"Ġseated":6973,"ĠPre":6974,"iffe":6975,"Ġmedal":6976,"ervation":6977,"Ġfate":6978,"Ġliqu":6979,"ĠPers":6980,"Ġdrown":6981,"amma":6982,"inky":6983,"Ġspark":6984,"ĠStar":6985,"ĠKe":6986,"Ġkindly":6987,"Ġbac":6988,"stone":6989,"ĠAbout":6990,"Ġuns":6991,"Ġgovernor":6992,"Ġmedia":6993,"ami":6994,"ĠOut":6995,"Ġhighly":6996,"Frank":6997,"mi":6998,"Ġthirst":6999,"Ġhelps":7000,"Ġslip":7001,"Ġbent":7002,"Ġbricks":7003,"cies":7004,"ĠBru":7005,"okes":7006,"American":7007,"Ġproceed":7008,"Ġinhabit":7009,"ĠColonel":7010,"ĠAssociation":7011,"keys":7012,"Ġbanana":7013,"opter":7014,"ĠPeggy":7015,"Ġnucle":7016,"Ġsaving":7017,"ĠLong":7018,"aved":7019,"Ġtreatment":7020,"Ġcrocod":7021,"EP":7022,"Ġsending":7023,"Ġoperation":7024,"Ġfleet":7025,"Ge":7026,"Ġdelighted":7027,"Ġbay":7028,"Ġdiss":7029,"Ġpile":7030,"Ġracing":7031,"eaks":7032,"Helen":7033,"EF":7034,"eable":7035,"Ġcurtain":7036,"ĠBre":7037,"Ġheight":7038,"Ġvalley":7039,"Ġagent":7040,"umm":7041,"Joe":7042,"Ġshops":7043,"Ġpregn":7044,"alais":7045,"Chi":7046,"rier":7047,"Careful":7048,"orms":7049,"Ġdeer":7050,"Ġnoble":7051,"Ġselling":7052,"enly":7053,"ĠCorn":7054,"ĠTor":7055,"Ġseek":7056,"Ġcontroll":7057,"Ġ1993":7058,"Ġrecognize":7059,"Ġincl":7060,"ĠAwards":7061,"Ġnetwork":7062,"Ġgrey":7063,"kr":7064,"Ġmustn":7065,"Ġtunnel":7066,"iture":7067,"Ġfile":7068,"Ġcode":7069,"Ġnotes":7070,"Ġspect":7071,"Ġdelicious":7072,"Ġaffair":7073,"Bill":7074,"Whose":7075,"Ġpassengers":7076,"ĠRam":7077,"Ġeighteen":7078,"Ġspirits":7079,"ĠSometimes":7080,".)":7081,"Pol":7082,"Ġjelly":7083,"Peter":7084,"opl":7085,"Ġscratch":7086,"Ġhumans":7087,"ĠRoad":7088,",âĢĻ":7089,"Ġkingdom":7090,"Jim":7091,"Ġstern":7092,"Choo":7093,"Ġarrested":7094,"ĠSweden":7095,"Ġbuddy":7096,"Ġexplos":7097,"Ġcells":7098,"ĠWales":7099,"Kn":7100,"atre":7101,"oto":7102,"ĠAp":7103,"ĠLieutenant":7104,"ĠNether":7105,"Ġpoorly":7106,"Ġimprove":7107,"Ġinnocent":7108,"Ġdemon":7109,"Ġworn":7110,"Ġprof":7111,"org":7112,"Ġhyd":7113,"aghetti":7114,"Ġgotten":7115,"Ġdisplay":7116,"Ed":7117,"ties":7118,"ĠAustria":7119,"ĠCH":7120,"Ġmarked":7121,"mouth":7122,"Ġseats":7123,"ĠOver":7124,"Ġlamb":7125,"ĠPac":7126,"odd":7127,"ulance":7128,"ĠLand":7129,"Ġclown":7130,"nament":7131,"Ġrings":7132,"ĠTra":7133,"Ġjustice":7134,"Ġobey":7135,"Ġdiamond":7136,"Ġpiano":7137,"Ġdistant":7138,"Ġfireman":7139,"iar":7140,"awa":7141,"Ġfreedom":7142,"Ġflood":7143,"Ġeats":7144,"Ġjournal":7145,"quarters":7146,"Ġstole":7147,"Ġchose":7148,"Ġreact":7149,"issa":7150,"MAN":7151,"rank":7152,"Although":7153,"Ġaccompl":7154,"ennie":7155,"Ġeastern":7156,"Ġprince":7157,"ONE":7158,"Ġcircus":7159,"ĠTommy":7160,"ĠPerhaps":7161,"Ġdocument":7162,"ĠVirginia":7163,"Ġislands":7164,"Ġhaha":7165,"Ġpee":7166,"Ġannoy":7167,"erable":7168,"adium":7169,"ĠDun":7170,"ĠCompany":7171,"ito":7172,"Ġguests":7173,"Ġwhisper":7174,"Off":7175,"onia":7176,"Ġhammer":7177,"Ġdip":7178,"ensive":7179,"Ġpostman":7180,"Ġgoods":7181,"Ġpresented":7182,"Ġsixteen":7183,"Ġdriven":7184,"Ġarranged":7185,"ĠSpe":7186,"Ġapples":7187,"Ġ1989":7188,"ĠFour":7189,"Ġbrand":7190,"Ġsolid":7191,"Ġrequire":7192,"Ġspots":7193,".--":7194,"ko":7195,"non":7196,"Ġswift":7197,"Ġdetails":7198,"Ġunfortun":7199,"Ġwitch":7200,"Ġstatement":7201,"Ġscary":7202,"ĠFlorence":7203,"Ġfo":7204,"Their":7205,"ĠSand":7206,"ĠPenn":7207,"Ġpride":7208,"Ġrecording":7209,"Ãº":7210,"Ġprecious":7211,"aki":7212,"because":7213,"ĠThanks":7214,"Ġjigsaw":7215,"Ġcompos":7216,"Damn":7217,"VID":7218,"ĠHad":7219,"ĠRom":7220,"Ġrejo":7221,"ĠWAS":7222,"apped":7223,"Ġrailway":7224,"Ġwing":7225,"ĠWH":7226,"Ġridic":7227,"Ġappreciate":7228,"Ya":7229,"olt":7230,"Ġrelax":7231,"ĠPortug":7232,"aire":7233,"ooks":7234,"Ġtracks":7235,"Ġquit":7236,"eaking":7237,"apping":7238,"Ġcollection":7239,"ints":7240,"Ġsoftly":7241,"ĠHello":7242,"IST":7243,"Ġcheap":7244,"stra":7245,"Ġpigs":7246,"etts":7247,"hew":7248,"ĠPlay":7249,"LES":7250,"ji":7251,"Ġarmed":7252,"24":7253,"Lots":7254,"Ġunf":7255,"Ġrecent":7256,"Ġbuying":7257,"Ġpillow":7258,"icide":7259,"imp":7260,"Ġcanoe":7261,"Ġproducer":7262,"Ġfed":7263,"Ġ60":7264,"ealous":7265,"Ġtiss":7266,"Ġkil":7267,"ĠJackson":7268,"eorge":7269,"ĠNetherlands":7270,"Ġmole":7271,"ĠIran":7272,"Ġnights":7273,"Co":7274,"iven":7275,"Ġcomplex":7276,"Ġdaily":7277,"ĠAld":7278,"uy":7279,"Ġcaut":7280,"Ġpowers":7281,"ĠEach":7282,"Ġconfidence":7283,"ĠCommand":7284,"Ġpriest":7285,"Close":7286,"Ġseized":7287,"Ġhay":7288,"iped":7289,"Ġsexual":7290,"Ġutter":7291,"omed":7292,"Ġmyth":7293,"Ġslaves":7294,"Ġfourteen":7295,"ĠIII":7296,"Ġclimate":7297,"Whee":7298,"ĠMissouri":7299,"Ġproposed":7300,"onsense":7301,"amas":7302,"Ġsequ":7303,"Ġsounded":7304,"Ġissues":7305,"Ġchemical":7306,"Ġmr":7307,"Ġ1950":7308,"Ġcheeks":7309,"Ġunable":7310,"Ġhanded":7311,"Ġdishes":7312,"Ġpainted":7313,"ĠSanta":7314,"Ġbush":7315,"Ġincred":7316,"Ġresponse":7317,"Ġax":7318,"Ġgodd":7319,"Ġbold":7320,"\").":7321,"ĠHea":7322,"Ġbasically":7323,"Ġsuffer":7324,"ĠEv":7325,"ĠAsia":7326,"Ġhesit":7327,"Mil":7328,"ĠAnna":7329,"Ġlat":7330,"ĠLy":7331,"Ġsucceeded":7332,"ĠBull":7333,"Ġswitch":7334,"197":7335,"ĠĠĠĠĠĠĠĠĠĠĠĠĠĠĠĠĠĠĠĠĠĠĠĠĠĠĠĠĠĠĠĠ":7336,"Ġsurround":7337,"Night":7338,"ali":7339,"...\"":7340,"Ġoven":7341,"Ġsecure":7342,"Ġshouting":7343,"ĠIm":7344,"amily":7345,"Cut":7346,"zy":7347,"Ġrude":7348,"Ġplus":7349,"ivered":7350,"inois":7351,"ĠLife":7352,"ques":7353,"erous":7354,"Ġupside":7355,"oves":7356,"Ġteachers":7357,"ĠSel":7358,"Ġbushes":7359,"Pretty":7360,"Ġhappiness":7361,"ĠSa":7362,"rah":7363,"Ġputs":7364,"ĠKat":7365,"ĠMY":7366,"ĠLu":7367,"Ġgirlfriend":7368,"cest":7369,"ĠFre":7370,"Ġlegend":7371,"Ġeffects":7372,"ungle":7373,"Ġsteady":7374,"chair":7375,"Ġclimbing":7376,"Ġunusual":7377,"ĠPolly":7378,"Mad":7379,"bage":7380,"Ġmood":7381,"umes":7382,"Ġplastic":7383,"ĠOrd":7384,"Ġchase":7385,"Ġtorn":7386,"ĠBelg":7387,"Hot":7388,"Ġstiff":7389,"Ġability":7390,"Ġdisg":7391,"Ġadmitted":7392,"Ġfailure":7393,"ĠMajesty":7394,"ĠOff":7395,"otta":7396,"Ġscare":7397,"ĠWas":7398,"ĠNick":7399,"Ġcents":7400,"Ġowe":7401,"Ġsunshine":7402,"Ġphysical":7403,"Ġcolon":7404,"Ġsomethin":7405,"aman":7406,"Ġx":7407,"Ġnut":7408,"Ġvir":7409,"sex":7410,"Ġsticks":7411,"Ġorganization":7412,"Old":7413,"Ġmac":7414,"OUT":7415,"Ġnick":7416,"Ġsund":7417,"eannine":7418,"Ġdom":7419,"Ġmicrophone":7420,"venue":7421,"Ġservant":7422,"alm":7423,"Ġmyster":7424,"ĠUK":7425,"Ġpenny":7426,"Ġbelt":7427,"Ġmurm":7428,"cho":7429,"Water":7430,"ĠBad":7431,"Ġswall":7432,"Ġcreatures":7433,"olen":7434,"Ġchampionship":7435,"ĠFair":7436,"Ġcompleted":7437,"Ġstronger":7438,"Ġpotatoes":7439,"Ġsubs":7440,"ĠIllinois":7441,"Ġgain":7442,"Ġeleanor":7443,"Ġunit":7444,"Ġ1984":7445,"Ġadvanced":7446,"apers":7447,"Ġsquee":7448,"unting":7449,"ctic":7450,"ĠOk":7451,"ĠWalter":7452,"Ġcig":7453,"ĠKorea":7454,"Ġpadd":7455,"Ġsuck":7456,"Ġhundreds":7457,"ELL":7458,"apa":7459,"Ġlieutenant":7460,"Ġfrag":7461,"ocr":7462,"----\"":7463,"atively":7464,"Ġexercise":7465,"Ġbul":7466,"Ġbegins":7467,"Ġtyp":7468,"Ġprotection":7469,"Ġbatt":7470,"ĠDire":7471,"ĠRon":7472,"Ġticket":7473,"ĠJac":7474,"OH":7475,"IG":7476,"bell":7477,"iy":7478,"Ġbree":7479,"Ġpardon":7480,"ighed":7481,"Ġillustr":7482,"Ġoccupied":7483,"ĠBea":7484,"ĠBud":7485,"Ġpurcha":7486,"Ġducks":7487,"Ġquack":7488,"Ġsuffering":7489,"Ġrifle":7490,"stant":7491,"Ġanch":7492,"ĠEastern":7493,"Ġletting":7494,"However":7495,"Wr":7496,"una":7497,"Ġunknown":7498,"Ġconsult":7499,"Ġpushing":7500,"ulate":7501,"Ġpear":7502,"Ġpitch":7503,"Ġrag":7504,"ĠTri":7505,"ĠHim":7506,"Ġdolls":7507,"Ġcliff":7508,"Ġcommittee":7509,"Ġlately":7510,"ĠDuke":7511,"Bar":7512,"Ġinhabitants":7513,"Ġhut":7514,"ĠCross":7515,"Ġath":7516,"Ġresponsibility":7517,"Int":7518,"rr":7519,"ĠWall":7520,"ĠCenter":7521,"hemat":7522,"ĠJon":7523,"cia":7524,"unning":7525,"dney":7526,"opes":7527,"Byebye":7528,"oard":7529,"aria":7530,"Ġtickle":7531,"anks":7532,"Ġshelter":7533,"Em":7534,"Ġwreck":7535,"ĠBor":7536,"Ġproof":7537,"uddle":7538,"donalds":7539,"Calais":7540,"stance":7541,"izes":7542,"Ġslipp":7543,"ĠChris":7544,"Ġblew":7545,"iens":7546,"Ġthunder":7547,"Ġsentence":7548,"Ġsurrounded":7549,"Ġashamed":7550,"Ġaudience":7551,"Honey":7552,"27":7553,"Pat":7554,"Mmm":7555,"Ġbuttons":7556,"Ġspin":7557,"Ġsigh":7558,"Ġbrings":7559,"Ġschol":7560,"Mind":7561,"Ġrestaurant":7562,"Bro":7563,"Hon":7564,"Ġwicked":7565,"iring":7566,"ĠTre":7567,"Ġstruggle":7568,"Ġfork":7569,"arrass":7570,"ĠPhilipp":7571,"ĠChairman":7572,"Squ":7573,"Ġaltern":7574,"Ġpointing":7575,"irk":7576,"Ġcauses":7577,"Ġsettlement":7578,"Cat":7579,"fa":7580,"Ġdoctors":7581,"ĠMen":7582,"Ġexped":7583,"ĠFire":7584,"ĠĠĠ":7585,"Ġunion":7586,"Ġminor":7587,"Ġnodded":7588,"Ġcas":7589,"Ġlif":7590,"Ġtempt":7591,"Ġtoss":7592,"Ġboot":7593,"ĠKim":7594,"Ġ1987":7595,"Club":7596,"Ġdisappear":7597,"Ġemergency":7598,"Ġpermission":7599,"lock":7600,"lotte":7601,"Ġtub":7602,"Ġbackwards":7603,"Ġtrucks":7604,"Ġconclud":7605,"Ġinstance":7606,"ĠDepartment":7607,"RY":7608,"ĠAmy":7609,"elet":7610,"Whoo":7611,"Ġtrave":7612,"Ġphotograph":7613,"inging":7614,"Ġ185":7615,"Ġ1972":7616,"Ġinterp":7617,"Ġraining":7618,"ĠWilliams":7619,"Ġooh":7620,"ufact":7621,"Ġhers":7622,"ĠFootball":7623,"Had":7624,"ela":7625,"Ġfortun":7626,"Ġefforts":7627,"Ġnominated":7628,"ĠBet":7629,"ĠStep":7630,"Ġfinan":7631,"Ã¡n":7632,"Ġplates":7633,"aka":7634,"Ġexplan":7635,"Ġlic":7636,"Ġfever":7637,"Ġstudies":7638,"CT":7639,"anas":7640,"Ġexha":7641,"Ġlaura":7642,"aska":7643,"Ġflu":7644,"Ġ1986":7645,"Ġroute":7646,"ĠCarolina":7647,"Ġconfl":7648,"Ġjealous":7649,"Ġmarch":7650,"Ġpersons":7651,"Ouch":7652,"Ġreward":7653,"Ġfirstname":7654,"gging":7655,"ĠJulia":7656,"ĠSid":7657,"Ġdragon":7658,"Ġsafely":7659,"Ġlanding":7660,"Ġplatform":7661,"ylvan":7662,"Ġexhib":7663,"icking":7664,"Ġfinds":7665,"Ġroads":7666,"Ġnoisy":7667,"orted":7668,"ĠBus":7669,"Ġuncom":7670,"ntil":7671,"Ġinquired":7672,"Must":7673,"WH":7674,"emme":7675,"Ġbegun":7676,"Ask":7677,"Ġchallen":7678,"Ġfalse":7679,"car":7680,"rich":7681,"Ġrhy":7682,"Ġconsiderable":7683,"li":7684,"Ġtropical":7685,"ĠEst":7686,"had":7687,"iches":7688,"oln":7689,"Ġcontains":7690,"ĠOliver":7691,"inder":7692,"Ġequip":7693,"imme":7694,"achus":7695,"Ġproduct":7696,"Ġcage":7697,"ĠGree":7698,"Ġblowing":7699,"dle":7700,"ĠBomb":7701,"ĠKent":7702,"ĠLater":7703,"ĠCommittee":7704,"ĠSecond":7705,"ricane":7706,"Ġgoals":7707,"ĠSouthern":7708,"ĠOxford":7709,"uties":7710,"Ġsymbol":7711,"ĠFaith":7712,"pot":7713,"ĠPier":7714,"oir":7715,"Ġrug":7716,"Ġadvert":7717,"Jesus":7718,"Ġgods":7719,"Ġembarrass":7720,"ague":7721,"pected":7722,"uing":7723,"Need":7724,"Ġuniform":7725,"ridge":7726,"ĠNancy":7727,"Ġbeds":7728,"ĠColumb":7729,"Ġfoolish":7730,"ĠTurk":7731,"ications":7732,"uckles":7733,"RA":7734,"hall":7735,"asses":7736,"Aha":7737,"pers":7738,"Ġcouch":7739,"ĠRail":7740,"Ġsteel":7741,"Ġdollar":7742,"rels":7743,"Ġrequest":7744,"ĠBible":7745,"Ġreturning":7746,"Ġwarri":7747,"hetic":7748,"yard":7749,"Ġreality":7750,"Ġrepro":7751,"Ġpossession":7752,"KE":7753,"ĠAlf":7754,"Ġworkers":7755,"boat":7756,"Ġbalance":7757,"Ġcups":7758,"Ġvain":7759,"ĠKitty":7760,"Ġengines":7761,"ĠSenate":7762,"ĠCOVID":7763,"Ġyummy":7764,"ĠUnder":7765,"ĠGroup":7766,"ĠBoth":7767,"hants":7768,"Ġconscious":7769,"Ġ1981":7770,"Cook":7771,"unched":7772,"Ġarchite":7773,"Ġobliged":7774,"ĠStud":7775,"ĠWinter":7776,"zo":7777,"Ġvisited":7778,"Yum":7779,"Ġdea":7780,"uls":7781,"Ġchecked":7782,"ĠMusic":7783,"Ġaboard":7784,"Ġconduct":7785,"Ġambulance":7786,"ĠOur":7787,"Ġcarpet":7788,"atherine":7789,"Ġgrandpa":7790,"ologist":7791,"Ugh":7792,"tes":7793,"ĠPict":7794,"new":7795,"Ġresour":7796,"itcher":7797,"Ser":7798,"Ġdyn":7799,"ĠArk":7800,"cos":7801,"Ġlou":7802,"ĠEs":7803,"uced":7804,"ĠMaria":7805,"ĠAlexander":7806,"Ġdistributed":7807,"Paul":7808,"Ġheaded":7809,"Boo":7810,"Ġaye":7811,"ington":7812,"Ġquarters":7813,"geous":7814,"Ġenthus":7815,"Ġconfirmed":7816,"ĠTime":7817,"Ġvalu":7818,"Ġaffection":7819,"Ġneighborhood":7820,"Ġanger":7821,"Ġangel":7822,"ilst":7823,"Ġvast":7824,"ĠTake":7825,"Ġsleepy":7826,"Ġtraditional":7827,"ylvania":7828,"orious":7829,"ĠYear":7830,"achusetts":7831,"Ġmuseum":7832,"venge":7833,"Ġpressed":7834,"Ġquant":7835,"Ġpassion":7836,"than":7837,"iments":7838,"Ġapproached":7839,"Ġmerely":7840,"ĠIslam":7841,"eness":7842,"Ġgri":7843,"Ġflour":7844,"Ġbug":7845,"Ġcontribut":7846,"ĠPrincess":7847,"Ġcalcul":7848,"Ġinse":7849,"Ġancest":7850,"ĠAtlantic":7851,"ares":7852,"UM":7853,"Ġmoves":7854,"Ġcitizens":7855,"Ġbond":7856,"ucker":7857,"Ġvolume":7858,"aron":7859,"Ġrivers":7860,"Ġglanced":7861,"Career":7862,"FF":7863,"Ġelement":7864,"Ġsupported":7865,"Ġdreadful":7866,"Ġmystery":7867,"Ġacted":7868,"irts":7869,"Ġdescribe":7870,"Ġcottage":7871,"Ġkiller":7872,"28":7873,"Ok":7874,"Ġtools":7875,"ACK":7876,"Ġhockey":7877,"ammy":7878,"Ġ1976":7879,"Guess":7880,"Ġunits":7881,"Ġcord":7882,"ĠBang":7883,"ĠJewish":7884,"Ġpirate":7885,"bar":7886,"hara":7887,"Ġappeal":7888,"ddie":7889,"Ġmajority":7890,"Ġturtle":7891,"'...":7892,"Ġdies":7893,"ormed":7894,"Ġstopping":7895,"Ġhealthy":7896,"Ġridiculous":7897,"Ġlara":7898,"Ġ1979":7899,"Ġpersu":7900,"ho":7901,"ĠNic":7902,"Ġwithd":7903,"Ġtremb":7904,"lying":7905,"Ġshaking":7906,"ESS":7907,"Ġobjects":7908,"Ġnuts":7909,"Ġframe":7910,"incoln":7911,"two":7912,"Ġsche":7913,"ĠBra":7914,"ĠJr":7915,"ĠNever":7916,"Ġconnection":7917,"Ġtowel":7918,"ĠGal":7919,"Ġdrift":7920,"wide":7921,"Ġpup":7922,"26":7923,"Ġstolen":7924,"ĠWITH":7925,"long":7926,"Ġpengu":7927,"Ġdistinct":7928,"ĠMargaret":7929,"Mag":7930,"inces":7931,"phy":7932,"Nic":7933,"ĠMu":7934,"pton":7935,"ĠHoll":7936,"Ġtribe":7937,"Ġservants":7938,"Ġlocation":7939,"ĠHan":7940,"ught":7941,"will":7942,"Ġcough":7943,"Ġthirteen":7944,"ĠFord":7945,"Ġmistress":7946,"Ġprincipal":7947,"uals":7948,"heim":7949,"ĠCa":7950,"Ġaband":7951,"ertainly":7952,"Ġdepends":7953,"Welcome":7954,"Ġpoll":7955,"ĠTok":7956,"Ġelev":7957,"Ġinjured":7958,"Ġcakes":7959,"Exactly":7960,"Ġbasketball":7961,"35":7962,"ĠPan":7963,"mun":7964,"ndy":7965,"Ġgard":7966,"icopter":7967,"ĠSur":7968,"ĠTrans":7969,"ivity":7970,"ĠYet":7971,"Ġ1985":7972,"EST":7973,"45":7974,"obe":7975,"ĠConf":7976,"Ġopt":7977,"Ġtechnology":7978,"Ġcereal":7979,"Ġbuzz":7980,"Ġearned":7981,"uddenly":7982,"Ġbenefit":7983,"ĠStill":7984,"Ġpartly":7985,"Ġwishes":7986,"ieved":7987,"hmm":7988,"Ġreports":7989,"Ġboyfriend":7990,"Ġbullet":7991,"Ġsenior":7992,"Ġbuff":7993,"Ġtrap":7994,"Ġromantic":7995,"Ġhipp":7996,"ript":7997,"Ġchess":7998,"Ġidiot":7999,"Ġcommonly":8000,"Ġshark":8001,"Pres":8002,"SC":8003,"ĠSant":8004,"ĠRE":8005,"Ġboom":8006,"Ġamongst":8007,"Ġsales":8008,"ĠGeorgia":8009,"Ġsauce":8010,"Ġbudget":8011,"Ġpowder":8012,"ĠPacific":8013,"Ġholds":8014,"ropri":8015,"Ġsailor":8016,"Ġaffairs":8017,"unts":8018,"haw":8019,"Ġclasses":8020,"ĠTHIS":8021,"Ġclothing":8022,"estic":8023,"Ġpeek":8024,"ĠPhilip":8025,"ĠAnother":8026,"lessly":8027,"Ġbillion":8028,"Fif":8029,"Ġbubbles":8030,"eline":8031,"onscious":8032,"Bab":8033,"Ġdirt":8034,"Jump":8035,"ĠHung":8036,"umbling":8037,"Ġequipment":8038,"Jwww":8039,"utions":8040,"Ġrac":8041,"Ġmanufact":8042,"Ġscored":8043,"Ġarticle":8044,"music":8045,"upon":8046,"Ġpiggy":8047,"Ġfits":8048,"ĠDou":8049,"Ġpole":8050,"ĠAsian":8051,"Ġcosts":8052,"Ġgle":8053,"ament":8054,"ĠValley":8055,"Ġâľ":8056,"Ġstretched":8057,"ih":8058,"Ġseasons":8059,"Shit":8060,"Ġattended":8061,"Ġforb":8062,"Ġens":8063,"Ġdegrees":8064,"Phil":8065,"Ġnoted":8066,"hings":8067,"Ġcompared":8068,"Ġlaughter":8069,"Ġscra":8070,"Ġinches":8071,"also":8072,"ĠSusan":8073,"Life":8074,"ession":8075,"Ġgranddad":8076,"Ġactivity":8077,"Ġâľ¿":8078,"IA":8079,"Goodbye":8080,"Ġmummie":8081,"ĠDivision":8082,"Ġsin":8083,"iders":8084,"ĠArmen":8085,"ĠMartine":8086,"ĠSher":8087,"allas":8088,"ĠLib":8089,"Ġdisappointed":8090,"Ġcapture":8091,"ĠDisney":8092,"ĠAccording":8093,"Ġsoil":8094,"ĠUh":8095,"Ġlamp":8096,"Ġages":8097,"Ġexperiment":8098,"omi":8099,"ĠMid":8100,"aughters":8101,"ĠWindows":8102,"According":8103,"Ġren":8104,"Ġstable":8105,"Ġ1983":8106,"Ġdefeated":8107,"ifts":8108,"ĠAndrew":8109,"Ġdrum":8110,"Ġstroke":8111,"ĠMassachusetts":8112,"Jo":8113,"ĠCub":8114,"Peek":8115,"mony":8116,"ceived":8117,"Ġprompt":8118,"ĠNothing":8119,"GE":8120,"Ġbees":8121,"igger":8122,"Ġretire":8123,"ĠJohnson":8124,"rated":8125,"Ġbelly":8126,"aks":8127,"ĠHome":8128,"White":8129,"Ġclient":8130,"Ġattached":8131,"Ġimportance":8132,"Ġexpecting":8133,"ĠSE":8134,"Ġcovers":8135,"Ġtrained":8136,"Ġseas":8137,"Ġprob":8138,"--_":8139,"Ġunha":8140,"Ġhid":8141,"Drink":8142,"Ġsuspic":8143,"ĠMich":8144,"Ġcolored":8145,"Ġmanagement":8146,"Ġsheet":8147,"icycle":8148,"--------------------------------":8149,"nat":8150,"ĠTem":8151,"aling":8152,"ĠLucy":8153,"Ġterritory":8154,"Ġsought":8155,"Ġfrank":8156,"Ġteen":8157,"ĠInstitute":8158,"Ellie":8159,"Ġpron":8160,"ras":8161,"Ġgiraffe":8162,"Ġadam":8163,"ARD":8164,"Ġreferred":8165,"Sec":8166,"four":8167,"ĠAsh":8168,"Ġconfused":8169,"Ġapproaching":8170,"mate":8171,"Ġcrocodile":8172,"29":8173,"NO":8174,"Ġbeep":8175,"Ġrepresented":8176,"shire":8177,"Ġstores":8178,"Ġ35":8179,"mosp":8180,"Ġuniverse":8181,"ĠBrother":8182,"Ġawarded":8183,"inea":8184,"Ġanal":8185,"Ġgosh":8186,"Ġretreat":8187,"Sn":8188,"Ġheavily":8189,"ĠEmperor":8190,"Oop":8191,"Ġtalks":8192,"Ġfactory":8193,"Ġnearest":8194,"Ġresponded":8195,"wan":8196,"OULD":8197,"Ġward":8198,"Ġbord":8199,"alls":8200,"ĠMiddle":8201,"Ġspy":8202,"Ġkeen":8203,"keeper":8204,"ĠShar":8205,"ĠNaz":8206,"Ġalongside":8207,"Ġconcert":8208,"ICE":8209,"ĠPop":8210,"Ġseparated":8211,"Ġsatisfaction":8212,"Ġtab":8213,"ĠCra":8214,"Ġserving":8215,"Ġcupboard":8216,"Ġfurniture":8217,"Ġtidy":8218,"AUGH":8219,"Ġimage":8220,"Ġchew":8221,"Ġvessels":8222,"ĠIslands":8223,"Ġadventures":8224,"sylvania":8225,"ibly":8226,"Ġprogramme":8227,"THER":8228,"Des":8229,"Gra":8230,"ĠDet":8231,"Ġincome":8232,"Ġded":8233,"ĠClare":8234,"Ġconcl":8235,"Ġgrateful":8236,"37":8237,"ĠEll":8238,"Ġhorror":8239,"Ġillness":8240,"Ġ80":8241,"Ġtradition":8242,"olves":8243,"ropol":8244,"Ġumb":8245,"Ġauthorities":8246,"ĠSure":8247,"Ġaircraft":8248,"nis":8249,"Ġdull":8250,"Ġstations":8251,"resp":8252,"Ġscale":8253,"Ġross":8254,"Ġacid":8255,"Ġunderstanding":8256,"ĠHAVE":8257,"Ġvariety":8258,"ĠTeam":8259,"ĠHelen":8260,"alie":8261,"ĠKansas":8262,"Ġ1982":8263,"Ġpeanut":8264,"**":8265,"Ġnaturally":8266,"ĠDaddy":8267,"Ġbroadcast":8268,"Ġeconomic":8269,"TLE":8270,"Ġsalad":8271,"Ġringing":8272,"Ġdesperate":8273,"master":8274,"Ġpeter":8275,"Ġwebs":8276,"ĠFer":8277,"Ġgrapes":8278,"Uncle":8279,"ĠViet":8280,"Ġarrival":8281,"Ġspaghetti":8282,"Ġwrit":8283,"Ġlands":8284,"Ġna":8285,"Ġcompar":8286,"Ġsched":8287,"Ġsale":8288,"ĠPas":8289,"Ġbetray":8290,"ĠPrize":8291,"War":8292,"Ġcran":8293,"isse":8294,"lection":8295,"Mic":8296,"ĠOnce":8297,"Ġalp":8298,"ĠNord":8299,"Ġminds":8300,"Ġprayer":8301,"Ġaccompan":8302,"imum":8303,"Ġbrick":8304,"ika":8305,"bridge":8306,"Ġremaining":8307,"Ġhal":8308,"Ġinstit":8309,"rogen":8310,"Ġmagnet":8311,"some":8312,"asion":8313,"inkle":8314,"arts":8315,"ĠSylvia":8316,"Ġpregnant":8317,"Ġestate":8318,"ĠRepublican":8319,"Ġmurdered":8320,"Ġwinner":8321,"Ġcleaning":8322,"Ġrubbish":8323,"Ġbeating":8324,"ĠMuseum":8325,"Ġofficially":8326,"ĠSteve":8327,"coh":8328,"Ġcattle":8329,"usting":8330,"pent":8331,"Ġnicely":8332,"Ġconfident":8333,"porary":8334,"ĠAnton":8335,"Ġdumb":8336,"ports":8337,"Ġelectr":8338,"about":8339,"Ġbore":8340,"Ġvig":8341,"Ġbuilder":8342,"Number":8343,"Ġshy":8344,"Ġ1974":8345,"Bi":8346,"nold":8347,"Ġdada":8348,"Ġviolence":8349,"Ġstrawberry":8350,"Ġsolemn":8351,"Sweet":8352,"gment":8353,"hum":8354,"nda":8355,"ĠIllustr":8356,"Ġrod":8357,"Ġstamp":8358,"Ġimpl":8359,"ĠSydney":8360,"Ġbiscuits":8361,"ĠPL":8362,"Ġmoo":8363,"rily":8364,"ĠOcean":8365,"ĠYOUR":8366,"Amy":8367,"Nine":8368,"BO":8369,"owa":8370,"Ġstove":8371,"Ġexact":8372,"Ġelectron":8373,"ubby":8374,"foot":8375,"Ġsnap":8376,"Ġthoroughly":8377,"ĠDev":8378,"Ġconcer":8379,"inated":8380,"adel":8381,"agement":8382,"Ġwhistle":8383,"ĠService":8384,"Ġvoy":8385,"ĠMexican":8386,"Ġbom":8387,"Ġstated":8388,"Ġheadquarters":8389,"ĠGrace":8390,"Ġtissue":8391,"âĨ":8392,"Ġven":8393,"Ġfled":8394,"Ġseeds":8395,"ĠTa":8396,"ĠLiber":8397,"ĠAlthough":8398,"Ġere":8399,"mann":8400,"ĠGermans":8401,"Ġbasic":8402,"fire":8403,"Ġcricket":8404,"Ġdistingu":8405,"azy":8406,"Ġtroubles":8407,"attered":8408,"Beep":8409,"Ġ1978":8410,"Ġpolitics":8411,"ĠJersey":8412,"ĠAD":8413,"Ġerr":8414,"ĠFrancis":8415,"Ġachieve":8416,"Ġbelonged":8417,"Bea":8418,"round":8419,"Ġstarring":8420,"ĠMir":8421,"aph":8422,"agle":8423,"Ġsixth":8424,"Ġ1968":8425,"Ġauntie":8426,"Ġmast":8427,"ĠOlympic":8428,"have":8429,"Ġfasc":8430,"acious":8431,"urches":8432,"ĠList":8433,"Person":8434,"ĠArch":8435,"Ġcapable":8436,"arrot":8437,"Ġ90":8438,"Ġtournament":8439,"esc":8440,"Ġdrag":8441,"Ġrevolution":8442,"dog":8443,"cription":8444,"ĠPennsylvania":8445,"Ġpist":8446,"ĠSC":8447,"oked":8448,"Ġgrowth":8449,"ĠAustrian":8450,"Ġawww":8451,"Ġdefeat":8452,"orial":8453,"Ġassistant":8454,"zing":8455,"aylor":8456,"ooh":8457,"Ġrecommend":8458,"Ġmrs":8459,"ĠAndy":8460,"Ġgrandad":8461,"ĠGolden":8462,"ubble":8463,"ĠInter":8464,"Ġ1977":8465,"Ġanxiety":8466,"Ġscheme":8467,"lets":8468,"ĠLew":8469,"Ġextent":8470,"HL":8471,"rim":8472,"Ġprospect":8473,"Ġconflict":8474,"Ġrig":8475,"Ġdiscovery":8476,"enneth":8477,"Ġeth":8478,"Ġsurgery":8479,"196":8480,"works":8481,"ĠUkr":8482,"Alex":8483,"corn":8484,"imately":8485,"standing":8486,"Haven":8487,"Ġmathemat":8488,"Ġawait":8489,"ĠSpani":8490,"Ġcrab":8491,"Ġcommitted":8492,"Ġprimary":8493,"PE":8494,"Ġtries":8495,"Ġvirt":8496,"Ġdeeply":8497,"Ġfinancial":8498,"Ġresident":8499,"ĠArgent":8500,"Ġnatives":8501,"Ġsurvive":8502,"Ġvehicle":8503,"Ġsausage":8504,"Ġwag":8505,"Ġnana":8506,"Ġatmosp":8507,"Ġfeast":8508,"Ġchampion":8509,"intend":8510,"ĠBudd":8511,"eme":8512,"oving":8513,"Ġ1975":8514,"Mummie":8515,"Ġbucket":8516,"etic":8517,"ĠDave":8518,"ĠUN":8519,"iro":8520,"ĠPlease":8521,"Ġeconomy":8522,"Ġvaluable":8523,"Cor":8524,"ĠBear":8525,"Ġuseless":8526,"burgh":8527,"ophy":8528,"Ġartists":8529,"Ġbasis":8530,"Ġmcdonalds":8531,"Ġreign":8532,"ĠBeth":8533,"Ġpecul":8534,"Ġlimited":8535,"Check":8536,"Ġunex":8537,"Ġcou":8538,"Ġskill":8539,"ĠWilson":8540,"Ġloyal":8541,"Ġintense":8542,"Ġsquad":8543,"Ġ1969":8544,"Ġumbre":8545,"ĠFR":8546,"ifer":8547,"Ġportion":8548,"inity":8549,"ĠAle":8550,"ĠFe":8551,"Ġashore":8552,"Ġreaction":8553,"Ġgoodbye":8554,"Ġmax":8555,"Ġdavid":8556,"Ġwanting":8557,"Ġtremend":8558,"Ġsailed":8559,"Ġmidnight":8560,"Ġinnit":8561,"Ġvacation":8562,"Ġceremony":8563,"Its":8564,"Ġthrone":8565,"Dan":8566,"ĠHor":8567,"Start":8568,"Ġ1973":8569,"Ġbattery":8570,"ĠHoly":8571,"Ġnumerous":8572,"Ġpitcher":8573,"Ġchamber":8574,"Ġdrinks":8575,"Ġthirsty":8576,"Ġswept":8577,"Ġvisitors":8578,"adu":8579,"Ġsock":8580,"ĠGi":8581,"Ġfuneral":8582,"Ġwalks":8583,"verse":8584,"ĠBaby":8585,"ograp":8586,"Ġdelightful":8587,"ĠFrancisco":8588,"Ġdaughters":8589,"ĠBattle":8590,"agger":8591,"Ġbackground":8592,"Ġrocket":8593,"manda":8594,"Ġcarbon":8595,"Ġsym":8596,"ennis":8597,"iable":8598,"ĠNet":8599,"ublic":8600,"Ġbid":8601,"ĠSong":8602,"akin":8603,"egal":8604,"Bang":8605,"Ġlung":8606,"ĠNOT":8607,"ĠShow":8608,"Ġloving":8609,"Ġproducts":8610,"Ġmiserable":8611,"Nor":8612,"Won":8613,"Ġgal":8614,"ĠHal":8615,"ĠHard":8616,"Ġintention":8617,"Ġcharged":8618,"Ġcomposed":8619,"Ġinterrupted":8620,"Rob":8621,"ĠTele":8622,"Ġdepth":8623,"ĠSon":8624,"Ġinsurance":8625,"inced":8626,"ĠDonald":8627,"Ġcleared":8628,"pool":8629,"Ã´":8630,"Ġfigured":8631,"Gone":8632,"utation":8633,"Ġmunicipal":8634,"Ġexchange":8635,"80":8636,"Ġjar":8637,"issed":8638,"Ġdeserve":8639,"Ġstead":8640,"ĠBrazilian":8641,"Mart":8642,"wick":8643,"isk":8644,"ĠFC":8645,"47":8646,"inals":8647,"Ġgrat":8648,"ĠKar":8649,"Ġbastard":8650,"ĠBat":8651,"Ġregions":8652,"Ġpunishment":8653,"iner":8654,"olph":8655,"ĠHolly":8656,"Ġpartners":8657,"Ġrecovered":8658,"Ġchart":8659,"Ġgeneration":8660,"Bre":8661,"Bad":8662,"utiful":8663,"Ġdey":8664,"pless":8665,"ĠMichigan":8666,"Ġhired":8667,"Ġundert":8668,"Ġstrict":8669,"ART":8670,"ĠLoire":8671,"Ġtack":8672,"ĠHur":8673,"Ġlevels":8674,"BS":8675,"Ġregarded":8676,"Ġscientists":8677,"ocal":8678,"Ġlaunched":8679,"Ġlabor":8680,"Ġproceeded":8681,"Ġinstantly":8682,"Ġrum":8683,"ĠMabel":8684,"ĠLincoln":8685,"ĠKNOW":8686,"ebra":8687,"Ġdressing":8688,"ĠRepresent":8689,"AIN":8690,"otty":8691,"ements":8692,"ordan":8693,"Ġelements":8694,"Ġ1971":8695,"ĠBerlin":8696,"ario":8697,"Ġrust":8698,"Ġshortly":8699,"Ġchimney":8700,"imb":8701,"Ġfeared":8702,"Ġfollows":8703,"Ġscientific":8704,"Ġtide":8705,"urg":8706,"Ġmeters":8707,"Ġinsisted":8708,"Ġoo":8709,"Ġdiscip":8710,"Ġattacks":8711,"Ġprograms":8712,"Ġlob":8713,"Ġruled":8714,"Ġspending":8715,"Clever":8716,"Ġunhappy":8717,"ĠBall":8718,"ulture":8719,"Ġsteep":8720,"Ġ1930":8721,"Ġexplanation":8722,"ĠBow":8723,"Ġ(,":8724,"Ġjungle":8725,"Ġpolite":8726,"ĠScottish":8727,"Ġadopted":8728,"Ġcontest":8729,"Ġbearing":8730,"ĠMadame":8731,"Ġprepare":8732,"Ġbiscuit":8733,"Ġargument":8734,"Ice":8735,"Ġsailing":8736,"ongratulations":8737,"IES":8738,";\"":8739,"case":8740,"Ġtoe":8741,"ĠBook":8742,"bsolutely":8743,"Ġstared":8744,"ĠHay":8745,"Ġflow":8746,"Ġbanks":8747,"Ġlemon":8748,"Ġnort":8749,"Ġthumb":8750,"Ġ70":8751,"ĠMatt":8752,"ainted":8753,"Ġplot":8754,"elia":8755,"mod":8756,"Ġarose":8757,"ĠSocial":8758,"ĠSociety":8759,"Ġcooked":8760,"Ġstaring":8761,"Later":8762,"des":8763,"Ġcommission":8764,"Ġtemple":8765,"ĠOrder":8766,"cut":8767,"door":8768,"ĠAz":8769,"iev":8770,"ccer":8771,"Ġhopes":8772,"Ġthreatened":8773,"Ġelephants":8774,"Ġpirates":8775,"ĠLouise":8776,"ettle":8777,"ĠClark":8778,"Ġcanton":8779,"aints":8780,"annah":8781,"UCK":8782,"ubs":8783,"everal":8784,"Ġcriminal":8785,"Cow":8786,"Mary":8787,"TO":8788,"did":8789,"Ġvision":8790,"Ġflesh":8791,"uled":8792,"Ġassured":8793,"evin":8794,"Ġsufficient":8795,"olley":8796,"James":8797,"PS":8798,"Ġfare":8799,"Ġjolly":8800,"Ġsneak":8801,"Ġimpress":8802,"Coming":8803,"Ġinstrument":8804,"Aunt":8805,"inners":8806,"Ġwhale":8807,"ĠRecords":8808,"ĠMod":8809,"Silly":8810,"only":8811,"angar":8812,"Ġhated":8813,"Ġstudying":8814,"Duck":8815,"Jul":8816,"sname":8817,"Ġchances":8818,"Almost":8819,"Ġpatients":8820,"Ant":8821,"Ġ1964":8822,"Ġdign":8823,"Ġfires":8824,"ĠTell":8825,"Soon":8826,"Ġ45":8827,"Ġslee":8828,"Ġcheerful":8829,"gues":8830,"Ġconference":8831,"Ġestim":8832,"Ġfuel":8833,"elf":8834,"Ġcommit":8835,"Ġenjoying":8836,"theless":8837,"adesh":8838,"rifice":8839,"ushes":8840,"Ġcotton":8841,"Ġdetective":8842,"Ġfeathers":8843,"otal":8844,"ygen":8845,"ĠClass":8846,"Ġnuclear":8847,"wers":8848,"Ġfederal":8849,"Ġvillages":8850,"Ġconvinced":8851,"Ġmental":8852,"Ġdried":8853,"Ġnowhere":8854,"Doctor":8855,"ĠMarie":8856,"omy":8857,"unn":8858,"Ġwherever":8859,"cript":8860,"Ġconstant":8861,"Ġkicked":8862,"cat":8863,"Ġdwell":8864,"Ġwhilst":8865,"olver":8866,"Ġviolent":8867,"Ġweb":8868,"Ġstout":8869,"abbit":8870,"ĠNap":8871,"Ã³n":8872,"Pink":8873,"pher":8874,"Ġdining":8875,"asped":8876,"ĠBC":8877,"Ġcrept":8878,"Ġpacked":8879,"Ġfierce":8880,"Mat":8881,"ĠSH":8882,"ĠAS":8883,"Ġagreement":8884,"ĠJam":8885,"arson":8886,"Ġsticking":8887,"Ġfilms":8888,"Ġdevil":8889,"Ġnearby":8890,"ĠPoland":8891,"ĠLabour":8892,"ĠAss":8893,"Ġshots":8894,"Ġprime":8895,"iently":8896,"Ġdough":8897,"Ġlt":8898,"Ġshared":8899,"Ġsumm":8900,"Ġtickets":8901,"Ġfocus":8902,"AH":8903,"Ġpoured":8904,"IND":8905,"ĠAlbert":8906,"Ġsteamer":8907,"uv":8908,"acity":8909,"why":8910,"Ġconstruction":8911,"ĠEllen":8912,"ova":8913,"ĠMinn":8914,"thony":8915,"pson":8916,"Ġprior":8917,"oused":8918,"Ġstops":8919,"Ġsavage":8920,"udge":8921,"Ġkindness":8922,"iscilla":8923,"abor":8924,"Ġhelicopter":8925,"Ġdistricts":8926,"iat":8927,"Ġreaching":8928,"ugs":8929,"Ġ1967":8930,"Ġloads":8931,"orne":8932,"Ġscript":8933,"Ġarrive":8934,"ĠWould":8935,"ĠHas":8936,"ĠAlso":8937,"Ġpropos":8938,"Ġpaused":8939,"Ġnasty":8940,"ĠThursday":8941,"ĠXV":8942,"Ġmercy":8943,"Ġexpedition":8944,"cus":8945,"Dog":8946,"ĠĠĠĠĠ":8947,"Tomorrow":8948,"Ġenorm":8949,"ĠProt":8950,"Ġlaunch":8951,"bag":8952,"Ġginger":8953,"ĠOw":8954,"Ġcheek":8955,"Ġanimated":8956,"Ġmultiple":8957,"Tick":8958,"Ġparish":8959,"Ġexistence":8960,"Apple":8961,"Moo":8962,"Ġalcoh":8963,"\"),":8964,"Cool":8965,"pre":8966,"ĠTam":8967,"ĠRem":8968,"Ġfriendship":8969,"Ã§":8970,"Ġbreathe":8971,"bors":8972,"Ġperman":8973,"Ġcharges":8974,"Ġactivities":8975,"itter":8976,"ĠAg":8977,"ĠAssembly":8978,"].":8979,"Ġthief":8980,"Ġbron":8981,"Dada":8982,"None":8983,"ippi":8984,"ĠLeon":8985,"Eng":8986,"ef":8987,"oster":8988,"ĠAli":8989,"ĠAdam":8990,"Ġexpressed":8991,"Ġcycl":8992,"Ay":8993,"Ro":8994,"Ġ/":8995,"Ġsne":8996,"anes":8997,"Ġdisag":8998,"angers":8999,"Ġalbums":9000,"sur":9001,"Ġsout":9002,"ĠCy":9003,"ĠRevolution":9004,"bi":9005,"real":9006,"Ġgre":9007,"ĠTuesday":9008,"Ġcatching":9009,"Sim":9010,"Ã¦":9011,"Ġanne":9012,"Ġshapes":9013,"Lady":9014,"INE":9015,"Ġhenry":9016,"ĠDavis":9017,"Super":9018,"Ġpattern":9019,"Sleep":9020,"mel":9021,"arant":9022,"Us":9023,"âĢľâĢĺ":9024,"Ġmadam":9025,"pol":9026,"ĠâĢĶ":9027,"Ġaspect":9028,"uno":9029,"ĠWhe":9030,"Ġnoon":9031,"obal":9032,"Ġsets":9033,"Ġmounted":9034,"urger":9035,"Ġbreathing":9036,"Ġhed":9037,"Ġopens":9038,"Ġimpression":9039,"stitution":9040,"Ġsarah":9041,"Ġmuff":9042,"Sarah":9043,"Bobby":9044,"Ġba":9045,"ĠSax":9046,"ĠTha":9047,"Ġattitude":9048,"Gotta":9049,"mates":9050,"Ġjeannine":9051,"Ġumbrella":9052,"Ġmayor":9053,"Ġsticky":9054,"bal":9055,"ieur":9056,"Ġlasted":9057,"force":9058,"chestra":9059,"aughs":9060,".=":9061,"Ġmars":9062,"Ġchurches":9063,"Ġengineer":9064,"iac":9065,"Ġshove":9066,"ĠGray":9067,"Ġdirections":9068,"Ġlimit":9069,"Ġaffected":9070,"armed":9071,"ĠBav":9072,"rive":9073,"ĠDam":9074,"ipes":9075,"Ġlawn":9076,"Ġwrapped":9077,"ds":9078,"from":9079,"ĠSay":9080,"inking":9081,"Ġopera":9082,"fficer":9083,"Ġing":9084,"Ġbend":9085,"ĠCur":9086,"unks":9087,"Ġclaimed":9088,"Ġdelivered":9089,"Ġemot":9090,"Ġgenus":9091,"ĠKorean":9092,"Ġseed":9093,"ĠTy":9094,"aste":9095,"ĠNi":9096,"ysis":9097,"Ġcommercial":9098,"UL":9099,"mad":9100,"Ġber":9101,"Ġcharming":9102,"Ġdevice":9103,"BE":9104,"rative":9105,"Ġholy":9106,"ĠHealth":9107,"Ġunivers":9108,"Ġexpert":9109,"Ġbench":9110,"Ġvegetables":9111,"Ġfeeding":9112,"Yyy":9113,"ĠDallas":9114,"Ġrabbits":9115,"Ġsacred":9116,"ĠRa":9117,"Ġgrief":9118,"Ġremove":9119,"Ġ1940":9120,"Ġanyhow":9121,"Ġsignificant":9122,"ĠHeaven":9123,"ĠWolf":9124,"alend":9125,"Ġclosing":9126,"Ġsnakes":9127,"Fort":9128,"oting":9129,"Pretend":9130,"Ġmerchant":9131,"Girl":9132,"ĠCL":9133,"your":9134,"Ġfeature":9135,"ustomed":9136,"Bel":9137,"ĠSix":9138,"Nah":9139,"Ġchin":9140,"issors":9141,"Ġobtain":9142,"Ġarticles":9143,"ifferent":9144,"ĠÂ":9145,"ilton":9146,"Ġflies":9147,"Ġdragged":9148,"BY":9149,"Ġdrank":9150,"Ġfetch":9151,"Ġpine":9152,"Ġheap":9153,"Ġanna":9154,"ĠWednesday":9155,"Ġswung":9156,"Ġ500":9157,"Ġunlike":9158,"Ġstrawberries":9159,"ĠBarbara":9160,"itors":9161,"Ġmal":9162,"Ġhom":9163,"ĠId":9164,"alph":9165,"Ġrot":9166,"ĠTour":9167,"Ġgrade":9168,"Jan":9169,"Yeh":9170,"cow":9171,"Ġcwww":9172,"Ġmachines":9173,"Ġbells":9174,"Ġextended":9175,"Ġpeculiar":9176,"och":9177,"rad":9178,"stal":9179,"Ġmysterious":9180,"rell":9181,"Ġlover":9182,"Ġsailors":9183,"uct":9184,"Ġbade":9185,"ĠBuck":9186,"unted":9187,"Ġassociated":9188,"36":9189,"Ã¢":9190,"Ġcone":9191,"Ġgum":9192,"Ġsmoking":9193,"Ġrefuse":9194,"Ġdescription":9195,"ĠBesides":9196,"ĠWild":9197,"iley":9198,"Ġobtained":9199,"Ġbeef":9200,"Ġatmosphere":9201,"Teddy":9202,"Ġpeak":9203,"Walk":9204,"ĠSar":9205,"leton":9206,"Ġacquaint":9207,"Sounds":9208,"Ġovert":9209,"iva":9210,"Ġassistance":9211,"Ġbegged":9212,"Ġdisaster":9213,"Ġouter":9214,"Ġgrim":9215,"Ġhelpless":9216,"Ġ1966":9217,"Ġpossibility":9218,"Ġunexpected":9219,"Har":9220,"western":9221,"edge":9222,"issippi":9223,"ĠForce":9224,"Ġclap":9225,"Ġsilk":9226,"Without":9227,"Ġabsence":9228,"ĠGuy":9229,"upp":9230,"Ġwaving":9231,"ĠSav":9232,"Ġcounting":9233,"ĠConfeder":9234,"Ġbeard":9235,"ĠUt":9236,"Ġhats":9237,"Ġsplash":9238,"Ġcrowded":9239,"Ġrubber":9240,"GR":9241,"ĠChampionships":9242,"EM":9243,"low":9244,"Äģ":9245,"Ġjoe":9246,"glas":9247,"erman":9248,"ĠCarr":9249,"Ġtramp":9250,"ĠIntern":9251,"Ġgradually":9252,"Ġmour":9253,"Ġactions":9254,"Ġgloom":9255,"ĠAnnie":9256,"Ġkings":9257,"Ġchip":9258,"Ġthrust":9259,"Ġkidna":9260,"Ġmidst":9261,"Ġvolcan":9262,"bb":9263,"ĠJoy":9264,"Laura":9265,"Ġcrap":9266,"Ġpier":9267,"Ġrecorder":9268,"Ġcandle":9269,"onge":9270,"Besides":9271,"ï¿½ï¿½ï¿½":9272,"Ġcenturies":9273,"Ġdinosaurs":9274,"ĠVictoria":9275,"Ġpeep":9276,"ĠThose":9277,"phia":9278,"Ġbottles":9279,"habet":9280,"Ġcops":9281,"vention":9282,"AKE":9283,"TV":9284,"Ġconsist":9285,"âĢķâĢķ":9286,"ĠBank":9287,"Ġyourselves":9288,"Ġwarned":9289,"Ġapplied":9290,"ĠInt":9291,"ĠLO":9292,"ĠReally":9293,"Ġprem":9294,"ĠMaybe":9295,"Long":9296,"ĠCivil":9297,"ĠStory":9298,"ĠVen":9299,"lings":9300,"Ġindign":9301,"Ġwinds":9302,"Ġconstantly":9303,"Ġorganis":9304,"500":9305,"vior":9306,"ikes":9307,"Ġinsp":9308,"Ġanchor":9309,"Es":9310,"Ġtouching":9311,"ĠEnter":9312,"38":9313,"Ġduties":9314,"ĠShan":9315,"alle":9316,"ĠWalk":9317,"Ġaliens":9318,"ĠVol":9319,"Anne":9320,"Ġvictims":9321,"Ġfrequently":9322,"Ġacts":9323,"Ġresolved":9324,"Ġstatus":9325,"Ġtales":9326,"ĠNavy":9327,"Ġroar":9328,"Ġdraft":9329,"ooray":9330,"Ġpretending":9331,"Ġfaithful":9332,"Ġtremendous":9333,"Ġgazed":9334,"ifying":9335,"Ġchickens":9336,"PL":9337,"Ġmichael":9338,"Ġwilln":9339,"Robert":9340,"Ġease":9341,"eav":9342,"ĠMem":9343,"ĠLawrence":9344,"WHAT":9345,"cont":9346,"helle":9347,"Ġnonsense":9348,"ĠWait":9349,"ervative":9350,"Ġgorgeous":9351,"Ġdemonstr":9352,"away":9353,"International":9354,"Ġexplore":9355,"Ġunconscious":9356,"Ġtables":9357,"Ġbicycle":9358,"Ġdonkey":9359,"Ġsits":9360,"Ġcigaret":9361,"90":9362,"orous":9363,"Ġtricks":9364,"ĠHonor":9365,"rm":9366,"ĠDown":9367,"ĠRoy":9368,"ĠOhio":9369,"Ġprotest":9370,"Ġorganized":9371,"Ġtroubled":9372,"Ġsank":9373,"Ġpuff":9374,"Ġgon":9375,"Ġcollected":9376,"scar":9377,"Sing":9378,"otic":9379,"ema":9380,"Ġdaisy":9381,"Gee":9382,"Ġcries":9383,"unction":9384,"pense":9385,"Ġturkey":9386,"Ġrepeat":9387,"Ġinstructions":9388,"ĠBird":9389,"Ġstays":9390,"Ġimpact":9391,"Ġloft":9392,"coming":9393,"rett":9394,"ĠStephen":9395,"Use":9396,"Ġgoose":9397,"asm":9398,"Ġruin":9399,"Ye":9400,"Ġwoof":9401,"Ġpace":9402,"ulse":9403,"ĠOUT":9404,"Ġunw":9405,"pector":9406,"Ġfacts":9407,"ĠNell":9408,"ĠKn":9409,"ducation":9410,"Ġros":9411,"ĠWrest":9412,"ĠLight":9413,"Ġconven":9414,"oyd":9415,"ruct":9416,"Ġpenn":9417,"Ġpudd":9418,"ĠCass":9419,"geon":9420,"Ġconcept":9421,"Ġchildhood":9422,"Ġpresidential":9423,"Ġraid":9424,"ĠCAN":9425,"inton":9426,"Ġcopies":9427,"Ġoccasionally":9428,"oplane":9429,"ropriate":9430,"Ġdropping":9431,"Ġ1945":9432,"Ġbeaten":9433,"Ġlabel":9434,"Ġbatteries":9435,"Ġcrayons":9436,"Knock":9437,"Ġvic":9438,"Ġsteven":9439,"Ġgenerous":9440,"Ġsanta":9441,"Ġfer":9442,"Ġliquid":9443,"ĠTokyo":9444,"George":9445,"itched":9446,"Ġnail":9447,"Ġlip":9448,"Ġtribes":9449,"ĠGrant":9450,"ĠBomba":9451,"Ġaccompanied":9452,"zes":9453,"ĠLI":9454,"Ġsandwiches":9455,"ĠBernard":9456,"adelphia":9457,"Ġgates":9458,"ĠDi":9459,"Ġphr":9460,"Ġcorpor":9461,"anchester":9462,"Ġconcluded":9463,"Ġheels":9464,"Ġnegative":9465,"Ġinvestigation":9466,"Grandma":9467,"ennes":9468,"Ġbreeze":9469,"34":9470,"ĠAk":9471,"Ġsob":9472,"Ġguards":9473,"Ġwarn":9474,"Ġcolonel":9475,"ĠCastle":9476,"ĠArkansas":9477,"ĠCommission":9478,"Ġcomrades":9479,"Ġchallenge":9480,"ĠTs":9481,"ĠKate":9482,"Ġobst":9483,"ĠDirector":9484,"dale":9485,"ĠAri":9486,"Ġnorthwest":9487,"Ġsacrifice":9488,"ĠBrian":9489,"bot":9490,"ĠWel":9491,"ĠKong":9492,"anges":9493,"Ġawfully":9494,"ITTLE":9495,"Ġkilomet":9496,"Ġseal":9497,"ogue":9498,"Ġcared":9499,"Ġmuttered":9500,"Ġsucceed":9501,"ropolitan":9502,"lace":9503,"Ġpanc":9504,"Ġlux":9505,"Ġjoint":9506,"Ġsuicide":9507,"Ġrecover":9508,"atsy":9509,"Ġfavourite":9510,"Geography":9511,"lon":9512,"acles":9513,"uma":9514,"ĠForm":9515,"Ġglory":9516,"Ġsecretary":9517,"Ġpermitted":9518,"got":9519,"Ġbass":9520,"Ġult":9521,"ĠGuard":9522,"ĠLewis":9523,"\".\"":9524,"Ġyer":9525,"abama":9526,"istor":9527,"Im":9528,"vet":9529,"Ġfacing":9530,"Ġstress":9531,"bery":9532,"ureau":9533,"ĠAlan":9534,"lar":9535,"igator":9536,"Ġmovements":9537,"Ġlaying":9538,"Ġ1956":9539,"ICK":9540,"Quite":9541,"Ġholidays":9542,"Ġelectricity":9543,"Ty":9544,"Ġdude":9545,"erer":9546,"70":9547,"wald":9548,"ashes":9549,"ĠIce":9550,"ĠLind":9551,"ĠEarl":9552,"Ġboring":9553,"Ġsympathy":9554,"FL":9555,"ĠSandy":9556,"Ġhistorical":9557,"Ġfaced":9558,"Ġsolution":9559,"ĠTop":9560,"Ġquestioned":9561,"Ġremarkable":9562,"Ġrevealed":9563,"Ġol":9564,"ĠSally":9565,"ĠTaylor":9566,"Ġworship":9567,"Ġdelicate":9568,"Ġforests":9569,"Ġvoyage":9570,"ĠKy":9571,"Ġblast":9572,"Ġinvite":9573,"Forget":9574,"Ġwis":9575,"ĠCop":9576,"ĠPo":9577,"ĠUs":9578,"ĠMississippi":9579,"ĠBeck":9580,"ĠPolice":9581,"ĠPic":9582,"Anna":9583,"ĠSn":9584,"ĠLaura":9585,"Ġexceed":9586,"Ġleather":9587,"hearted":9588,"Ġstretch":9589,"Ġbarely":9590,"Ġitems":9591,"ĠEric":9592,"ordinary":9593,"Ġeditor":9594,"Ġanxiously":9595,"ĠBruce":9596,"fits":9597,"ĠAB":9598,"ĠTurn":9599,"Ġalien":9600,"ĠGall":9601,"Ġimper":9602,"Ġslice":9603,"Ġcrossing":9604,"Unless":9605,"Hard":9606,"Ġbum":9607,"Ġtrace":9608,"Ġignor":9609,"ĠFilm":9610,"Near":9611,"Ġwars":9612,"Ġmos":9613,"Ġprofit":9614,"Draw":9615,"Luc":9616,"arse":9617,"Ġobvious":9618,"Ġleads":9619,"Ġ1965":9620,"Ġzero":9621,"39":9622,"Ġding":9623,"ĠSub":9624,"Ġspray":9625,"zech":9626,"Ġsharply":9627,"Ġphoto":9628,"Nicole":9629,"Ju":9630,"Ġstab":9631,"ighty":9632,"ĠJews":9633,"Ġpumpkin":9634,"organ":9635,"ĠDog":9636,"ĠFle":9637,"Ġcurios":9638,"Ġdetail":9639,"Ġabsor":9640,"ĠSwedish":9641,"Ġboun":9642,"esome":9643,"Ġintroduce":9644,"ĠRyan":9645,"Ġroots":9646,"Ġstrongly":9647,"Except":9648,"Ġprofession":9649,"Such":9650,"ĠAgain":9651,"ĠDiana":9652,"Ġmusician":9653,"going":9654,"UE":9655,"Ġyell":9656,"Ġspill":9657,"Ġsurre":9658,"Ġdrawer":9659,"ĠSteven":9660,"48":9661,"ĠBroad":9662,"Ġspaces":9663,"Ġpreviously":9664,"Ġanswers":9665,"Ġassault":9666,"Ġestablish":9667,"DO":9668,"Ġarrow":9669,"ĠKenneth":9670,"ĠFrances":9671,"colm":9672,"lan":9673,"Ġmomma":9674,"chard":9675,"Ġmice":9676,"rock":9677,"akers":9678,"oda":9679,"ultan":9680,"Ġmistaken":9681,"Ġfiring":9682,"Roll":9683,"itra":9684,"Ġrage":9685,"ĠRaj":9686,"Ġclay":9687,"Ġcandidate":9688,"Ġkitten":9689,"ĠPolish":9690,"Ġoxygen":9691,"ĠRus":9692,"Lara":9693,"Rel":9694,"ĠSuch":9695,"ĠALL":9696,"ĠPart":9697,"Ġresources":9698,"Ġsympt":9699,"icip":9700,"Ġcoloring":9701,"ĠĠĠĠĠĠĠĠĠĠĠĠĠĠĠĠĠĠĠĠĠĠĠĠ":9702,"ĠCoast":9703,"Ġdiscussion":9704,"Ġcarrots":9705,"Lemme":9706,"Ġmothers":9707,"Ġsubjects":9708,"Ġsunday":9709,"Round":9710,"Ġcush":9711,"stan":9712,"ĠBelle":9713,"Ġjury":9714,"acked":9715,"Ġbride":9716,"brush":9717,"Ġburnt":9718,"Ġhastily":9719,"Ġneighbors":9720,"Ġpuppet":9721,"Ġnep":9722,"Ġsitu":9723,"Ġenormous":9724,"Ġdashed":9725,"aro":9726,"ĠAL":9727,"ĠARE":9728,"igr":9729,"ragon":9730,"akh":9731,"Ġtennis":9732,"Ġterribly":9733,"Ġbecky":9734,"ovie":9735,"gger":9736,"Ġdefence":9737,"ĠShah":9738,"Ġpackage":9739,"Ġindependence":9740,"Ġske":9741,"aters":9742,"ĠFanny":9743,"Ġskirt":9744,"Ġreflect":9745,"Ġmillions":9746,"ĠDaniel":9747,"Ġfridge":9748,"Ġbeings":9749,"Ġhoriz":9750,"Ġchairman":9751,"phan":9752,"Ġpatch":9753,"ĠCher":9754,"ĠCOM":9755,"ĠDolly":9756,"Ġvisible":9757,"ĠBeat":9758,"Ġsuggestion":9759,"uki":9760,"Absolutely":9761,"river":9762,"never":9763,"Ġballet":9764,"Ta":9765,"Ġfestival":9766,"ĠMoo":9767,"ĠRen":9768,"ĠSeries":9769,"po":9770,"orus":9771,"Ġraces":9772,"oody":9773,"Ġvon":9774,"Ġproced":9775,"Ġliterature":9776,"Ġsou":9777,"Ġlun":9778,"press":9779,"itable":9780,"Ġrefe":9781,"Ġ36":9782,"Ġnephew":9783,"Chan":9784,"ĠMill":9785,"ĠMoon":9786,"Ġyoungest":9787,"ĠPriscilla":9788,"Ġviews":9789,"mission":9790,"ĠRoss":9791,"ĠHead":9792,"Ġgloves":9793,"angaroo":9794,"alendar":9795,"Certainly":9796,"inent":9797,"itals":9798,"Ġnails":9799,"ĠGreg":9800,"ĠLang":9801,"Ġcomin":9802,"earch":9803,"ection":9804,"Goes":9805,"Ġgrounds":9806,"inter":9807,"Ġimpr":9808,"ĠRegion":9809,"Pig":9810,"cknow":9811,"Fish":9812,"uen":9813,"olas":9814,"Ġaccused":9815,"Ġdealing":9816,"Fall":9817,"unte":9818,"rific":9819,"Ġunique":9820,"Ġtermin":9821,"alem":9822,"Ġmischief":9823,"Ġscout":9824,"Ġbund":9825,"Ġscreaming":9826,"Kitty":9827,"Book":9828,"Ã£":9829,"lement":9830,"ĠSister":9831,"Ġlighted":9832,"Ġseventeen":9833,"cr":9834,"Ġending":9835,"Ġendeav":9836,"kind":9837,"iry":9838,"Step":9839,"ĠUP":9840,"ective":9841,"Ġmaintain":9842,"ĠBurton":9843,"Ġintelligence":9844,"walk":9845,"Ġgolf":9846,"ĠAngel":9847,"ĠLeslie":9848,"nut":9849,"Ġsofa":9850,"Ġowners":9851,"Ġhurting":9852,"Ġporch":9853,"Ġgifts":9854,"Ġstartled":9855,"ĠCommander":9856,"Ġsighed":9857,"Ġstew":9858,"three":9859,"ĠNE":9860,"chers":9861,"Ġwoo":9862,"inks":9863,"ĠLeg":9864,"iper":9865,"Ġfee":9866,"Ġcloset":9867,"Ġinvented":9868,":âĢĶ":9869,"Feel":9870,"riet":9871,"Ġflav":9872,"ffin":9873,"Ġcomplicated":9874,"Ġcovering":9875,"Lovely":9876,"gle":9877,"omon":9878,"Ġweary":9879,"osis":9880,"Ġgrows":9881,"Ġinvitation":9882,"Ġinclined":9883,"Personal":9884,"Ġcrayon":9885,"Ġbars":9886,"Ġmaterials":9887,"Henry":9888,"Ġsung":9889,"asures":9890,"Ġgettin":9891,"Ġ1963":9892,"Ġruined":9893,"ĠAirport":9894,"Until":9895,"Ġawards":9896,"ĠHans":9897,"ĠNorway":9898,"Ġlodge":9899,"Ġincredible":9900,"Ġassume":9901,"ĠJohnny":9902,"uster":9903,"urb":9904,"Ġworthy":9905,"sen":9906,"ĠBol":9907,"ĠOffice":9908,"kward":9909,"Ġpersonality":9910,"Ġchum":9911,"ĠAlabama":9912,"Ġinterfe":9913,"Ġelections":9914,"Ġcontained":9915,"inate":9916,"ĠBour":9917,"ĠDie":9918,"ĠRand":9919,"Ġscattered":9920,"Ġwidely":9921,"ghan":9922,"Ġvel":9923,"Ġtune":9924,"orney":9925,"unh":9926,"ĠGro":9927,"ultural":9928,"Ġaccustomed":9929,"kerchief":9930,"Bird":9931,"lah":9932,"Ġhelmet":9933,"Ġheading":9934,"ĠNorman":9935,"46":9936,"Follow":9937,"Having":9938,"pass":9939,"Ġgraph":9940,"onsieur":9941,"Ġ1947":9942,"Ġdepos":9943,"cake":9944,"ori":9945,"ĠDNA":9946,"Ġsue":9947,"Ġflung":9948,"Ġinformed":9949,"Ġconfusion":9950,"Harry":9951,"rying":9952,"ĠFive":9953,"ĠHoward":9954,"Ġ1948":9955,"Ġclubs":9956,"Ġtheatre":9957,"ĠGot":9958,"ĠLine":9959,"ĠVill":9960,"Ġimpressed":9961,"Ġstor":9962,"Ġemperor":9963,"Ġ1961":9964,"SO":9965,"Ġnaked":9966,"Ġhollow":9967,"Ġfriday":9968,"Ġshelf":9969,"hens":9970,"onies":9971,"ĠPope":9972,"OUR":9973,"Ġ1959":9974,"Ġnegro":9975,"Ġfog":9976,"Ġaloud":9977,"ĠDON":9978,"Ġmonkeys":9979,"ookee":9980,"ĠMun":9981,"prise":9982,"Ġpossessed":9983,"Ġexperienced":9984,"BER":9985,"IX":9986,"ĠIowa":9987,"ĠFel":9988,"Ġdefense":9989,"Ġpoetry":9990,"etime":9991,"Ġrevenge":9992,"Ġsubmar":9993,"Ġscenes":9994,"Tony":9995,"after":9996,"ront":9997,"Ġfoss":9998,"ĠNews":9999,"Purdie":10000,"Woof":10001,"Ġok":10002,"ĠPhiladelphia":10003,"Ġcommanded":10004,"Ġparliament":10005,"Ġdecent":10006,"Indeed":10007,"Done":10008,"chi":10009,"elson":10010,"uart":10011,"ĠMoscow":10012,"Ġwins":10013,"Ġcert":10014,"leg":10015,"ĠHir":10016,"ĠThus":10017,"Ġnewspapers":10018,"Ġuncomfort":10019,"Catch":10020,"Same":10021,"jan":10022,"Ġshift":10023,"ĠKhan":10024,"Ġblows":10025,"Ġappointment":10026,"Ġcares":10027,"ĠMayor":10028,"Ġprayers":10029,"Ġthread":10030,"ĠWHAT":10031,"Ġforehead":10032,"his":10033,"Ġshells":10034,"Ġsqueeze":10035,"Ġdared":10036,"Ġreject":10037,"ĠCzech":10038,"Ġabroad":10039,"Ġ32":10040,"Ġresting":10041,"Ġpersonally":10042,"Ġthankful":10043,"Mean":10044,"ATION":10045,"Ġliterally":10046,"race":10047,"Ġwaved":10048,"Ġdug":10049,"Ġprinted":10050,"phant":10051,"Ġinfect":10052,"ĠAud":10053,"Ġsaturday":10054,"ĠColumbia":10055,"Lou":10056,"giving":10057,"Ġbrid":10058,"Ġshade":10059,"Ġ300":10060,"rie":10061,"esota":10062,"Ġrip":10063,"eare":10064,"Ġsunny":10065,"32":10066,"Ġratt":10067,"Ġmonarch":10068,"Ġsweets":10069,"Ġbleeding":10070,"Ġmart":10071,"Ġroast":10072,"Ġcarrot":10073,"Things":10074,"Ġdestruction":10075,"ĠRobinson":10076,"Ġrushing":10077,"Ġdaylight":10078,"avan":10079,"shit":10080,"Ġoperations":10081,"Ġoperating":10082,"izzy":10083,"ĠHindu":10084,"Ġinner":10085,"ĠRich":10086,"Ġworm":10087,"Ġexpand":10088,"Ġepisodes":10089,"Milk":10090,"Ġalphabet":10091,"occ":10092,"iden":10093,"ĠStand":10094,"Ġedition":10095,"Ġyield":10096,"ĠSin":10097,"velope":10098,"Ġ1962":10099,"Ġpotty":10100,"Ġfirmly":10101,"Po":10102,"Post":10103,"ĠÂ¶":10104,"Ġped":10105,"Ġemployed":10106,"Pass":10107,"song":10108,"Always":10109,"Ġcontinues":10110,"Ġ1952":10111,"ĠHun":10112,"Ġscissors":10113,"UNT":10114,"Ġreference":10115,"Ġintent":10116,"ĠVietnam":10117,"Oy":10118,"Ġlick":10119,"ooped":10120,"Ġsho":10121,"ĠLi":10122,"Ġchasing":10123,"Ġbands":10124,"cientists":10125,"Ġfantastic":10126,"Billy":10127,"Ġga":10128,"ĠNO":10129,"ilda":10130,"Ġonline":10131,"Ġblown":10132,"Ġinjury":10133,"uri":10134,"unty":10135,"Ġsurvey":10136,"Ġacknow":10137,"Each":10138,"Said":10139,"ĠSab":10140,"teenth":10141,"Ġmassive":10142,"Ġbehavior":10143,"Ġnapp":10144,"Ġmanners":10145,"Ġaddressed":10146,"Ġwaist":10147,"Ġmurmured":10148,"Ġcuriosity":10149,"Ba":10150,"Might":10151,"era":10152,"oodle":10153,"Ġwhoa":10154,"ĠKa":10155,"Ġsweep":10156,"Ġ1957":10157,"Death":10158,"Ã¨re":10159,"ĠMiller":10160,"ĠTob":10161,"ĠSpaniards":10162,"vant":10163,"Ġguarant":10164,"Ġmemories":10165,"Ġdess":10166,"Ġpand":10167,"Ġgathering":10168,"Ġgraduated":10169,"Work":10170,"Ġfuss":10171,"Ġroo":10172,"ĠMoses":10173,"Ġlongest":10174,"Ġsuperior":10175,"ĠSimon":10176,"Count":10177,"ĠGen":10178,"ondisse":10179,"Ġindustrial":10180,"Ġsquirrel":10181,"Malley":10182,"uction":10183,"ĠCharlotte":10184,"Ġcritical":10185,"Ġdisturb":10186,"ĠHen":10187,"Ġlets":10188,"Ġlightning":10189,"Ġcostume":10190,"Ġdiagn":10191,"ophie":10192,"General":10193,"Ġsan":10194,"ĠAmanda":10195,"Ġcausing":10196,"Ġexecutive":10197,"Ġwret":10198,"Ġpunch":10199,"ĠDE":10200,"King":10201,"THAT":10202,"ĠHockey":10203,"akened":10204,"Ġequally":10205,"ĠChannel":10206,"Ġ`":10207,"Ġstadium":10208,"Ġknight":10209,"Ġwhoever":10210,"Ġpockets":10211,"Ġdespite":10212,"Cup":10213,"Ġcaroline":10214,"Ġangle":10215,"Ġdanced":10216,"Ġdespair":10217,"ĠCON":10218,"Ġcoc":10219,"ĠStop":10220,"Ġentering":10221,"Ġinstinct":10222,"duction":10223,"Ġawkward":10224,"ĠTurkey":10225,"IFA":10226,"zed":10227,"inating":10228,"hard":10229,"Ġmush":10230,"aga":10231,"Ġtriangle":10232,"Ġrefuge":10233,"Ġspeaker":10234,"Ġfisher":10235,"Ġannounce":10236,"Ġprotected":10237,"Ġextraordinary":10238,"Ġathlet":10239,"Air":10240,"somet":10241,"Ġrelatives":10242,"Ġsniff":10243,"Ġ1958":10244,"Ġselfish":10245,"Gosh":10246,"ĠHart":10247,"Ġdrops":10248,"Ġloaded":10249,"Ġcandles":10250,"Ġhits":10251,"oti":10252,"tery":10253,"ĠGET":10254,"Ġroot":10255,"Ġprey":10256,"Ġmarched":10257,"Ġcoward":10258,"ĠFranklin":10259,"Ġdebt":10260,"ĠMinnesota":10261,"gage":10262,"Ġcateg":10263,"Ġglue":10264,"Ġsites":10265,"ĠLE":10266,"ĠKnight":10267,"Ġjournalist":10268,"ographer":10269,"Ġbrig":10270,"ĠJordan":10271,"ĠBridge":10272,"cules":10273,"Ġastron":10274,"dr":10275,"ĠBR":10276,"agers":10277,"Ġrecall":10278,"jamin":10279,"uther":10280,"ĠDef":10281,"grim":10282,"Ġreputation":10283,"Ġfrost":10284,"vard":10285,"ĠBBC":10286,"ĠGre":10287,"ĠHong":10288,"Ġpepper":10289,"Ġplanes":10290,"ĠSamuel":10291,"ĠCrown":10292,"Ġclaims":10293,"break":10294,"ĠGreece":10295,"Richard":10296,"ni":10297,"Ġfloating":10298,"Biography":10299,"jac":10300,"Ġhoo":10301,"aya":10302,"ĠPost":10303,"Ġappet":10304,"Ġaccur":10305,"Otherwise":10306,"Cont":10307,"gi":10308,"Ġlwww":10309,"Ġhappily":10310,"borough":10311,"ĠBavaria":10312,"Ġcalendar":10313,"Ġrested":10314,"Ġbreaks":10315,"Ġfootballer":10316,"Ġearthqu":10317,"100":10318,"ouses":10319,"195":10320,"Ġevolution":10321,"Ġsticker":10322,"Ġillegal":10323,"Ġsaddle":10324,",.":10325,"Saint":10326,"ĠWy":10327,"Ġmhm":10328,"ĠTal":10329,"ĠHER":10330,"Ġbrook":10331,"iki":10332,"Ġfastened":10333,"Ġraising":10334,"XX":10335,"Ġinch":10336,"Ġweigh":10337,"ĠLarry":10338,"Brother":10339,"kers":10340,"ĠCreek":10341,"Ġvice":10342,"ĠNep":10343,"ĠNations":10344,"Ġcollar":10345,"Ġdigger":10346,"Ġpuzzled":10347,"good":10348,"Ġdart":10349,"ppose":10350,"Ġenvelope":10351,"fecture":10352,"Ġellie":10353,"ĠPoint":10354,"Ġpatience":10355,"Ġtests":10356,"Ġgarbage":10357,"ĠGraham":10358,"Ġnarr":10359,"Ġtheme":10360,"Ġagric":10361,"ienna":10362,"ĠDanny":10363,"Ġtravelling":10364,"Gimme":10365,"tis":10366,"Ġlane":10367,"Ġeffic":10368,"Ġbloom":10369,"Ġlisted":10370,"ĠSpring":10371,"Ġecho":10372,"ldom":10373,"adies":10374,"49":10375,"Ġexplosion":10376,"Ġdipl":10377,"):":10378,"pter":10379,"ĠLITTLE":10380,"Ġleap":10381,"Ġsingles":10382,"Ġpotential":10383,"Ġhaste":10384,"Ġcrawl":10385,"Ġapologize":10386,"Wind":10387,"woman":10388,"Ġmobile":10389,"Through":10390,"ĠVery":10391,"Ġadditional":10392,"ĠChristians":10393,"Ġseventh":10394,"uilding":10395,"Rep":10396,"Ġcuddle":10397,"Ġmask":10398,"Ġstuffed":10399,"Cheese":10400,"Ġsed":10401,"imal":10402,"ĠSU":10403,"Ġsoci":10404,"ĠIns":10405,"ĠArts":10406,"Ġalcohol":10407,"ivery":10408,"til":10409,"Ġtray":10410,"agne":10411,"Ġcounted":10412,"Ġreplace":10413,"Ġsoftware":10414,"Ġurged":10415,"Ġresistance":10416,"nels":10417,"abled":10418,"OUGH":10419,"Ġnecessarily":10420,"ĠPictures":10421,"Peekaboo":10422,"Half":10423,"Ġallows":10424,"ĠFestival":10425,"ĠRalph":10426,"Ġadding":10427,"Anybody":10428,"Ġgranted":10429,"ĠForest":10430,"Ġexhausted":10431,"Bit":10432,"wich":10433,"rob":10434,"ĠGri":10435,"Ġroses":10436,"Ġ75":10437,"Ġ1946":10438,"Ġdescend":10439,"Ġslippers":10440,"Fe":10441,"say":10442,"Ġwww":10443,"ingle":10444,"atson":10445,"Ġ1949":10446,"Ġconclusion":10447,"Ġhood":10448,"Young":10449,"Ġskills":10450,"Ġliberty":10451,"31":10452,"Hat":10453,"iw":10454,"Ġmorn":10455,"Ġdeed":10456,"ittens":10457,"Ġarts":10458,"Ġera":10459,"Ġreasonable":10460,"ipsy":10461,"Ġattempted":10462,"ĠIV":10463,"Ġjunior":10464,"ĠKh":10465,"Ġ180":10466,"Ġgrav":10467,"ĠWrestling":10468,"ĠAM":10469,"Ġknights":10470,"Ġshone":10471,"Ġplainly":10472,"Ġvirus":10473,"ĠSara":10474,"INK":10475,"nedy":10476,"ĠâĨĹ":10477,"ĠPatrick":10478,"Ġbib":10479,"Ġliz":10480,"ctop":10481,"ĠGive":10482,"Ġkicking":10483,"Wonder":10484,"top":10485,"Ġbills":10486,"Ġpaj":10487,"agan":10488,"eyed":10489,"Ġopposed":10490,"flies":10491,"Ġdivorce":10492,"Ġperceived":10493,"Ġannual":10494,"IP":10495,"life":10496,"hell":10497,"Ġdates":10498,"ĠTimes":10499,"ĠDeath":10500,"Ġinfant":10501,"Ġtomato":10502,"Ġstarred":10503,"Ġeffective":10504,"Ġsuspected":10505,"Ġhorns":10506,"olleyball":10507,"Del":10508,"mont":10509,"nest":10510,"piece":10511,"Ġpause":10512,"Ġdece":10513,"ĠStr":10514,"Ġgenius":10515,"Ġstrangers":10516,"ĠCorpor":10517,"Ġreviews":10518,"uj":10519,"Ġdiet":10520,"AST":10521,"Ġpractical":10522,"idae":10523,"nor":10524,"ui":10525,"Ġlazy":10526,"Ġcleaned":10527,"Rock":10528,"Par":10529,"Ġgranny":10530,"Ġinterests":10531,"Chicken":10532,"Ġvisitor":10533,"Ġtastes":10534,"Train":10535,"Ġvolunte":10536,"Ġexamples":10537,"Ġsupplies":10538,"san":10539,"Ġtool":10540,"orpor":10541,"Ġsemi":10542,"ĠGR":10543,"iah":10544,"Ġdeliber":10545,"Ġdigging":10546,"Ġblessed":10547,"Adam":10548,"aughing":10549,"Ġpreparing":10550,"cill":10551,"kh":10552,"Ġparl":10553,"Ġlest":10554,"ĠMain":10555,"Ġsearching":10556,"Ġsurrounding":10557,"Trans":10558,"Ġtones":10559,"Ġmild":10560,"Ġinstruments":10561,"Ġdomestic":10562,"made":10563,"Ġrein":10564,"ĠCart":10565,"Ġmerged":10566,"Ġtrailer":10567,"Ġcheeky":10568,"ĠCard":10569,"ĠStra":10570,"Ġbeloved":10571,"Ġlegisl":10572,"Ġrainbow":10573,"Ġconnect":10574,"Ġcontrolled":10575,"Ġdick":10576,"Ġdevoted":10577,"Ġhandkerchief":10578,"ĠAllen":10579,"Ġexception":10580,"Ġlatest":10581,"Rec":10582,"onne":10583,"Ġhitting":10584,"alty":10585,"ader":10586,"ĠSO":10587,"Ġmagnific":10588,"ĠSoon":10589,"Ġreduced":10590,"Ann":10591,"OWN":10592,"becca":10593,"Ġuncomfortable":10594,"Ġpanda":10595,"END":10596,"Ġscholars":10597,"ĠMoore":10598,"44":10599,"Ġleaped":10600,"Ġski":10601,"gun":10602,"anne":10603,"Ġfrozen":10604,"ĠBoys":10605,"Hooray":10606,"Ġscan":10607,"onent":10608,"eller":10609,"ĠGran":10610,"::":10611,"aver":10612,"Ġtire":10613,"Ġburden":10614,"erick":10615,"Ġaccounts":10616,"Ġidentity":10617,"ĠRepresentatives":10618,"Part":10619,"Ġdiaper":10620,"Light":10621,"Ġlookin":10622,"Ġcrashed":10623,"Ġhousing":10624,"Ġstealing":10625,"Bunny":10626,"give":10627,"Ġbored":10628,"andal":10629,"Ġvotes":10630,"acht":10631,"ailing":10632,"Ġcreation":10633,"Ġcreep":10634,"Ġphotos":10635,"Ġattractive":10636,"ĠJacob":10637,"Ġpenguin":10638,"would":10639,"acon":10640,"Ġconver":10641,"Ġpoly":10642,"Ġsmells":10643,"ĠAustin":10644,"Ġimmense":10645,"Ġhedge":10646,"Total":10647,"Ġtops":10648,"Ġjoking":10649,"Spe":10650,"Ġcure":10651,"Ġoffering":10652,"Ġshan":10653,"Ġbew":10654,"ĠDak":10655,"ĠLat":10656,"Star":10657,"ATE":10658,"ĠCommun":10659,"ĠMountain":10660,"Enough":10661,"Ġentertainment":10662,"ĠInternet":10663,"quet":10664,"ĠArnold":10665,"Ġcircles":10666,"Ġ1954":10667,"ĠHugh":10668,"ĠHarris":10669,"ĠHolland":10670,"respond":10671,"Sil":10672,"apore":10673,"Ġvisiting":10674,"kesp":10675,"Ġtube":10676,"Ġfake":10677,"ĠBir":10678,"Ġamid":10679,"Ġneedle":10680,"ANG":10681,"Ġ1942":10682,"Charlie":10683,"Ġinher":10684,"rovers":10685,"ĠPitt":10686,"ĠHug":10687,"orton":10688,"ĠAlaska":10689,"ĠRobin":10690,"corder":10691,"Ġasks":10692,"Ġcad":10693,"Ġrival":10694,"Also":10695,"Ġmickey":10696,"Sat":10697,"lk":10698,"Ġcannon":10699,"quis":10700,"atched":10701,"Ġhee":10702,"ĠPot":10703,"ĠDer":10704,"Ġamus":10705,"Ġunfortunate":10706,"vas":10707,"Ġpurp":10708,"Ġassociation":10709,"33":10710,"amm":10711,"Ġmuscles":10712,"ĠBlake":10713,"Ġkissing":10714,"Ġdustbin":10715,"ĠEgyptian":10716,"75":10717,"Bless":10718,"Easy":10719,"Hope":10720,"umin":10721,"ĠPass":10722,"Ġrailroad":10723,"Ol":10724,"Ġbishop":10725,"stick":10726,"ĠBab":10727,"ottie":10728,"Ter":10729,"ĠBalt":10730,"ctures":10731,"ĠPear":10732,"soft":10733,"Ġsymptoms":10734,"Ġissued":10735,"Ġindividuals":10736,"ĠDouglas":10737,"Tiger":10738,"ĠMas":10739,"Ġsear":10740,"igers":10741,"Ġprices":10742,"Ġflows":10743,"onight":10744,"ĠLead":10745,"Ġinsist":10746,"Ġfiction":10747,"ĠManchester":10748,"ĠNiger":10749,"uffy":10750,"Ġcomputers":10751,"Ġmead":10752,"ĠArm":10753,"Ġhonestly":10754,"Son":10755,"Yet":10756,"Ġbust":10757,"Ġ1920":10758,"Ġhurricane":10759,"Ġsnack":10760,"Yummy":10761,"Ġtu":10762,"ĠAR":10763,"Ġactors":10764,"Ġskull":10765,"Ġdrowned":10766,"dam":10767,"ĠIra":10768,"Ġdock":10769,"ĠFIFA":10770,"ĠStation":10771,"Ġrepair":10772,"ORE":10773,"THING":10774,"ACE":10775,"('":10776,"Ġcong":10777,"Ġpaul":10778,"Ġwhirl":10779,"oland":10780,"William":10781,"Ġbaba":10782,"kespeare":10783,"Boom":10784,"Home":10785,"Ġbeads":10786,"Ġrend":10787,"Ġseldom":10788,"ĠKelly":10789,"Ġpasses":10790,"Ġincreasing":10791,"Ġswinging":10792,"riger":10793,"ĠJos":10794,"Thirty":10795,"Ġzebra":10796,"ĠEdna":10797,"ĠTurkish":10798,"ulting":10799,"Ġdisgr":10800,"âĻªâĻª":10801,"Ġlisa":10802,"Ġink":10803,"atures":10804,"Ġsecrets":10805,"Ġbabe":10806,"Men":10807,"Ġsharing":10808,"Ġcollea":10809,"Brown":10810,"Ġinspired":10811,"Ġdating":10812,"ĠHit":10813,"ĠLane":10814,"Ġsometime":10815,"text":10816,"Ġballoons":10817,"Ġaeroplane":10818,"Tim":10819,"rod":10820,"ĠToday":10821,"raham":10822,"ĠKings":10823,"Ġmetres":10824,"Ġchecking":10825,"''":10826,"Ġdia":10827,"Ġwhip":10828,"hedral":10829,"Ġvehicles":10830,"CL":10831,"Ġgown":10832,"asper":10833,"ĠPays":10834,"tainment":10835,"onym":10836,"ĠRel":10837,"Ġpoem":10838,"Ġversions":10839,"Ġsuitable":10840,"Ġappropriate":10841,"Ġcounties":10842,"Ġvanished":10843,"Ġcomposer":10844,"Bow":10845,"Mc":10846,"Ġtag":10847,"ĠFederal":10848,"ĠVienna":10849,"Ġconsists":10850,"Ġautumn":10851,"Ġuttered":10852,"Ġtrembling":10853,"mund":10854,"Ġwool":10855,"ĠBald":10856,"ĠBrook":10857,"pron":10858,"ĠDeb":10859,"Ġsweat":10860,"Ġgasped":10861,"ĠLouisiana":10862,"Mel":10863,"Ġbubble":10864,"ĠPa":10865,"ĠWork":10866,"Ġpositions":10867,"Ġharbor":10868,"antern":10869,"ĠPR":10870,"Ġdistress":10871,"Child":10872,"ĠClara":10873,"Ġ1955":10874,"itled":10875,"acc":10876,"ĠChat":10877,"Ġinte":10878,"Ġrelieved":10879,"Ġcustomers":10880,"Ġcrisis":10881,"pur":10882,"ĠBund":10883,"Egg":10884,"Ob":10885,"ifted":10886,"Ġbronze":10887,"Ho":10888,"hile":10889,"ĠWars":10890,"Ġspan":10891,"class":10892,"Ġunderground":10893,"Ġslope":10894,"Ġmeetings":10895,"ĠAtt":10896,"hammad":10897,"Ġfarmers":10898,"ĠGeoff":10899,"\";":10900,"Sy":10901,"pha":10902,"Äĩ":10903,"Ġ;":10904,"Ġtomb":10905,"ĠPut":10906,"ĠBeach":10907,"yler":10908,"Ġ1939":10909,"Ġattracted":10910,"99":10911,"mble":10912,"gedy":10913,"Ġpainful":10914,"Ġbehavi":10915,"orkshire":10916,"EFA":10917,"usive":10918,"Ġlandl":10919,"ĠChildren":10920,"Ġdresses":10921,"Ġreceiving":10922,"Ġdisappointment":10923,"Ġshrie":10924,"ĠPersian":10925,"ĠJake":10926,"Ġ1944":10927,"Ġdreamed":10928,"ĠEmma":10929,"Ġpraise":10930,"called":10931,"Ġpeel":10932,"ĠKaz":10933,"Ġworldwide":10934,"group":10935,"Ġsolo":10936,"Ġconsidering":10937,"ĠBoris":10938,"Ġborders":10939,"inch":10940,"Ġfans":10941,"ĠAmb":10942,"ĠBY":10943,"Ġspoons":10944,"Ġclo":10945,"Ġadministrative":10946,"Ġapply":10947,"Ġsecured":10948,"Ġnecklace":10949,"Ġhunter":10950,"Ġmethods":10951,"ĠPierre":10952,"BI":10953,"Ġnations":10954,"ĠPower":10955,"Ġappla":10956,"ĠCommon":10957,"Ġcurtains":10958,"Ġabandoned":10959,"ello":10960,"Ġregist":10961,"Ġcombined":10962,"Ġtalent":10963,"Ġmock":10964,"ĠSultan":10965,"ardo":10966,"Ġawhile":10967,"Ġcousins":10968,"Ġlouder":10969,"antha":10970,"Ġtaxi":10971,"Ġimproved":10972,"Ġmoral":10973,"42":10974,"Ġrasc":10975,"Ġjer":10976,"olve":10977,"Looking":10978,"Ġpassenger":10979,"Ġdeaths":10980,"Ġsails":10981,"Ġimmediate":10982,"irm":10983,"opy":10984,"ĠGa":10985,"ensity":10986,"Ġstrain":10987,"oxy":10988,"Ġcombat":10989,"ĠMaur":10990,"Head":10991,"Ġleaned":10992,"Ġ38":10993,"Ġhighway":10994,"Ġbabys":10995,"ĠCook":10996,"ĠFamily":10997,"ifully":10998,"ĠHarold":10999,"Res":11000,"Wash":11001,"Ġange":11002,"ĠEddie":11003,"Ġ1941":11004,"Ġcowboy":11005,"ĠAdams":11006,"ĠCentre":11007,"Ġchapter":11008,"Ġconstitu":11009,"Ġbacter":11010,"okay":11011,"Ġuna":11012,"ĠCD":11013,"Ġshield":11014,"ulgar":11015,"ucks":11016,"Ġhelpful":11017,"Ġfounder":11018,"Meow":11019,"Ġ1943":11020,"ĠSergeant":11021,"uis":11022,"Ġtrash":11023,"Ġlecture":11024,"Ġsimpl":11025,"Ġbananas":11026,"Ġmath":11027,"Ġhosp":11028,"Ġgina":11029,"ĠAis":11030,"assador":11031,"Ġreminds":11032,"Ġwrestling":11033,"ĠLion":11034,"Ġunp":11035,"Ġsolve":11036,"Ġsensible":11037,"Ġcommunication":11038,"Ġbothered":11039,"ĠCare":11040,"Ġsober":11041,"Ġdoorway":11042,"Getting":11043,"ennifer":11044,"Wouldn":11045,"Ġdamaged":11046,"bourne":11047,"Ġaccompany":11048,"Ġmotorcy":11049,"Ġsuspicious":11050,"Ġhan":11051,"Though":11052,"Ġcrimes":11053,"Ġexposed":11054,"ĠRadio":11055,"vation":11056,"ĠMeg":11057,"ĠGulf":11058,"Ġnoises":11059,"ĠNest":11060,"Ġ48":11061,"ĠIndones":11062,"Ġbehave":11063,"Morning":11064,"Sur":11065,"Ġoranges":11066,"Ġorphan":11067,"Ġcelebrate":11068,"Ġexperiences":11069,"Ġdischar":11070,"whe":11071,"Ġhamb":11072,"Ġbrass":11073,"Ġdram":11074,"Ġdrives":11075,"Ġcorrespond":11076,"Ġdessert":11077,"Dere":11078,"Med":11079,"oust":11080,"Ġsheets":11081,"Ġassure":11082,"Ġpajamas":11083,"SH":11084,"ulpt":11085,"Wee":11086,"Ġpacket":11087,"Ġwidow":11088,"rain":11089,"tuce":11090,"amation":11091,"Ġtwins":11092,"ORY":11093,"Ġstriking":11094,"Ġimagination":11095,"Ġmamm":11096,"ĠMuslim":11097,"CO":11098,"Ġoink":11099,"oria":11100,"Ġhind":11101,"Ġamend":11102,"Ġglorious":11103,"ĠSwiss":11104,"gro":11105,"Ġitem":11106,"irit":11107,"ules":11108,"Ġamaz":11109,"Ġrecon":11110,"Ġrelative":11111,"Ġassass":11112,"Ġarrangements":11113,"Ġadults":11114,"ĠEvelyn":11115,"Dar":11116,"bus":11117,"ĠJUST":11118,"Ġconsent":11119,"Ġsubmarine":11120,"Ag":11121,"girl":11122,"Ġwears":11123,"ĠMot":11124,"Ġsouthwest":11125,"Ġconstitution":11126,"Juice":11127,"BA":11128,"orf":11129,"amen":11130,"ĠEX":11131,"Ġanticip":11132,"Ġgoddess":11133,"Tra":11134,"Wake":11135,"ĠEnd":11136,"ĠHend":11137,"Ġrefers":11138,"Ġprecise":11139,"Ġcherry":11140,"Ġlied":11141,"ĠHope":11142,"Ġjoining":11143,"ederation":11144,"Press":11145,"Ġbehold":11146,"Ġalert":11147,"Ġleaning":11148,"Ġ37":11149,"Ġapprox":11150,"warf":11151,"Ġtraveling":11152,"Making":11153,"Ġloll":11154,"Ġdesired":11155,"onto":11156,"Ġsurvived":11157,"utter":11158,"ĠUEFA":11159,"Ġfeatured":11160,"Ġpromptly":11161,"oration":11162,"ĠĠĠĊ":11163,"Ġoverall":11164,"Ġearliest":11165,"Ġprinciple":11166,"Ġnortheast":11167,"oft":11168,"oples":11169,"ĠHIS":11170,"Ġspeaks":11171,"Ġresign":11172,"maid":11173,"Ġimpat":11174,"ĠBarry":11175,"Ġimagined":11176,"Ġceiling":11177,"Ġparrot":11178,"ĠAv":11179,"Ġsew":11180,"Ġbacks":11181,"iko":11182,"ĠConne":11183,"Ġ1934":11184,"Ġpermanent":11185,"Hors":11186,"Nat":11187,"Ra":11188,"Woo":11189,"Ġgrain":11190,"ĠInc":11191,"Ġ1951":11192,"Ġtherap":11193,"ĠCir":11194,"ĠCab":11195,"ĠCape":11196,"Ġtesting":11197,"Ġdivorced":11198,"lahoma":11199,"Suddenly":11200,"Ġneut":11201,"osl":11202,"headed":11203,"Ġcustomer":11204,"ĠPur":11205,"ĠNa":11206,"Ġchildsname":11207,"Ġinsects":11208,"Ġsuspicion":11209,"Ġtwist":11210,"Ġtrim":11211,"ĠOpen":11212,"ciences":11213,"Ġbusinessman":11214,"Hafta":11215,"Wasn":11216,"fight":11217,"ĠNelson":11218,"Ġtrump":11219,"Ġcapacity":11220,"Ã©s":11221,"Ġabsolute":11222,"Ġfemales":11223,"Ġgardens":11224,"state":11225,"ĠCooper":11226,"Ġsuitc":11227,"ĠLl":11228,"Ġexisted":11229,"Ġimages":11230,"Ġindic":11231,"Din":11232,"Ġcongress":11233,"ĠRO":11234,"Ġhatch":11235,"Ġdecisions":11236,"ĠIndeed":11237,"Ġsatell":11238,"ĠZe":11239,"Ġsummon":11240,"ĠSystem":11241,"Ġhesitated":11242,"ĠBelgium":11243,"Ġmunicipalities":11244,"Ġhose":11245,"Ġstair":11246,"Ġ1953":11247,"Ã£o":11248,"Bus":11249,"ĠWOR":11250,"Ġplung":11251,"Ġclue":11252,"Ġtrapped":11253,"Ġmessages":11254,"Ġknocking":11255,"Couldn":11256,"Ġtuck":11257,"Ġcreating":11258,"Ġstrip":11259,"Ġmeantime":11260,"Ġblankets":11261,"bro":11262,"Ġmales":11263,"ĠJa":11264,"onde":11265,"Ġflame":11266,"irlines":11267,"ĠWhit":11268,"ĠSingapore":11269,"ingo":11270,"Ġhip":11271,"Ġconsideration":11272,"Ġbullets":11273,"ĠSomers":11274,"Ġwebsite":11275,"Course":11276,"esar":11277,"Ġpad":11278,"arc":11279,"pple":11280,"ĠHold":11281,"ĠFound":11282,"ĠInstead":11283,"Ġformal":11284,"Ġjudgment":11285,"Ġidentified":11286,"ocracy":11287,"Ġphrase":11288,"Mike":11289,"Ġcub":11290,"sels":11291,"ĠClar":11292,"ATH":11293,"Ġ1936":11294,"Quack":11295,"ĠJustice":11296,"Max":11297,"West":11298,"scape":11299,"ennessee":11300,"Master":11301,"ĠHospital":11302,"Ġsup":11303,"ĠField":11304,"Ġdelivery":11305,"Ġprovinces":11306,"hole":11307,"Ġtel":11308,"Ġcust":11309,"omp":11310,"Ġselect":11311,"ĠBan":11312,"Ġdisturbed":11313,"Ġpurposes":11314,"ĠAisne":11315,"ĠOb":11316,"Ġtypical":11317,"Cur":11318,"Yo":11319,"oween":11320,"izations":11321,"Ġremote":11322,"Ġengineering":11323,"Ġplanted":11324,"Ġshadows":11325,"ĠABOUT":11326,"Ġpence":11327,"Ġbedtime":11328,"Gold":11329,"Ġgaze":11330,"Ġhint":11331,"Ġbean":11332,"Ġalike":11333,"Ġapplication":11334,"tub":11335,"Ġoutfit":11336,"ĠJuan":11337,"ĠOper":11338,"ĠThough":11339,"asha":11340,"Ġdeparture":11341,"Ġbeasts":11342,"may":11343,"oen":11344,"ĠSOME":11345,"ĠKir":11346,"je":11347,"Ġwolves":11348,"Ġcra":11349,"adi":11350,"Ġray":11351,"Ġkite":11352,"ĠSorry":11353,"Ġsauc":11354,"resents":11355,"ĠNik":11356,"Ġmini":11357,"Ġcopper":11358,"oi":11359,"ĠMack":11360,"Ġatom":11361,"ĠFriend":11362,"Ġdialect":11363,"Ġfab":11364,"ĠMm":11365,"emen":11366,".\"--_":11367,"Ġagents":11368,"Ġconscience":11369,"Ġterrific":11370,"GO":11371,"Mister":11372,"hop":11373,"Ġcable":11374,"Ġrobin":11375,"ĠMorgan":11376,"tan":11377,"Ġcooper":11378,"Ġdee":11379,"emet":11380,"Ġloan":11381,"Ġspoil":11382,"Ġdeaf":11383,"Ham":11384,"Ġtox":11385,"Ġnerve":11386,"ĠBurn":11387,"ĠYorkshire":11388,"shirt":11389,"Ġpopped":11390,"Ġtriumph":11391,"Ġspecim":11392,"Sal":11393,"six":11394,"ĠGy":11395,"odore":11396,"Ġbrac":11397,"Stick":11398,"Ġconductor":11399,"AF":11400,"sl":11401,"wall":11402,"Ġdan":11403,"ĠPete":11404,"ĠNich":11405,"Ġneedn":11406,"Ġfears":11407,"ĠMAN":11408,"Ġhopeless":11409,"Him":11410,"Ġsoccer":11411,"ĠTennessee":11412,"Ġregiment":11413,"Ros":11414,"point":11415,"Ġtut":11416,"igen":11417,"Ġcolumn":11418,"OUND":11419,"ONG":11420,"Ġscramb":11421,"Ġswiftly":11422,"Beautiful":11423,"Ġfulf":11424,"arms":11425,"ĠTan":11426,"ĠDennis":11427,"ĠNan":11428,"ĠThom":11429,"Ġmonsters":11430,"Ġsteadily":11431,"ĠCould":11432,"pshire":11433,"Ġbarrel":11434,"Ġbaa":11435,"Ġdow":11436,"Ġgap":11437,"Ġdeeper":11438,"Ġ1938":11439,"March":11440,"rete":11441,"ĠBoard":11442,",,":11443,"IVE":11444,"chen":11445,"Ġwives":11446,"rost":11447,"Ġcharity":11448,"Ġterrif":11449,"Ġbenefits":11450,"Ã¼r":11451,"Ġconcerning":11452,",...":11453,"ĠMans":11454,"ĠCamer":11455,"thy":11456,"ships":11457,"ISH":11458,"ĠTrump":11459,"Ġgallop":11460,"hol":11461,"Ġdent":11462,"ĠAuthor":11463,"ĠMist":11464,"ĠBos":11465,"ĠOfficer":11466,"Ġbru":11467,"azir":11468,"Ġtemporary":11469,"Ġnegoti":11470,"Ġurban":11471,"Ġdebate":11472,"Ġwax":11473,"Ġkettle":11474,"Ġassemb":11475,"Ġcomic":11476,"Ġlend":11477,"Ġcompass":11478,"Ġslightest":11479,"Ġalternative":11480,"ĠUkraine":11481,"mic":11482,"Ġje":11483,"Ġvest":11484,"Ġtrif":11485,"Ġfilling":11486,"Ġpaintings":11487,"din":11488,"ĠKr":11489,"Ġrepresents":11490,"Ġobser":11491,"Ġroughly":11492,"Ġdescended":11493,"ĠAntonio":11494,"Ġdignity":11495,"YS":11496,"town":11497,"itage":11498,"ĠCru":11499,"Ġsoda":11500,"ĠPu":11501,"ĠRy":11502,"ĠElect":11503,"insula":11504,"Ġemotion":11505,"REAM":11506,"minist":11507,"Ġuncertain":11508,"ĠBangl":11509,"zel":11510,"Ġfitted":11511,"Ġargue":11512,"Ġcompete":11513,"pleasant":11514,"Ġpha":11515,"essica":11516,"Ġpromoted":11517,"castle":11518,"choo":11519,"ĠPra":11520,"ĠGard":11521,"ĠRoll":11522,"Ġsmallest":11523,"ĠPlan":11524,"ĠSeven":11525,"Ġwrap":11526,"Ġlions":11527,"Ġsculpt":11528,"Ġsurprising":11529,"Ġbattles":11530,"LING":11531,"mir":11532,"ĠBack":11533,"ĠTR":11534,"Ġskipper":11535,"Ġbehalf":11536,"Ġsources":11537,"Ġdeserted":11538,"burn":11539,"Ġgear":11540,"Ġraw":11541,"Ġeveryday":11542,"Ġcolony":11543,"Ġmarvell":11544,"Ġkisses":11545,"Ġsadly":11546,"Ġempire":11547,"Ġintelligent":11548,"Ġruth":11549,"ĠSP":11550,"ĠAge":11551,"ĠCall":11552,"Ġflock":11553,"Ġregional":11554,"Ġhorrid":11555,"Ġparking":11556,"ĠAmos":11557,"Ġprivile":11558,"Ġconducted":11559,"ĠHarrison":11560,"Ġbuffalo":11561,"Ġstroll":11562,"Def":11563,"Ġresemb":11564,"Ġhire":11565,"icians":11566,"Ġtalkin":11567,"Ġcrust":11568,"Ġeleg":11569,"Ġfiles":11570,"Ġmistakes":11571,"ALLY":11572,"ester":11573,"acha":11574,"Ġseeking":11575,"ĠKevin":11576,"rooms":11577,"Ġstatue":11578,"France":11579,"Ġpandemic":11580,"Ġee":11581,"ĠTen":11582,"owned":11583,"ĠKarl":11584,"erecorder":11585,"Ġdiscussed":11586,"ĠSilver":11587,"ĠBradford":11588,"Ġdot":11589,"Ġreception":11590,"Ġrack":11591,"roit":11592,"Ġcuts":11593,"ĠCarter":11594,"ĠMatthew":11595,"pherd":11596,"41":11597,"CC":11598,"Ġvoted":11599,"Ġbloss":11600,"Ġrelation":11601,"Ġpudding":11602,"Ke":11603,"Ray":11604,"Ġsher":11605,"steps":11606,"ĠJessie":11607,"Ġcolours":11608,"Ever":11609,"uese":11610,"Ġcontem":11611,"ĠWhich":11612,"Ġinsult":11613,"Ġcamping":11614,"Ġadmire":11615,"Ġdreaming":11616,"Ġcultural":11617,"ĠWelsh":11618,"Ev":11619,"jor":11620,"tail":11621,"Door":11622,"Ġnewly":11623,"Ġdistract":11624,"Chair":11625,"Ġearnestly":11626,"ĠGirls":11627,"Ġfortunate":11628,"Ġdynasty":11629,"Pas":11630,"Sa":11631,"ĠOak":11632,"Ġquid":11633,"ĠShakespeare":11634,"Ġcontaining":11635,"Ġbyebye":11636,"Hy":11637,"House":11638,"mph":11639,"Ġgig":11640,"ĠCas":11641,"ĠRub":11642,"care":11643,"umpy":11644,"Ġcharts":11645,"Ġsqueak":11646,"load":11647,"Ġdancer":11648,"uming":11649,"ĠWWE":11650,"ĠChile":11651,"Ġsurf":11652,"IRL":11653,"ĠSolomon":11654,"esse":11655,"idi":11656,"ĠSup":11657,"ĠPun":11658,"Ġcontrovers":11659,"Ġtested":11660,"Ġlabour":11661,"Ġceremon":11662,"ĠKennedy":11663,"vor":11664,"Ġmonday":11665,"Ġheartily":11666,"Ġanswering":11667,"Ġsensitive":11668,"Ġpanic":11669,"uzzy":11670,"Ġgazing":11671,"Ġjames":11672,"Ġnod":11673,"Ġinvolve":11674,"Ġsack":11675,"Ġcoco":11676,"ĠBuddy":11677,"ĠEntertainment":11678,"Ġbunk":11679,"Ġtelly":11680,"Ġlearnt":11681,"fortunately":11682,"Ġnappie":11683,"Ġyelled":11684,"Ġstool":11685,"Ġguessed":11686,":--":11687,"PH":11688,"utt":11689,"ĠKath":11690,"Ġmedium":11691,"ĠMartha":11692,"Ġcombination":11693,"alymp":11694,"Ġphilosophy":11695,"ĠSpecial":11696,"ĠHollywood":11697,"Especially":11698,"Far":11699,"onic":11700,"Ġbrains":11701,"Ġclerk":11702,"Ġhomework":11703,"Ġ65":11704,"Ġcabinet":11705,"ĠOklahoma":11706,"Ġcreek":11707,"udes":11708,"ĠNobel":11709,"ĠMicro":11710,"Ġtore":11711,"edy":11712,"ĠSeth":11713,"ĠAut":11714,"ĠMaid":11715,"ĠDream":11716,"Ġlean":11717,"Ġloudly":11718,"Ġactivist":11719,"Ġlantern":11720,"Ġrenew":11721,"Ġregister":11722,"Ġedges":11723,"ĠParalymp":11724,"Ġoccasions":11725,"Ġenvironmental":11726,"Ġanalysis":11727,"ctopus":11728,"based":11729,"Ġpension":11730,"ĠWoman":11731,"Ġacquaintance":11732,"Ġkangaroo":11733,"Ġboil":11734,"Ġ39":11735,"Ġlively":11736,"ĠStanley":11737,"Ġadmiration":11738,"Ġautomobile":11739,"Ġtroll":11740,"Ġbugs":11741,"Ġcontents":11742,"AV":11743,"Kiss":11744,"Ġruff":11745,"amus":11746,"Ġhunger":11747,"Ġpeaceful":11748,"ĠContin":11749,"Ġutterly":11750,"held":11751,"Ġintr":11752,"ruit":11753,"Ġ400":11754,"ĠJohan":11755,"ĠPortugal":11756,"ĠLIKE":11757,"Ġhob":11758,"ĠWANT":11759,"ĠDomin":11760,"Ġscientist":11761,"Music":11762,"sa":11763,"Ġcathy":11764,"ctoral":11765,"Ġpeekaboo":11766,"rum":11767,"Ġtheater":11768,"Ġment":11769,"Ġmeals":11770,"cling":11771,"Ġpouring":11772,"Ġtransferred":11773,"Ġpistol":11774,"Ġsoutheast":11775,"emetery":11776,"Ġbounce":11777,"Ġorbit":11778,"ĠLily":11779,"Ġovercome":11780,"Ġshaped":11781,"Ġdepression":11782,"Elephant":11783,"Meanwhile":11784,"mitted":11785,"oa":11786,"Ġarrows":11787,"Ġmusk":11788,"Ġassumed":11789,"Ġbriefly":11790,"Ġinterpret":11791,"Ġwisdom":11792,"Ġamusement":11793,"Way":11794,"gian":11795,"Ġeve":11796,"agu":11797,"Ġprovisions":11798,"every":11799,"Ġwiped":11800,"Ġunpleasant":11801,"them":11802,"ĠONE":11803,"Ġsession":11804,"inding":11805,"Ġbelieves":11806,"ĠMountains":11807,"ĠRaymond":11808,"ĠPhilippines":11809,"Ġdol":11810,"ĠSeveral":11811,"ĠAy":11812,"ando":11813,"ĠMalcolm":11814,"Ġstruggling":11815,"Ġcontrast":11816,"Billboard":11817,"Tea":11818,"ĠMO":11819,"olo":11820,"Thought":11821,"Ġcritics":11822,"Ġastonishment":11823,"Ġretirement":11824,"Ġintegr":11825,"lem":11826,"ĠBed":11827,"Ġminus":11828,"ĠChristopher":11829,"Ġventure":11830,"Ġgym":11831,"inations":11832,"Ġnit":11833,"Ġdrill":11834,"Att":11835,"ĠColor":11836,"ĠPeters":11837,"ĠIraq":11838,"Ġhaw":11839,"ĠPoor":11840,"ĠNative":11841,"Ġpatrol":11842,"Purple":11843,"rary":11844,"idy":11845,"Ġtwin":11846,"actory":11847,"Ġsnapped":11848,"Ġpursuit":11849,"Ġribbon":11850,"Ġaccomplished":11851,"55":11852,"CA":11853,"ĠHistory":11854,"ĠHERE":11855,"plash":11856,"ĠIndepend":11857,"Arab":11858,"Ġvolunt":11859,"Ġadministration":11860,"Ġspons":11861,"Ġclaws":11862,"Ġdisgu":11863,"phones":11864,"ARS":11865,"ĠSquare":11866,"Ġbacon":11867,"cticut":11868,"âĨĴ":11869,"Tur":11870,"Ġhem":11871,"ĠLast":11872,"ĠRIGHT":11873,"Ġflames":11874,"ĠMaryland":11875,"Ġmagazines":11876,"Jean":11877,"Nana":11878,"TON":11879,"ĠBand":11880,"ĠOR":11881,"Ġenqu":11882,"Ġflashed":11883,"ĠAnderson":11884,"Ġwarrant":11885,"ĠSpace":11886,"iasm":11887,"ĠDakota":11888,"Ac":11889,"UD":11890,"Ġoars":11891,"âĢ¢":11892,"Ġfinest":11893,"thel":11894,"Ġlightly":11895,"Ġclearing":11896,"Ġsuspend":11897,"Ġhyp":11898,"Sand":11899,"entine":11900,"ĠCensus":11901,"Ġdisorder":11902,"Ġscorn":11903,"ANK":11904,"woke":11905,"ĠGerald":11906,"Ġ1933":11907,"Ġideal":11908,"asks":11909,"Ġhither":11910,"ĠAff":11911,"ĠHorn":11912,"arlet":11913,"Ġstripes":11914,"Ġpractically":11915,"Ġbucks":11916,"Ġarrangement":11917,"Ġmagnificent":11918,"fare":11919,"zona":11920,"angled":11921,"Ġswamp":11922,"OUS":11923,"Ġawesome":11924,"Ġbelonging":11925,"abriel":11926,"Ġank":11927,"Hear":11928,"Ġadjust":11929,"Yours":11930,"ĠAdvent":11931,"Ġpropose":11932,"Ġexamined":11933,"ĠArgentina":11934,"43":11935,"Hit":11936,"mind":11937,"Ġgross":11938,"ĠFame":11939,"ĠRap":11940,"Ġexists":11941,"Ġgrinned":11942,"Ġexamination":11943,"Sus":11944,"Ġpots":11945,"illon":11946,"ĠEp":11947,"anguage":11948,"ĠQuoth":11949,"Ġiniti":11950,"ĠTemple":11951,"gate":11952,"Ġtons":11953,"Ġdum":11954,"Ġeaster":11955,"allel":11956,"Ġfries":11957,"ĠTW":11958,"uddy":11959,"Ġscold":11960,"Ġpunished":11961,"Congratulations":11962,"rous":11963,"Ġoak":11964,"orters":11965,"ĠSnow":11966,"ĠBry":11967,"Ġshine":11968,"Ġofficials":11969,"Ġmessenger":11970,"ĠAfghan":11971,"Ġemphas":11972,"ĠTechn":11973,"apsed":11974,"Ġcomrade":11975,"Ġconsequence":11976,"ĠPrem":11977,"Ġcounsel":11978,"Ġwriters":11979,"ooping":11980,"Ġheadache":11981,"Ġcareless":11982,"ĠHotel":11983,"stream":11984,"ĠMi":11985,"Ġabuse":11986,"Ġabund":11987,"Ġclam":11988,"Ġzone":11989,"Ġ150":11990,"Ġabsent":11991,"True":11992,"Ġphysics":11993,"Break":11994,"Ġec":11995,"ĠBal":11996,"ĠHIM":11997,"Ġagency":11998,"ĠVice":11999}