#version: 0.2
Ġ t
Ġ a
i n
h e
e r
o n
r e
Ġ s
Ġt he
Ġ o
a n
Ġ c
e s
a t
e n
o r
Ġ b
i t
e d
Ġ w
a r
Ġ f
Ġ p
a l
in g
Ġ m
Ġ in
Ġo f
i s
Ġt o
i on
Ġa n
r o
i c
i l
Ġ Ċ
a s
Ġ d
o u
Ġ h
o m
Ġan d
Ġt h
en t
i d
Ġ l
Ġ re
s t
e t
Ġ e
e l
e c
il l
u t
Ġ n
a y
Ġ C
a d
' s
u r
Ġf or
o l
a c
Ġ M
l y
Ġ g
er s
v e
Ġs t
Ġ S
u n
Ġ it
Ġ 1
l e
Ġth at
es t
Ġ on
T he
Ġc om
Ġ is
i r
i g
o w
Ġb e
at ion
Ġp ro
v er
t er
i m
Ġ $
u s
o t
Ġs a
o s
m ent
ill ion
Ġ "
Ġ y
re s
Ġc on
u c
e ar
Ġsa id
Ġ A
Ġ B
Ġa s
t s
a g
Ġcom p
c e
Ġw h
a m
Ġs h
Ġ he
Ġa t
it h
at e
Ġe x
l d
o c
I n
q u
Ġ r
u l
e w
he r
Ġw ith
a k
ro m
u p
i es
t h
Ġb y
a in
Ġf rom
Ġt r
Ġm illion
Ġa l
Ġ F
Ġ P
o re
a p
Ġw as
c h
Ġ N
i al
Ġd e
0 0
i f
ar k
Ġa re
es s
i v
ou ld
ec t
Ġit s
or t
a re
u st
Ġ T
Ġ un
Ġ D
Ġ v
an y
Ġy ear
u m
an d
e m
i ve
Ġo r
Ġ J
Ġh a
' t
en d
el l
Ġ G
ou n
oc k
Ġ L
Ġh as
Ġ H
Ġof f
Ġc h
ark et
Ġ R
o st
as t
ig h
Ġw ill
Ġ W
it y
s e
Ġ1 9
g e
a b
Ġ E
ou t
Ġa c
ĠM r
Ġa b
ay s
al l
Ġ U
o p
Ġha ve
om e
Ġm arket
o d
e e
Ġ In
is t
r ic
ar t
, "
ic h
u d
Ġa d
an t
Ġp l
Ġs p
ag e
p p
ar d
u b
Ġin c
on d
Ġ 2
on g
Ġa g
Ġcomp any
ou r
t her
Ġex p
. "
g h
. ,
u e
t ion
Ġl e
or s
or k
Ġtr ad
d uc
an s
Ġcon t
e p
Ġwh ich
Ġ j
ol d
Ġst ock
i p
Ġ 3
Ġw ould
- -
an c
Ġre s
an k
Ġin v
Ġg o
Ġab out
m an
ak e
e x
f f
i re
u re
b er
er e
Ġ --
ac k
in e
at ed
Ġc l
Ġm on
Ġn ot
Ġin d
m er
Ġs ays
o k
Ġthe y
A R
Ġn ew
S T
or p
Ġ qu
Ġ up
r i
Ġe ar
Ġth is
ac t
Ġm ore
ing s
AR T
ST ART
Ġw ere
ation s
igh t
Ġh ad
d er
Ġb u
Ġp ric
Ġb illion
p ort
i e
Ġinv est
v en
Ġ I
ĠS t
d ay
Ġ O
it ion
ic e
Ġthe ir
Ġsh are
Ġo p
B ut
Ġre c
uc h
us e
Ġo ut
Ġf ir
Ġb ut
Ġ19 8
r y
ig n
Ġw he
un d
Ġth an
ou s
Ġd is
Ġh is
s o
an ce
er al
Ġbe en
Ġo ther
Ġon e
el y
Ġg ro
id ent
Ġp re
Ġwh o
ow n
or d
a w
i z
Ġin t
re e
re n
i a
Ġ K
as e
c t
ol l
Ġp res
Ġ ro
y st
Ġal l
os e
ar y
ic al
Ġs e
ent s
Ġin ter
Ġal so
Ġb ec
Ġs al
Ġa pp
Ġf in
ĠC orp
w o
Ġpro duc
Ġ im
u al
it ies
e y
ee k
Ġd ec
o v
Ġs ome
at es
a il
Ġ 5
ĠN ew
ĠIn c
Ġ k
oun t
a v
l i
ab le
o in
ar ter
b le
f ter
im e
er v
il e
a res
Ġo ver
ĠC h
an ge
Ġm an
ĠC o
Ġp art
Ġbu y
Ġmon th
Ġ Y
Ġcon s
ac h
in ess
M r
id e
Ġb ank
a use
Ġd o
us iness
g r
c on
Ġp er
Ġoff ic
Ġs o
ou gh
00 0
ar g
u g
Ġsh ares
Ġt wo
ation al
Ġ 4
Ġtrad ing
Ġ (
p l
os s
Ġl o
Ġ 8
T h
Ġyear s
Ġw e
m s
I t
as ed
res s
ul t
i k
r it
Ġac c
Ġc an
w n
Ġ en
u gh
u res
Ġc ould
Ġcom m
Ġa fter
is h
ro p
Ġb usiness
Ġ 7
Ġl ast
ment s
f it
ion s
l ud
Ġ &
Ġm e
ec ut
Ġad d
ect ed
Ġw eek
ĠF r
Ġs ec
Ġan y
as s
Ġas s
Ġn e
a ir
at ing
as h
en s
Ġbec ause
an g
v el
re d
he d
ĠY ork
a x
ub l
o ver
it e
Ġwhe n
on e
en ce
it t
Ġa r
er t
Ġop er
Ġsal es
ur n
Ġst r
Ġinc re
est er
Ġis s
Ġs ell
Ġpres ident
Ġw ork
Ġoff er
mer ic
ac e
Ġb ond
con om
Ġ us
Ġd own
ver n
Ġgo vern
Ġp r
ow er
Ġa m
ad e
Ġun der
f or
Ġon ly
os ed
Ġint o
A n
l in
Ġfir st
en c
Ġqu arter
Ġo wn
i ous
Ġs ub
ap an
ver y
Ġinter est
Ġinc lud
o y
Ġre t
Ġm ost
h n
om m
Ġs ay
u es
Ġs uch
is s
Ġpl an
Ġex ecut
Ġre port
et t
Ġe conom
i el
or n
is e
ed eral
Ġ 6
Ġm ay
Ġs c
it al
al yst
gr am
ur ing
Ġm ak
Ġgovern ment
oin t
o g
ĠA meric
an ies
i an
Ġ end
Ġat t
Ġcon c
Ġpric es
ch ange
Ġf und
Ġind ust
Ġ if
a j
Ġb o
Ġpro gram
Ġpro p
f er
Ġcomp anies
Ġc ents
Ġl ik
ir d
e op
Ġp ol
ic k
Ġs up
Ġs l
Ġ1 0
Ġim p
Ġc ur
iel d
Ġfin anc
ro ugh
Ġear n
aj or
H e
l l
r a
Ġgro up
li er
on s
Ġn o
Ġoffic ial
Ġt ime
eop le
et s
Ġ V
ĠJ apan
Ġ est
Ġan n
ester day
5 0
Ġre g
Ġh igh
Ġde f
Ġn et
Ġb et
Ġpro fit
o od
Ġthe re
Ġm any
Ġp ay
il d
Ġre p
Ġpric e
in k
Ġt ake
er n
it s
ur ities
Ġd r
f l
Ġan alyst
Ġdis c
Ġd ire
Ġl aw
Ġrec ent
s on
Ġm ajor
i x
am p
or y
is ion
Ġb l
ĠE x
al ly
Ġf l
Ġde b
Ġ19 9
ex t
Ġm uch
Ġst ate
Ġc ost
Ġin s
Ġ 9
Ġw or
Ġn ow
Ġcur ren
Ġe l
w e
Ġmonth s
Ġb ig
Ġthe m
ou se
ie f
at er
oun d
Ġac t
st r
if ic
Ġe ff
Ġinvest ors
Ġy esterday
Ġag ain
il ity
in d
Ġsp ec
W e
Ġg en
Ġb ack
am e
ubl ic
Ġth ree
Ġcont r
ap ital
iv es
Ġro se
Ġp eople
tion s
Ġcont in
Ġc ar
Ġdire ct
Ġstock s
Ġl ong
o b
Ġl oss
f t
Ġe ven
or ts
Ġth ird
Ġre m
f ore
Ġbond s
Ġpro v
Ġc r
air man
o ve
Ġe m
Ġt ax
ot h
n er
Ġth rough
ec ts
Ġh old
p t
in ce
ep t
are d
Ġc all
i b
s s
ur y
t on
Ġj ust
Ġd id
Ġearn ings
Ġh ow
Ġ3 0
m in
oll ar
g an
id ay
Ġy ou
Ġb ro
ter n
yst em
ain s
ri b
al s
ĠU n
st it
Ġgro w
Ġf ut
Ġwh at
re at
Ġn ext
Ġtr ans
Ġm ake
Ġac qu
e ver
i o
es e
Ġd es
em ber
Ġb el
Ġf ore
us h
is c
Ġmon ey
c ess
Ġs m
ic t
Ġp ur
stit ut
i ed
Ġre l
Ġm in
is ts
ic s
ĠC omm
Ġle ad
Ġs ur
Ġexp ected
Ġexecut ive
Ġch ief
i ble
Ġ .
Ġd iv
vel op
ro v
Ġcomp ut
Ġindust ry
Ġbe fore
Ġb id
Ġde p
O n
ĠO ct
on t
ĠAmeric an
Ġb r
l ed
ĠFr iday
Ġs erv
Ġear lier
y ear
Ġd ollar
Ġm ade
uc t
Ġconc ern
it ed
Ġf ederal
u ed
% .
at ive
Ġun it
i ew
for m
Ġofficial s
Ġfinanc ial
Ġs he
Ġd on
ap p
Ġcurren t
2 5
Ġad v
il y
Ġr ate
l ine
ion al
re ad
Ġc our
Ġa ut
Ġpro ble
he n
ot her
Ġh ig
Ġw ell
Ġinvest ment
Ġs ign
Ġfir m
i et
Ġk n
An d
Ġf our
Ġman ag
c ed
Ġth ose
ĠIn d
s h
we en
l p
Ġre al
Ġst ill
Ġd ays
Ġe qu
ver age
an ts
enc y
Ġwh ile
Ġsh ow
Ġlik e
Ġbet ween
o ber
Ġb ill
id er
Ġv al
al if
Ġc ount
m e
ĠA n
ic es
pl oy
in es
Ġgo od
ar ge
Ġf e
Ġf ell
ĠT h
Ġagain st
ĠB ank
ven ue
Ġs ince
Ġl ower
ol um
ĠEx change
is ing
Ġhe lp
Ġdo es
ĠS ept
Ġnew s
end ing
Ġdeb t
om p
W h
Ġsp ok
Ġg et
Ġpre v
Ġmarket s
Ġag o
t al
k s
ro w
Ġch airman
F or
l es
Ġr ates
A L
The y
ver t
g ed
iz ed
ul ar
Ġde al
Ġre qu
um p
Ġinc ome
n ing
Ġy ield
f ul
Ġf ar
Ġ2 0
Ġspok es
Ġag ree
Th at
ert ain
Ġest im
Ġc red
Ġhig her
ĠC alif
as es
Ġp ublic
Ġde velop
Ġsh ould
Ġind ex
Ġsm all
ĠB o
ĠT r
re ed
Ġhe r
Ġf il
Ġde m
Ġanalyst s
ul l
Ġl ess
Ġ1 5
Ġle g
Ġsec urities
re as
Ġc apital
age ment
Ġiss ue
Ġs ystem
ord ing
Ġa ir
ire d
h old
w ard
ĠS ec
ual ly
t y
Ġd if
ĠB rit
Ġr a
Ġn um
Ġse ver
Ġreport ed
re t
7 5
Ġcomp l
Ġl arg
ust r
Ġinclud ing
at ors
ĠJapan ese
en se
Ġf ive
oc i
Ġfund s
Ġc ut
ers on
ain ed
e v
Ġg u
in s
ur ance
Ġ1 2
ect ion
ĠE u
Ġ ent
Ġne ed
Ġthe se
art ment
Ġann oun
ec hn
Ġbe ing
Ġ198 8
Ġf r
Ġh im
Ġproduc ts
A s
rib ut
ĠH ouse
Ġd el
ol og
e an
ist r
orp or
Ġf ew
Ġe v
Ġdec lin
g er
Ġc o
Ġp ast
al th
Ġbank s
h ip
l and
Ġh al
Ġem ploy
Ġpur ch
at t
os ition
Ġres p
Ġincre ase
ĠM ar
Th is
Ġre ce
Ġcontr act
Ġdid n
Ġth ink
un k
Ġre duc
l ing
ro l
Ġd uring
Ġs old
1 0
p r
Ġhe ad
Ġgen eral
% ,
Ġadd ition
i or
Ġsal e
Ġo b
Ġcomput er
r on
Ġcl osed
Ġfore ign
Ġp ut
Ġc ash
Ġg r
Ġbu ild
Ġh and
oll ow
t he
ĠEu rop
Ġw ant
Ġex t
u it
Ġp ost
Ġd ay
Ġre st
Ġle vel
in c
pp ed
Ġoper ations
Ġ198 9
o hn
Ġcomm on
I f
en e
Ġf act
Ġv ice
Ġw ay
Ġpl ans
Ġt er
Ġfut ures
A t
ee p
Ġwhe re
re et
Ġ198 7
Ġgrow th
reas ury
Ġan other
Ġn ear
Ġtrad e
j ect
t e
Ġop en
y ing
a z
Ġb oth
em b
Ġme et
Ġsec ond
at ely
Ġbro k
g est
Ġ1 3
Ġ1 1
Ġis n
Ġf ollow
im es
qu arter
Ġear ly
is ed
Ġth ough
Ġt urn
Ġthe n
Ġt ak
ĠS en
ag o
Ġm ain
Ġst ud
Ġcons ider
Ġstr ong
Ġiss ues
Ġcred it
are n
m ed
u f
ce ed
Ġlo ok
et er
el f
Ġsever al
p er
Ġ use
Ġc orpor
e es
Ġm od
Ġe ach
Ġr un
Ġtrad ers
Ġto tal
min istr
p ly
Ġ very
Ġs ix
Ġm ight
ap er
Ġwor ld
g et
Ġ '
Ġm ov
Ġre v
t il
Ġs im
Ġeconom ic
ro und
Ġc le
Ġm ove
ear ch
Ġcl ose
Ġpol it
Ġspec ial
ag es
Ġcomp et
y n
Ġo ur
' re
Ġo pp
ĠSt ock
Ġret urn
ĠA r
Ġc he
if e
ong ress
Ġus ed
iss ion
i ent
Ġa verage
t ing
Ġst e
Ġspokes man
ul ts
i od
ial ly
and ing
Ġadd ed
Ġcost s
U n
a id
ou th
read y
Ġf all
Ġd ist
Ġa ff
Ġc ent
ĠA ir
ĠE n
S t
on es
a im
Ġm er
A l
t en
Ġy en
ĠN ational
Ġs uc
as on
ĠA l
iz e
Ġst art
Ġ5 0
Ġpart ic
Ġw on
et h
Ġbel ie
w ay
ĠB ush
Ġd ue
ĠT reasury
Ġle ast
Ġp oint
uc tion
Ġpol ic
Ġdirect or
Ġnum ber
Ġt al
Ġw ar
Ġper iod
Ġoffic er
itt le
Ġagree ment
ĠM an
v est
am es
ĠC an
Ġcour t
The re
Ġl ate
Ġ1 4
Ġam ong
Ġbo ard
Ġbe g
Ġsh ort
ĠN or
ro duc
ĠM er
Ġsup port
Ġdoes n
Ġprev ious
at her
Ġal ready
Ġch ang
he s
Ġp h
Ġsa me
Ġb ased
Ġto o
ust om
oin ts
Ġ199 0
Ġc ase
un ic
Ġt el
Ġan t
Ġre venue
Ġres ult
Ġp oss
ĠC ongress
Ġcon f
ĠB ro
t ed
en n
Ġin fl
Ġp oints
Ġreg ul
Ġf am
Ġe very
ag ed
ĠSt reet
Ġacc ording
Ġend ed
uf act
b ased
Ġc a
itt ee
ĠG er
Ġag reed
Ġsub s
Ġo il
Ġ ed
Ġs ee
Ġst ake
Ġpro m
Ġexp ect
Ġass ets
e g
Ġfor mer
Ġval ue
d ers
r at
ate g
igh ts
Ġapp rov
S ome
ĠA ug
ĠG ro
Ġgo ing
Ġs en
Ġs et
ĠJ ohn
ĠA ss
Ġj unk
Ġ The
Ġf ac
Ġpres s
Ġlo ans
c y
Ġf ur
Ġsell ing
ĠBrit ish
c c
ĠS ov
Ġv ot
o ol
Ġr is
Ġc ustom
ical ly
ĠBo ard
tern ational
al e
Ġex change
ministr ation
r ad
in a
Ġm at
iv ed
Ġd am
ĠR es
ĠW est
ĠW all
ĠSept ember
ac tion
ir st
ter m
Ġne g
Ġhal f
ĠS an
ab ly
Ġse em
at h
Ġp erson
im in
Ġrec ord
Ġcall ed
Ġc ertain
Ġeconom y
Ġel ect
v ed
Ġp ower
iv ely
ĠR ep
is ition
Ġl ow
Ġst and
orn ia
Ġp osition
Ġun til
1 6
i er
Ġproble ms
echn olog
Ġs ett
Ġc re
Ġp ort
ing ton
es p
Ġpl ay
2 0
Ġo ld
us ed
Ġfir ms
at or
Ġin st
Ġoper ating
ĠGro up
c es
on y
end s
Ġman agement
Ġkn ow
Ġprop os
Ġa v
Ġl ittle
ĠCan ad
k e
ic ago
ĠM c
iv ers
ĠW ar
Ġres ults
r ies
Ġto day
Ġd rop
Ġre f
le y
ĠD ep
e al
ĠF ederal
iz ation
olum e
1 5
Ġ 0
Ġa round
Ġcomp ared
ure d
Ġim port
ent ial
Ġl i
th ough
Ġoff ice
Ġmak er
Ġtake over
v es
Ġcl aim
Ġcons um
Ġh ard
if t
Ġeff ect
e b
o or
as ing
Ġor der
ab or
ond ay
Ġag ency
i um
Ġc oll
Ġin stitut
Ġind ic
Ġall ow
Ġoffer ing
ĠCalif ornia
3 0
Ġs w
Ġproduc tion
e f
ers hip
Ġwhe ther
Ġs er
Ġbuy ing
id ed
am ed
ĠIn ternational
Ġcont rol
ĠCh icago
Ġhow ever
Ġdif fer
Ġl im
Ġn on
Ġins urance
Ġdem and
Ġp ar
Ġl arge
ĠD ow
Ġcount ry
n ed
n ess
Ġann ual
aren t
Ġh op
ĠM onday
us s
Ġacc ount
a ff
res ident
Ġloss es
a ve
Ġto p
ce pt
ĠSec urities
. )
Ġh ome
Ġpro t
Ġpr iv
e ed
l ess
Ġr ight
Ġincre ased
ĠJ ones
Ġcontin ue
Ġs om
ĠG en
ĠU AL
w ork
Ġt est
ort g
Ġl oc
Ġg ain
Ġrep res
Ġf ail
Ġd ro
ess ion
Ġqu est
ĠN ov
Ġcorpor ate
ĠAug ust
Ġlik ely
Ġfur ther
Ġs eek
Ġpl ant
Ġshare hold
Ġrecent ly
7 0
ĠC on
uc k
Ġcl os
Ġacqu isition
h or
ond on
Ġm ust
end ed
Ġexp ects
Ġsubs id
is m
Ġr ul
ĠP h
Ġm ed
ĠL t
Ġdeclin ed
Ġl ine
On e
u ff
Ġt e
el s
Ġcompl et
ĠFr anc
E R
s p
Ġl at
Ġch arg
W hen
g ress
Ġwith out
Ġdec line
Ġk eep
Ġpolic y
ĠAss oci
ĠLt d
r up
Ġman ufact
Ġweek s
Ġar t
Ġret ail
ĠS h
isc o
Ġsen ior
Ġm ag
k ed
m ical
y p
at a
Ġf ig
Ġv iew
Ġproduc t
Ġhe ld
3 2
os ite
ĠH e
Ġ2 5
Ġm emb
Ġdr ug
ĠSov iet
ur al
Ġinv ol
Ġannoun ced
Ġbeg in
iv id
Ġd om
ud ge
Ġnot es
Ġwe ak
Ġsl ow
Ġpolit ical
re l
echnolog y
ĠDep artment
e ad
Ġact iv
Ġcle ar
Ġb as
Ġcom ment
Ġstr ateg
i am
un e
Ġlarg est
Ġm ark
is l
Ġbec ome
1 9
Ġb ene
oun ts
ough t
isc al
Ġb re
Ġm ach
ĠM in
Ġhe re
Ġinter n
Ġrem ain
Ġcom e
ir on
Ġmak ing
o ff
v ing
Ġn ation
ĠF in
ĠL ondon
ĠSt e
str uct
o res
mer c
id es
Ġg ive
em p
Ġch ange
w h
er ed
Ġm et
ou p
Ġre fl
Ġn ine
Ġ1 00
Ġexecut ives
Ġproble m
v ers
oc rat
ĠT ex
Ġad vert
Ġexp l
merc ial
ip s
Ġserv ice
st anding
ag u
Ġhe alth
ĠW h
ep h
a u
Ġf iscal
iv en
r ing
Ġp ass
ĠW ash
b it
is hed
ĠC ar
Ġ1 8
Ġfin d
c her
il i
Ġl ot
ot i
Ġv olume
ĠR ober
Ġad ministration
Ġd ou
Ġbe gan
Ġres earch
ĠInd ustr
Ġlat est
4 0
en ed
Ġf ound
ig ation
Ġsh ar
ul ation
Ġare n
Ġserv ices
c ent
Ġm il
Ġin form
Ġexp er
Ġs ug
Ġm y
om an
ir c
ĠP resident
Ġleg isl
an e
Ġp aid
Ġam ount
ett ing
ivid ual
ĠM or
ĠS outh
iv ing
t o
Ġn ational
ur ity
ĠB ig
amp le
Ġex ample
ĠFranc isco
Ġt ro
ĠD ec
Ġor ders
ud get
Ġear th
r is
Ġhe av
if ied
Ġme as
Ġdiv id
Ġpurch ase
y o
at ch
Ġto ok
ĠS p
ch ool
g el
Ġw rit
Ġ1 6
ĠSen ate
b y
Ġs ing
Ġmeet ing
c l
m ost
Ġ {
Ġfut ure
t ain
Ġf ull
Ġj ob
Ġprop osed
it her
ic it
ĠF ed
Ġnear ly
o ok
Ġin it
Ġth r
Ġfor m
ĠL e
Ġpl un
Ġemploy ees
Ġdro pped
Ġ Q
Ġp ot
Ġl ater
Ġpro cess
ap s
ĠT el
Ġsp ending
ĠWash ington
u ly
ro ve
Ġbet ter
unic ations
Ġm id
Ġre ad
ac ts
Ġr ise
ĠP et
ĠOct ober
Ġdel i
ĠTex as
it ive
Ġbusiness es
c hed
Ġh our
Ġl ife
od y
Ġposs ible
Ġmemb ers
r ial
ign ed
Ġdisc l
or m
Ġneg oti
b ack
Ġpartic ular
Ġc ame
ac hed
Ġcom mercial
ear s
em ocrat
Ġ4 0
Ġlo an
Ġbrok er
p h
ĠF irst
ok yo
Ġpre d
Ġrepres ent
Ġs uit
Ġwork ers
ĠEurop e
Ġearth qu
Ġind ividual
lin es
Ġpropos al
E C
Ġg l
Ġg ot
Ġen g
Ġinclud e
c ast
er ate
Ġc rit
Ġb ar
it or
Ġm ortg
ur t
Ġcomp osite
Ġhas n
Ġc over
Ġinvest or
Ġbene fit
f ic
f ol
m on
Ġn amed
ot t
Ġtr ying
e or
v iron
er ve
Ġc ol
Ġlaw y
Ġestim ated
em pt
ip ment
Ġother s
Ġrece ived
8 0
Ġb est
Ġg as
Ġpro b
Ġv ol
Ġprogram s
Ġsuc cess
ac ific
ab ility
Ġpric ed
Ġdec ision
c he
i ents
Ġs ol
ut ion
Ġest ate
ar m
ro ss
ĠM ot
Ġg re
Ġg ains
Ġcon d
Ġv ent
Ġoffer ed
Ġbl ack
Ġste el
Ġinfl ation
Ġcustom ers
i ary
j ust
ent ion
un ity
viron ment
in t
an n
Ġre struct
est ic
Ġar g
Ġprop ert
) ,
Ġof ten
Ġal most
Ġch arge
1 2
g ing
ĠA d
Ġtrans action
Ġmag az
Ġearthqu ake
S o
Ġp at
Ġp aper
il ar
ep ar
Wh ile
Ġfil ed
Ġchang es
Ġris k
Ġ1 7
ĠE l
Ġindust rial
W ith
y s
Ġto ld
ec h
ur s
ch ang
ĠR e
Ġso ft
is ter
u ing
Ġc ap
al d
Ġ3 1
Ġout standing
ues day
ĠAmeric a
Ġnet work
Ġbuild ing
er ing
ĠB r
Ġ( $
Ġen ough
Ġhold ing
Ġbro ad
Ġcurrent ly
Ġt imes
il ities
Ġy et
Ġare a
Ġfinanc ing
c o
Ġl et
orn ey
ĠRober t
p ut
or ies
ĠT okyo
Ġab le
ĠWar ner
Ġloc al
Ġl ist
ĠS erv
Ġpl ace
Ġwould n
ĠGen eral
Ġsug gest
H ow
ro ll
ĠB l
Ġwh ose
ĠD emocrat
Ġqu ot
g es
Ġ Z
ĠJ une
ĠJ uly
ĠG r
oun ter
Ġbo ost
Ġdollar s
l er
or row
Ġwith in
6 0
t ime
Ġs k
Ġwas n
Ġj oint
Ġne ver
Ġpriv ate
Ġh app
ĠC omp
Ġon ce
Ġy our
Ġcont ribut
ĠAssoci ation
A T
it ing
al es
id ence
Ġl ost
os p
Ġ19 7
Ġprov ide
Ġaut hor
Ġmanag er
ĠEurop ean
Ġimport ant
a i
m ak
Ġa way
Ġs ent
al ity
is on
as ter
ĠP ar
ĠT uesday
Ġfour th
Ġbre ak
Ġinform ation
th ing
Ġdiv ision
Ġmanag ers
ivers ity
1 00
i ence
iv al
ific ant
Ġdam age
Ġl a
le ment
ot s
Ġaddition al
r act
Ġth ings
ĠM ich
ap h
ret ary
rup t
' ve
is ions
5 00
w ays
Ġcontr acts
Ġrequ ire
Ġp ack
Ġre ason
le x
ĠT V
our n
Ġle ft
ĠNor th
g y
st ant
ĠE ast
Ġqu ick
Ġso on
Ġbel ow
Ġaut o
A fter
Ġc are
Ġc irc
Ġw id
ĠC apital
our ces
str uction
wh ile
anc es
Ġmak es
Ġfollow ing
Ġb udget
Ġp ubl
Ġal le
ĠD av
Ġac tion
ĠIn vest
Ġcontin ued
ĠGer m
Ġconsum er
Ġsing le
a h
n ers
Ġs it
Ġs um
Ġc oup
ore d
our t
Ġintern ational
4 5
s ide
u ge
Ġbe h
Ġcon v
op p
Ġcould n
Ġsc hed
ĠUn ited
Ġquest ion
) .
k ing
r ill
ĠM s
and s
sh are
Ġequ ity
Ġperson al
Ġport fol
bit r
a ul
Ġf ree
Ġd eter
ĠG re
ĠR ich
ĠCh ina
ĠAn gel
Ġbelie ve
Ġstand ard
Ġc ity
ĠS he
ric t
Ġ2 6
ester n
Ġsim ilar
1 1
at ives
en ing
Ġl ed
ill iam
ĠC ont
ĠB ar
Ġcr ash
ĠComm ission
Ġf ace
ic le
ost on
Ġcons ult
A m
Ġm arg
us p
Ġmarket ing
Ġ2 00
Ġcharg es
B M
i ol
n es
ĠC ol
ur ers
Ġg reat
Ġj ump
Ġmak ers
1 8
Ġt yp
ĠG eor
ĠO r
ĠUn ion
Ġra ise
Ġter ms
Ġsubsid iary
r al
er y
Ġpr act
Ġsharehold ers
Ġc amp
Ġf ood
Ġun ion
ĠE d
ix ed
Ġr ights
Ġun its
ĠJ ames
Ġop tions
ord in
Ġper cent
ens ion
Ġdef icit
Ġcall s
ib ility
Ġsign ificant
Ġav ail
3 5
T o
ar ing
Ġh ouse
Ġfor ce
ĠB oston
Ġimp rove
Ġbig gest
Wh at
ar ily
Ġh it
Ġh ous
ill s
ĠC l
Ġpre fer
Ġincre asing
Ġcomput ers
eph one
u ation
he ad
Ġo vers
Ġb ad
ĠS c
Ġab ove
Ġ6 0
Ġsl ight
Ġstate ment
Ġequ ipment
agu ar
C h
at s
ĠM ay
Ġg etting
Ġpro f
Ġpro ject
Ġde v
Ġits elf
ĠD e
Ġ5 00
Ġclaim s
Ġpot ential
ĠAngel es
Ġd et
Ġe as
ĠL os
Ġtak en
Un der
Ġfam ily
fic ult
L ast
M any
R e
T C
he re
ĠS e
ĠB e
Ġdisc uss
Ġdevelop ment
Ġdif ficult
Ġdom estic
Ġcond ition
d en
er ies
Ġs chool
Ġs usp
Ġb ase
ac ed
Ġatt orney
O N
Ġf av
Ġp op
Ġre b
ĠP ol
ist ic
anc ial
Ġint roduc
Ġass oci
Ġdef ense
ev ision
ourn al
2 00
Ġc op
Ġb ought
Ġre d
ac y
Ġg old
Ġv ia
Ġad just
Ġpre p
ĠCh airman
ater ial
Ġtal ks
b ia
d own
is es
im b
Ġr ather
Ġun c
ĠW ed
Ġpre t
Ġper for
Ġleg al
C I
i pp
Ġre ached
ĠF l
man ce
Ġadvert ising
9 0
w are
er c
Ġd ata
ĠP r
Ġexp ens
Ġinclud ed
Ġdep artment
M ore
Ġt echnology
ar ant
un g
Ġcom b
Ġas ked
erv es
Ġapprov ed
Ġvol at
o on
Ġst ri
Ġch ild
ep end
Ġ198 6
Ġbank ing
Ġbill s
Ġte am
g a
at ory
or ld
Ġw in
ĠC ity
ĠA m
ĠA t
ĠD el
ri ed
Ġen vironment
Ġl abor
ĠC he
ol e
Ġcon vert
ĠG old
ab l
Ġlevel s
Ġdiffer ent
Ġprob ably
I N
ĠS ystem
ce ment
ort ion
Ġv ar
ĠU S
Ġar bitr
enc es
Ġeff ort
ĠMar ch
Ġreduc e
Ġfig ures
Ġrestruct uring
Ġre n
Ġsay ing
Ġbo ok
Ġavail able
Ġ ide
on ald
Ġcon struction
Ġpost ed
How ever
a ign
g l
Ġw ent
ec ially
if y
ĠL aw
Ġme an
Ġdes p
1 3
B y
N ow
O R
Y ou
Ġp arent
ac he
ĠS w
Ġv is
Ġor gan
ĠGerm any
n e
Ġ #
Ġ esp
Ġt end
it ary
Ġh ist
Ġre le
Ġn at
ĠF ord
Ġfin ance
ra ft
Ġcount ries
ĠCanad a
Ġperfor mance
a el
c rib
Ġg iven
ĠJ an
Ġrep orts
Ġkn own
Ġnews p
Ġdivid end
b e
Ġo cc
ear lier
Ġac cept
Ġse ven
Ġsup p
Ġair line
att le
med i
mon th
Ġe mer
ud e
Ġnot ed
Ġpred ict
r ay
re c
Ġe ver
Ġpro j
her n
ĠIn stitut
ip al
Ġcl ients
ĠK ong
Ġinter v
fer ence
Ġsystem s
ĠWh ite
d r
er en
Ġc anc
Ġp il
ĠC ourt
ĠM arket
Ġst ep
Ġcom ing
ĠL yn
Ġpre m
Ġapp ro
Ġincre ases
Ġprofit s
Ġeff orts
Ġhold ers
Al though
eth ing
ĠCanad ian
1 7
A N
S ales
o ot
Ġp an
Ġst aff
Ġlaw s
Ġcar s
Ġant i
Ġdesp ite
u ary
an ch
Ġc ases
Ġm aterial
The se
itt ed
Ġatt empt
Ġapprov al
Ġlegisl ation
Ġbroker age
Ġsched ul
Ġcamp aign
E S
ĠS m
im um
ĠH ar
ĠH ong
ren ch
Ġbuy ers
Ġbl ock
Ġesp ecially
1 4
r ist
Ġt arg
er ation
Ġst ates
ĠS al
Ġv iol
Ġch ar
Ġ2 2
Ġgroup s
Ġpay ments
Ġresp ons
Ġvent ure
S he
e as
w rit
Ġw eren
Ġth reat
ĠUn iversity
Ġacqu ire
olum bia
Ġdist ribut
Ġprevious ly
Ġpercent age
m arket
Ġ ill
Ġe ither
ut er
In d
um b
Ġ2 4
anc ed
Ġfe el
Ġhelp ed
ĠFin ancial
Ġportfol io
o id
Ġa uction
Ġd en
Ġre pl
ec ess
Ġg ained
Ġsa f
ĠA s
Ġal ong
all ed
Ġk ind
Ġinterest s
orn ing
Ġrem ains
Ġli qu
Ġmortg age
Ġmagaz ine
O ther
ect or
ect ing
ub er
port ation
ish ing
Ġcurren cy
ĠComm ittee
Ġpress ure
Ġparticular ly
Ġslight ly
u el
Ġw a
st on
el ves
Ġcomm ittee
Ġwork ing
Ġacqu ired
Ġlead ers
Ġcomplet ed
B C
y l
Ġre ally
Ġn ame
Ġproduc ers
Ġus ing
Ġgrow ing
Ġsuc ceed
Ġmark s
w ide
ill e
ĠJ aguar
ĠW illiam
Ġrel ated
Ġra ised
ĠAir lines
Ġdou b
Ġheav y
E ven
Ġh uge
ĠS a
ĠP art
ĠD r
ĠW orld
ĠK ore
av el
Ġestim ates
Ġfail ed
Ġplun ge
nes day
5 5
Ġ ur
Ġs uff
at ively
Ġf oc
is ers
Ġto ward
Ġd oc
un ch
ap e
Ġcl ass
Ġrec over
Ġlook ing
Ġtel evision
ĠGer man
Ġelect ron
Ġsom ething
M ost
u le
it ors
Ġth ing
Ġpro ceed
ver aged
am a
ĠP acific
Ġind epend
ĠI s
ail y
Ġtak ing
Ġpartic ip
r ate
Ġ ve
Ġs epar
il t
ĠS up
Ġal though
ĠP L
con t
Ġstrateg y
ĠLyn ch
s erv
in ed
Ġro le
ind ex
Ġsur pr
Ġche mical
Ġeng ine
ĠDav id
a q
Ġp ound
as tern
ĠC om
Ġj oin
Ġown s
Ġbr ing
Ġpropert y
i ans
ĠC ent
ve y
am b
ĠP ro
ĠD re
Ġk ey
Ġregul ators
8 5
p ro
ent ly
ĠW estern
ist ing
Ġj udge
ugh t
Ġstr uct
Ġdirect ors
Ġlead ing
ustr al
' m
J apan
b all
s elf
u ments
st er
ell s
oun g
ress ed
Ġsup ply
Ġgood s
rupt cy
Ġfav or
m ing
Ġs oc
Ġcon gress
art ers
Ġstart ed
ĠRep ublic
Ġseek ing
N ew
p oint
Ġw ants
Ġst ren
Ġst ores
Ġlong er
ĠBrit ain
Ġev ent
Ġinstitut ions
c k
e ak
k in
v ille
Ġf re
ĠS ony
ĠA ustral
wo od
rop ri
Ġpr im
Ġplan ts
Ġest abl
Ġthr ift
Ġdiscl osed
Re venue
ĠWed nesday
Ġschedul ed
2 2
P ro
o f
Ġthe ms
ac tions
Ġpro s
ĠA g
Ġtr ust
Ġha ving
our ce
Ġcour se
Ġaut om
Ġseem s
Ġrul es
Ġmanufact uring
Ġthems elves
i ant
ar son
ri z
Ġiss ued
enc ies
Ġsub stant
Ġatt ract
Ġconcern s
Ġgeneral ly
Ġmeas ure
Ġlawy ers
Ġinterv iew
Ġstren g
l ant
as k
Ġd one
Ġh ot
om en
Ġe ight
ain ing
Ġv ict
Ġacc ounts
Ġar r
Ġgu arant
pr il
ĠCon n
Ġhour s
Ġquick ly
A ll
n ey
id el
ain e
Ġthough t
p ress
Ġ er
re m
id ge
ut es
ĠM ass
Ġr at
ĠP an
iz ing
Ġdep os
Ġturn ed
Ġcompet ition
Ġvot e
Ġactiv ity
ĠIndustr ies
Ġshar ply
h aps
s et
Ġa ud
Ġa head
Ġn ight
ir ing
ĠA pril
ag ing
um an
Ġ2 1
Ġ3 5
Ġout side
Ġdis app
Ġdo ing
Ġrel ations
ean while
Ġreduc ed
Ġbas is
ĠRich ard
Am ong
2 3
he l
os ing
ain t
Ġres erves
li ed
Ġimp act
Ġopp ort
Ġinvol ved
Ġmil itary
B S
Ġ ut
ic ip
Ġl ight
Ġun s
Ġsub ject
Ġinclud es
Ġdisc ount
Ġmin or
Ġconsider ed
Ġtro ubl
f ord
i res
it z
al t
Ġl ack
ĠC olumbia
ĠM ed
Ġ2 3
Ġinvest ments
Ġim medi
Ġpr inc
alyst s
iet y
ĠPL C
M eanwhile
o ice
Ġf ri
ĠS un
ĠS eries
ĠF rench
Ġab ortion
Ġimp rov
Ġdeal ers
Ġneed ed
ĠEl ect
Ġliqu id
' ll
m en
x el
Ġt reat
or b
Ġf ast
Ġp ick
Ġex c
Ġr ange
Ġtr y
Ġal ways
gr aph
ĠFr ank
Ġdes ign
ĠTr ust
Ġlarg ely
ĠMer rill
ĠF und
Ġcl imb
Ġse en
Ġapp ear
Ġass ist
Ġestim ate
Ġstud y
Ġca used
ĠMor gan
ĠInstitut e
S h
b ody
Ġb orrow
Ġf ield
Ġh urt
Ġtrad ed
Ġadd s
An alysts
Ġprom ot
ĠQ u
urs day
Ġarbitr age
6 5
A meric
d ing
Ġst at
ĠA f
ĠNew s
Ġen c
c tion
Ġt echn
Ġc al
ac ity
Ġare as
ĠMr s
ther s
Ġcent er
Ġser ies
mak ers
a e
k n
Ġsa v
ĠB ay
ĠI R
ren d
Ġapp arent
rough t
ĠRes erve
ĠSm ith
b ur
i ec
et y
ig in
ĠJ ust
ĠG M
Ġ2 8
ĠI BM
Ġse ason
Ġapp e
Ġ4 5
Ġplan ned
Ġlead er
Ġrest ric
Ġw r
Ġle veraged
ug g
Ġ8 0
Ġfr anc
rel ated
ĠMot or
Ġc or
us es
ber t
Ġcar ri
Ġrev iew
Ġtel ephone
Ġbegin ning
ĠIndustr ial
Ġsit uation
Ġdet ail
A cc
a ult
m ark
st ate
Ġrec ession
Ġro om
Ġwor th
Ġcontin uing
Ġshow s
Ġsett lement
Ġjump ed
Ġproj ects
Ġve h
Ġa id
Ġm en
ur ch
Ġde ath
Ġha ven
Ġpart ner
Ġme ans
ĠTh ursday
Ġfil ing
Ġinst ead
Ġser ious
Ġlim it
Ġindepend ent
h am
i ation
u x
Ġs qu
Ġf ight
Ġm ass
om ing
Ġl ines
Ġcon ference
ĠB usiness
ĠJ ournal
Ġbec ame
Ġproduc e
ik e
Ġunder writ
Ġrequ est
Ġbrok ers
Ġmer ger
ĠMich ael
C omp
h ing
Ġs ure
Ġw ord
Ġm orning
Ġh om
Ġl and
ill ed
Ġst op
Ġor igin
ĠE astern
Ġearn ed
Ġfl oor
Ġopen ed
Ġsim ply
emp or
Ġprem ium
Ġ `
Ġs ession
ar s
Ġj ud
ood y
Ġsur vey
Ġsmall er
Ġcre ated
Ġdeli very
in ation
Ġs at
ĠS ch
Ġper m
ĠFr ance
Ġown ed
Ġshow ed
Ġfe es
Ġrequ ired
Ġpar ts
ĠPh il
ĠServ ice
E D
Ġpro sp
ĠB er
if f
ĠG uber
Ġpres ent
Ġany thing
ĠV al
Ġact ive
Ġtax es
ĠPet ers
Ġcol le
Ġsum mer
Ġprefer red
Ġprof ess
Ġvolat ility
3 7
A S
E x
b or
Ġf ixed
Ġp oll
Ġd aily
Ġst ay
Ġr ally
Ġv ers
Ġdef end
Ġed itor
chang ed
Ġtarg et
ĠDre xel
Acc ording
Ġf ul
Ġre j
Ġn ecess
Ġsp l
Ġtrad er
ĠSt ate
Ġcomm ission
Ġmajor ity
Ġcar ry
ĠTr ans
St ill
Ġchang ed
Ġhist ory
3 00
N C
k er
s c
w oman
Ġt ons
Ġa im
re w
Ġs ide
un t
ĠP aul
ri or
Ġrece ive
Ġlim ited
Ġhop e
Ġhop es
2 8
4 8
9 5
B oth
Ġa p
et o
ol ution
ly ing
all en
Ġro ll
Al so
Ġed uc
o an
s w
u its
Ġt ell
Ġt rend
on se
Ġp ush
Ġre ach
ut y
Ġwh y
iv il
em ic
ĠJ r
oun c
Ġsp ace
Ġ2 7
Ġus ually
ĠInd ex
Ġannoun cement
Ġresp ond
Ġclos ing
Ġclos ely
Ġfranc s
C O
Ġw ater
ĠS av
Ġbank ruptcy
Ġfl at
ĠTh om
Ġant icip
Ġcrit ic
Ġcap acity
Ġlet ter
Ġcondition s
Ġchild ren
ĠSystem s
Ġsav ings
2 6
2 7
in n
id der
Ġn orm
Ġtrad ition
Ġproduc ed
ĠDec ember
ĠShe arson
Ġnat ural
T r
n ership
Ġ ident
re me
ic o
ut e
le ar
us ing
ĠA pp
ĠN av
Ġac ross
Ġnot e
Ġcons erv
Ġen er
Ġinit ial
Ġbenefit s
Ġstri ke
T rad
u ment
Ġb an
Ġn ar
ol id
um e
all s
Ġexp and
Ġout l
Ġdec ided
ĠCh rist
Ġprev ent
Ġspokes woman
Ġpil ots
S ince
U S
h man
m et
w ell
ec ause
ect ive
Ġag encies
Ġrec omm
Ġ198 5
ĠEx press
Ġ199 2
Ġprov ision
Ġtrans actions
app ed
Ġev idence
Ġwant ed
Ġext ra
Ġfollow ed
Ġart icle
Ġdou ble
e ff
Ġc and
at ic
Ġin f
ur er
Ġfor ced
ĠM on
ĠM ac
us ion
ĠIn ter
Ġ2 9
Ġbu ilt
Ġpart y
air s
Ġsc r
Ġmin imum
Ġent ire
Ġnewsp aper
Ġcongress ional
Ġpros ecut
3 6
4 00
N ot
Ġb al
Ġm ember
id ing
Ġcom es
ag an
Ġsh ip
ak er
ĠH ug
Ġfin al
Ġ7 5
Ġdirect ly
ĠAn d
Ġbelie ves
Ġprot ection
Ġmed ia
H is
f ort
h ib
y m
Ġs yn
Ġp le
Ġm ar
ic ient
as ts
ut ual
Ġr ising
ĠH ut
Ġass et
Ġpur s
ĠEn ter
Ġmat ter
Ġshar p
Ġovers eas
' d
3 8
a ur
n s
Ġw omen
el t
Ġwh ole
Ġun changed
Ġv eto
ĠG u
Ġtrad es
Ġdis put
Ġcomm it
Ġ199 1
Ġfe at
Ġreturn s
Ġsharehold er
Ġquot ed
1 25
4 7
l ic
Ġs n
Ġf air
Ġm om
Ġg ave
ĠA verage
ĠB ell
ĠJ udge
Ġch allen
ric e
ie ga
Ġsc ient
Ġcontin ues
ĠComm unications
Ġyield s
Ġmod est
Ġav oid
Ġsoft ware
Ġsepar ate
2 9
d le
g ers
o x
re p
Ġs ize
Ġb attle
Ġm ot
is er
ou is
Ġh ost
ĠC amp
Ġg ame
Ġsp read
Ġdec l
li ke
Ġmin utes
Ġresp onse
Ġcredit ors
Ġmer ch
Ġconf ir
ĠBro thers
Ġinstitut ional
Ġbeh ind
Ġconvert ible
ounc il
Ġb it
Ġb rought
ar ies
ow s
Ġtr ial
Ġch ain
Ġnot hing
own ed
av ing
Ġoper ation
Ġdes igned
Ġdeclin es
Ġter m
St ock
Ġinst ance
Ġeffect ive
ĠHe alth
roll ed
Ġunc ertain
on n
Ġs ense
Ġs ector
Ġr ad
Ġexp ort
Ġeconom ist
ĠMer c
ĠMc C
Ġallow ed
Ġquest ions
ĠJust ice
E ar
c r
g ia
t el
Ġto get
Ġcomp ar
Ġwill ing
Ġexp orts
Ġqu ality
ĠCh ar
Ġret ire
Ġact ual
Ġsign ed
Ġdel ay
Ġhand s
Ġconsum ers
Ġenvironment al
Ġenc our
Ġtoget her
I ts
d ic
r ight
s urance
y c
he st
re am
Ġp rior
ic les
Ġl it
ĠS EC
ap ers
em s
ĠG l
Ġad m
Ġsp ent
Ġsp ring
Ġinv ent
ber g
ĠSt an
Ġdr aw
gan ization
ful ly
Ġrun ning
ĠMan agement
Ġmach ines
cher s
ĠLe hman
Ġalle ged
Ġintroduc ed
Ġide a
Ġener gy
N o
Ġt empor
Ġc ounter
Ġb ott
om on
ent al
ill ing
ĠC D
ir t
In vest
ul ated
Ġal tern
ist ry
ub le
Ġ198 0
Ġse g
og n
Ġimp orts
Ġel imin
Ġact ually
Ġspec ific
ĠSec retary
eb r
ĠGeor ge
? "
i os
Ġa ge
in o
Ġw ays
Ġf ear
Ġm iss
Ġin j
ro ad
ĠM os
Ġy oung
Ġr um
ĠP l
Ġoff ers
Ġab ility
Ġbr and
ĠTh at
Ġrul ing
Ġcontribut ed
Ġexpens es
ĠAf ric
3 3
h ouse
n ot
in ter
er ous
Ġc ivil
Ġp ers
Ġm ult
ur b
est ate
Ġex erc
qu e
Ġapp ropri
Ġpay ing
Ġmov es
Ġposition s
Ġactiv ities
Ġmach ine
ili ar
cast ing
Ġgre ater
Ġful ly
a f
on a
Ġsp end
Ġqu ake
Ġoffic es
ĠAmeric ans
Ġrel atively
Ġhim self
Ġmain tain
ĠNor iega
ĠAt lant
Ġvar ious
ĠSup reme
F irst
g ains
r an
Ġw age
Ġp oor
Ġm is
om b
ent ures
ur ric
Ġst ory
ĠA riz
ĠB rad
Ġwh ite
Ġr ule
ak es
Ġab s
Ġinvest ig
Ġgro und
Ġper haps
Ġ9 0
Ġcut s
ĠEn g
roduc ts
Ġcustom er
osp ital
Ġmarg in
ĠJan uary
Ġdisapp oint
4 2
Ġc orn
Ġhe ar
ĠP ark
ĠP eter
Ġde als
if ts
ĠL a
ans ion
Ġpart ly
itt ing
Ġatt ribut
Ġadv anced
Ġneed s
Ġopp osition
Ġinfl u
esp ite
chang es
More over
Ġapparent ly
B ecause
b ber
ic ial
et ro
Ġe y
ĠM ex
os es
qu arters
ack s
mer ce
und red
Ġsec urity
Ġpay ment
Ġmov ed
ĠRes earch
Ġdeli ver
Ġpop ular
ĠLaw son
5 8
8 75
Y esterday
b r
c ounter
c raft
e in
g ency
Ġt w
Ġc e
Ġb en
is her
Ġh uman
ol n
ig ital
ce p
Ġex changes
Ġtr avel
op h
Ġdec ade
Ġ7 0
Ġquarter ly
Ġfar m
Ġfam iliar
Ġfri end
4 9
T V
m ber
t r
Ġ z
Ġl ear
Ġl ink
ell er
ĠH old
Ġoff set
all as
ĠO ff
Ġreg ard
ove mber
Ġhold s
velop ment
inc oln
Ġopen ing
Ġcent ral
Ġwar r
ĠDemocrat ic
Ġpret ax
Ġsaf ety
ĠSav ings
4 3
D espite
S outh
c ome
p ay
Ġc ause
ro om
Ġd ate
Ġg iant
ĠS im
Ġr ap
ul f
ĠL ouis
ĠH ol
od ity
Ġres igned
ĠI I
Ġpre c
ang u
ra ud
Ġbl ue
Ġindic ated
Ġfig ure
ĠServ ices
Ġpack age
Ġimprov ed
Ġwr ong
F r
n oon
Ġb ri
im ate
ĠA c
ag on
Ġex ceed
Ġal one
ĠT imes
Ġle ave
Ġop tion
Ġro ugh
Ġproduc er
Ġacc ess
ious ly
Ġtal k
ĠRe agan
Ġwid ely
Ġcanc er
ĠElect ric
ĠHut ton
urric ane
. -
f r
h io
Ġb ur
om in
et ary
ĠS oc
Ġdis p
Ġapp eal
ult ure
Ġam ounts
Ġreg ional
Ġel se
Ġprov ided
Ġprov isions
Ġcr imin
Ġtak es
Ġnegoti ations
Ġmarg ins
ache v
Ġstreng th
Ġvict im
Ġnar row
Ġcand id
1 50
P eople
W est
c are
d aq
f ield
h att
l et
Ġc at
as daq
Ġd i
ou ts
ĠT or
orb achev
Ġspl it
ĠHug o
hatt an
4 6
G M
z en
er ated
or th
Ġp iec
Ġm us
Ġm em
et imes
ĠF or
ĠL incoln
Ġad op
pp ing
ip le
Ġres ear
Ġunder st
Ġhigh ly
Ġmanag ing
Ġhead quarters
Ġcle an
Ġlawy er
Ġhous ing
Ġappro ach
2 1
A d
a ment
or ing
Ġb ure
Ġm utual
Ġin str
Ġh undred
Ġfor ces
Ġcon duc
Ġv ac
Ġch ance
ĠIn surance
Ġbank ers
Ġadd ing
ens ive
oy d
Ġhold ings
Ġdist rict
ĠMan hattan
Ġcre ate
Ġjob s
Ġfoc us
Ġrej ected
c alled
z e
Ġb us
Ġw atch
Ġm ind
ĠC BS
ĠM ach
ĠB anc
am m
ĠN ovember
out hern
Ġpl ast
Ġres ident
ok e
Ġpart nership
ecut ive
Ġsub ordin
Ġeconom ists
Ġfl ow
Ġob l
Ġph one
ĠMot ors
ĠInvest ment
ĠChe mical
Ġclimb ed
ĠIR S
Ġmom ent
b u
k i
o il
y ond
Ġto ugh
ad ed
ĠM oody
The n
ĠB ut
Ġde ad
ĠG orbachev
od e
ard s
ĠK e
Ġper form
We bber
Ġdes crib
Ġpolic ies
Ġprom pt
Ġexpect ations
Ġwrit e
Ġstandard s
Ġreb ound
ĠKore a
aine Webber
Americ an
ĠStan ley
S en
b ond
d e
k y
v ent
Ġs el
il ing
Ġre in
Ġex cess
ĠN asdaq
Ġun us
Ġ3 7
ĠO TC
Ġapp ears
Ġsec retary
Ġdeb entures
Ġspec ulation
Ġprov ides
Ġval ued
Ġco op
Ġtotal ed
Ġelect ric
Ġref in
ĠDemocrat s
c om
Ġs ound
Ġb ull
im ately
Ġex isting
ĠN o
ĠT ime
Ġun f
ĠD allas
Ġgo es
Ġweek end
ific ation
Ġfr anch
Ġev ents
Ġconsider ing
Ġmed ical
Ġremain ing
Ġdivid ends
ĠGold man
ĠSal omon
ĠCom merce
8 7
T wo
o o
o graph
p an
Ġw oman
Ġan sw
Ġl end
Ġsh ut
ew here
Ġad s
ĠO hio
Ġwork ed
omm unications
Ġplan ning
Ġdeb ate
Ġbid s
Ġdevelop ed
Ġra ising
Ġmov ing
back ed
Ġbar rel
ĠGre en
Ġben ch
6 6
A b
B O
h i
r acy
y le
er o
Ġo un
ic ro
ou ston
ĠC ount
ac ter
th ird
Ġexp ansion
Ġres ign
Ġhad n
Ġapp oint
Th ose
Ġafter noon
Ġtrans portation
rov ers
Ġlarg er
Ġpurch ases
unic ipal
ĠBro ad
Ġregul atory
Ġheav ily
Ġprep ared
Ġsoc ial
ĠAustral ia
Ġcal c
Ġcarri er
Ġbri ef
C A
J R
n ight
v y
w est
Ġp ence
al ty
ic a
us hed
Ġsa w
Ġsp eed
Ġcont rovers
ĠI tal
Ġint ell
ĠK idder
ov ers
Ġwork s
Ġconc lud
ood s
Ġel ected
Ġhig hest
Ġfac ilities
Ġpass ed
Ġmeas ures
Ġconsult ant
dr aw
ĠThat cher
e ing
l aw
l ett
re g
Ġb all
Ġf un
Ġp s
Ġre or
ut ical
ĠA ct
ak ing
op s
Ġag gress
Ġdis m
Ġover all
Ġ4 4
An other
Ġreg ion
Ġspec ul
Ġadv ant
ĠTr ade
Ġrefl ecting
Ġgre w
opp ing
Ġocc ur
Ġelectron ic
2 4
R I
b ers
g in
o h
Ġp ict
al f
Ġm ail
as ons
Ġth ous
st ead
Ġg iving
Ġbe yond
ch ie
ĠR ock
Ġrec ogn
Ġ198 4
Ġ5 1
av es
ach s
Ġown ers
Ġmost ly
Ġair craft
Ġfact ors
Ġcompet itors
Ġdom in
ĠSte el
Ġtro uble
Ġinit i
int ex
ĠComp uter
Ġhous es
ĠFl or
Ġopport unity
3 9
6 2
G en
N et
S E
s el
Ġa ward
Ġs ought
Ġc ited
Ġf uel
Ġp en
Ġp ension
Ġm ount
ĠC it
ĠM id
Ġwith draw
and ard
ond uct
Ġro ad
ace utical
Ġatt ention
Ġreg ular
ink ins
Ġback ed
Ġfore cast
ĠJohn son
ĠTel erate
arm aceutical
Ġrequire ments
Ġpract ice
Ġpan el
Ġrelations hip
Ġvers ion
2 50
c hes
w a
re st
it ch
Ġre form
st ein
Ġst ore
ĠS achs
le um
Ġon es
ĠP er
ap se
ust ry
Ġun less
ĠD inkins
enc ed
Ġinterest ed
Ġsup er
Ġdisc over
Ġfe et
Ġfact ory
ĠMc D
ĠMor ris
Ġla un
Ġeas y
ĠMarket s
P acific
c ow
e qu
k o
Ġ ult
Ġf ine
Ġp ul
Ġh ar
ĠM il
ĠM ont
ig ence
ig ger
Ġcon n
Ġr ating
ĠN ort
Ġde ep
ĠD onald
ĠJ ack
se qu
ĠE qu
ant a
ex p
Ġinvest igation
Ġout put
Ġins ist
Ġconcern ed
Ġequ al
hold ers
Ġcoll apse
ĠAd ministration
ĠGeor gia
Ġemer gency
Ġrepl ace
Ġprinc ipal
Ġnecess ary
Ġrap id
3 75
5 3
8 6
D S
g o
u z
Ġa chie
Ġc able
st ock
ĠM its
im ent
Ġtr ied
ĠP aineWebber
ap ter
ĠH ome
Ġ19 0
ren t
Ġim age
pl ies
Ġcomm unity
red it
Ġsc and
Ġdef in
Ġfall ing
Ġaff ili
Ġdiffer ence
Ġacquisition s
ĠAssoci ates
ĠSte in
Ġplun ged
Ġpropert ies
ĠDe velopment
Ġrestric tions
5 7
O f
S uch
Y et
l a
v an
re ct
at ter
al y
Ġto wn
ĠC r
ad ing
ol a
ol f
ot he
ĠD ata
ĠH ouston
ank s
Ġfund ing
Ġbid ding
Ġstud ents
Ġmov ie
Ġbelie ved
Ġindividual s
Ġmortg ages
Ġexpens ive
ĠSw iss
Ġimmedi ately
M s
P er
c omm
d s
e gr
p le
on ed
Ġs elf
Ġs ym
Ġw ind
Ġf raud
il ed
ent agon
ĠR ed
Ġ3 3
Ġdis aster
Ġacc ord
Ġown er
iss an
ump tion
Ġpublic ly
Ġfil m
Ġweak ness
ĠSte ven
Ġgl ob
Ġdeter min
ĠPol and
Ġtend er
Ind eed
Ġcrimin al
8 8
C on
id a
id ers
Ġl ic
Ġit ems
ot a
os ure
ĠP entagon
ore n
ĠW il
ud den
Ġk ept
Ġ4 9
Ġlo b
stitut ional
Ġsur v
Ġdiv ers
ont o
Ġreduc tion
Ġrest aur
Ġste ad
Ġintern al
Ġexper ts
tain ment
ĠUS A
Ġmaterial s
ĠRepublic an
Ġsubstant ial
Ġorigin al
Ġbal ance
ĠCount y
t ax
y ield
Ġs li
en g
it a
Ġw ond
Ġp ending
is f
ic ians
Ġh ospital
el ed
un ist
ĠP enn
Ġv irt
Ġop in
gr ade
ra z
Ġdr ive
Ġ9 9
Ġsign al
Ġrun s
Ġaff ected
Ġneg ative
Ġpower ful
Ġcomplet e
Ġmil es
Ġincreasing ly
Ġdetail s
ĠVal ley
Ġconserv ative
Ġsyn dic
Ġdisput e
Ġsubordin ated
4 4
5 2
I T
c omp
o es
r or
he m
Ġb arg
Ġw at
Ġf oot
Ġl ose
Ġg ets
In stead
Ġtr igger
Ġac tions
Ġapp lic
Ġpart ies
Ġany one
Ġne igh
Ġown ership
Ġfund ament
Ġprofit able
Ġdep art
Ġdem on
ĠSec urity
Ġnum bers
Ġpurch ased
Ġmod ern
Ġcompet itive
Ġprot est
Ġmach in
epar ately
ĠPar is
Ġrele ased
Ġtreat ment
ĠMos cow
ĠEng land
Ġattribut ed
D uring
O P
S eparately
g s
l or
l oyd
Ġ ign
er osp
Ġg ives
ow led
uc ks
uc lear
ĠP al
ĠP ost
ĠN e
Ġ19 70
Ġj ury
iss ions
Ġpur p
Ġsign s
Ġph ot
Ġsett led
ortg age
Ġdrug s
Ġexper ience
Ġauthor ity
Ġcomb ined
Ġaim ed
ĠEnter tainment
ĠOff ice
ĠTor onto
Ġreor ganization
e au
in ese
Ġp ain
ing er
Ġm ess
Ġre fer
Ġe ase
ill er
ĠB ond
ĠB aker
Ġcomp lex
Ġtr ue
iv ity
oun sel
anc ing
ire ct
Ġmon etary
Ġop t
ous ly
ra el
Ġseem ed
Ġcertain ly
Ġsom etimes
ĠMin ister
opp ed
Ġdoub t
Ġtroubl ed
Ġnorm al
Trad ers
Ġretire ment
ĠMex ico
Ġrough ly
erosp ace
% ;
N T
S p
a hn
m y
Ġt im
re y
Ġs ens
Ġto m
ro te
Ġd est
ou l
un ities
Ġtr ack
Ġun d
ĠG ar
ĠG ulf
ĠL abor
ĠH igh
Ġinc ent
ep hen
Ġcl ient
Ġdis s
ish i
over n
Ġend ing
Ġem b
Ġob serv
Ġcorpor ations
Ġcharg ed
Ġla unch
Ġprim arily
idel ines
Ġminor ity
Ġtechn ical
Ġresear chers
6 25
f e
h our
Ġs ources
Ġf ire
Ġp os
Ġl ending
ut ures
Ġn or
ac es
ac her
ĠA G
ĠA ut
ĠB urn
ag ue
Ġex am
Ġr ang
Ġtr aff
Ġtr uck
ĠP oor
Ġsp ot
anc y
Ġdevelop ing
Ġcompl ain
Ġfr ont
Ġhead ed
Ġconf idence
Ġpropos als
Ġrepres ents
ĠBl ack
Ġveh icles
Ġtradition al
6 9
M y
R ep
i ets
u j
on ents
Ġs ort
Ġc ast
at ure
it an
ad a
ot ive
Ġwh om
if th
Ġpl aced
Ġint egr
Ġmonth ly
Ġam id
Ġsc re
Ġconc ent
Ġindust ries
Ġval ues
Ġrev ised
eg al
Ġfac ility
Ġplay ers
Ġcontrol s
Ġaccount ing
Ġfail ure
atch i
Ġmid dle
Ġsuccess ful
Ġimprove ment
Ġstep s
Ġevent ually
Ġliquid ity
ĠThom as
Ġseg ment
Ġadvant age
A r
O ver
t rad
Ġs udden
Ġc as
Ġb i
Ġw rote
Ġl ive
Ġl osing
ut s
ĠC or
ĠC ons
Ġex cl
ĠD igital
ist ance
ub ishi
Ġres ol
ĠI t
ren z
ĠCh apter
ĠCh inese
Ġpr ime
Ġatt ack
Ġcr ude
Ġtrans fer
Ġput ting
Ġris ks
Ġelect ions
Ġmanufact urers
Ġinvol ving
Ġbas k
ĠAs ia
Ġrecover y
Ġfre qu
Ġdepos its
kn owled
bur gh
Ġvictim s
Ġtom orrow
0 5
B e
H E
U D
Ġt ight
Ġs ource
Ġc ounsel
Ġp ull
Ġp aren
id s
ĠC le
ac hes
ĠM et
Ġst ar
Ġhe art
Ġtr illion
ĠN BC
Ġch o
ĠR ub
ĠW e
Ġac knowled
Ġsome one
Ġstr ugg
Ġ6 5
Ġ199 4
Ġdeclin ing
Ġemploy ee
Ġob tain
ĠAl an
Ġsett le
Ġorder ed
Ġmagaz ines
Ġpubl isher
Ġpret ty
Ġpredict ed
Ġchemical s
Ġhot el
Ġappe ared
ĠTrans portation
Invest ors
M R
M c
c asts
Ġb ail
it es
Ġw ide
ic orp
Ġre asons
Ġn ations
ur m
ers ey
ab il
Ġqu ite
Ġ5 5
Ġpart ners
ash ion
oy s
Ġsl ide
Ġrep e
Ġdire ction
Ġlaw makers
Ġrem ained
Ġmod el
ĠSov iets
Ġmat urity
Ġport ion
Ġprot ect
Ġthr ifts
Ġlist ed
ĠSa atchi
ĠPart y
Ġestabl ished
Ġarr ange
B rit
I C
s ewhere
Ġ ir
Ġt umb
Ġm ixed
Ġm unicipal
Ġd ang
Ġl angu
ol es
ĠM al
os eph
am er
ark s
ĠL ife
ĠH urricane
Ġch ips
ĠR JR
od ay
Ġad ministr
Ġpl us
Ġsp orts
Ġ198 2
Th ough
Ġen s
Ġdown t
Ġ6 2
Ġwor ry
Ġadv iser
Ġshow ing
Ġevery thing
Ġcoup le
Ġorgan ization
Ġwa iting
Ġelectron ics
Ġsurpr ising
Ġuncertain ty
ĠAriz ona
Ġunus ual
Ġbench mark
Ġlaun ched
Ġdemon str
J ust
J ohn
O ff
b o
g en
i j
k en
n a
Ġ ess
on ey
at ur
ar a
ic ar
et her
ĠC ouncil
ĠM ae
Ġg one
Ġpro ced
os en
ag er
oc racy
ĠL IN
ab les
ĠE m
Ġle aving
Ġdis pl
Ġbuy er
Ġcomm odity
Ġus ual
Ġconc ed
Ġsup plies
Ġel ection
Ġeff ects
Ġsur ged
Ġco al
Ġli ber
ĠCent er
Ġsat isf
E very
b an
b ank
i ver
m ore
z o
in y
Ġp e
il ty
Ġd ed
ent ially
ec ommunications
Ġcomp rom
Ġhe aring
ĠF re
ore ign
ĠJ ersey
end ment
ud ential
Ġ3 4
ĠI ll
ĠO ak
eral d
Ġdec ide
Ġcons ist
Ġass um
Ġoper ate
Ġbig ger
Ġcontr ast
Ġcr ime
ib as
Ġadv ance
ĠBo eing
Ġent er
Ġmain ly
Ġstrong er
ĠBro wn
Ġplay ed
Ġclear ly
Ġrefl ect
Ġtyp ically
ĠEd ward
Ġren ew
Ġproceed s
Ġrat ings
Ġword s
Ear lier
ĠChar les
Ġpos itive
8 2
C ons
M E
n el
he ast
or ation
Ġp o
Ġp ip
Ġp ace
et ic
ĠM iss
ĠS am
am bert
Ġsh ift
ĠP e
ist ics
Ġsp ir
Ġqu iet
Ġso ared
Ġpol ice
ib ly
ict ed
Ġmanag ed
Ġopp osed
Ġcent ers
Ġtal king
Ġevery one
Ġref used
Ġslow down
Ġrefl ected
Ġadvert isers
ĠPet ro
ival ent
Ġconv ent
Ġadjust ed
Ġprim ary
Ġscand al
Ġglob al
5 9
6 7
C ont
E ach
O ur
r ust
y r
in ental
he im
Ġs il
Ġc ert
it ude
ed y
Ġf le
al k
Ġto ur
et e
ad es
Ġst em
Ġst ations
Ġst opped
Ġ1 50
Ġas k
ĠN ik
ĠL i
ĠE conom
Ġcont rolled
man agement
ĠSt andard
Ġsell s
Ġsub m
ner gy
Ġthrough out
ĠInd ian
Ġfew er
Ġresp ect
Ġthink s
Ġmain fr
Ġmov ies
Ġaff ect
Ġstart ing
Ġvot ed
ĠRes ources
Ġslow ing
ĠInvest ors
ĠGre ens
Ġrele ase
Ġsubstant ially
ĠPan ama
Ġap art
cep tion
ĠFlor ida
f urt
r as
x on
Ġc ore
es c
Ġf ears
Ġp ages
ill y
Ġn erv
ĠC ap
ĠM ax
ly wood
ĠS anta
Ġbe ar
are t
ust er
ĠD an
ĠD ou
ĠL oan
ĠH ills
Ġ3 9
Ġres ources
ry s
Ġse ats
pl ace
Ġus es
Ġann ually
Ġins p
sh ire
Ġgu ilty
Ġfac es
Ġmat ch
eal ers
ef ense
Ġinvol ve
ĠCar ol
ĠQ intex
Ġhapp en
Ġcoup on
Ġpract ices
Ġcop per
Ġrespons ible
ĠCent ral
ĠMed ical
Ġeduc ation
ĠHold ings
Ġoun ce
D A
S ource
i pped
o e
y ch
Ġs ides
Ġc ell
it ter
it ure
it ness
Ġth us
Ġl ux
ĠB ur
Ġun p
ĠSt ephen
Ġfin ally
Ġ4 2
ress ion
Ġen j
Ġoper ates
Ġcr is
Ġrel ief
Ġgr and
Ġarg ue
Ġsuggest ed
Ġsignificant ly
Ġhom es
ĠCamp eau
ĠAfric a
Ġinflu ence
ĠBurn ham
7 6
8 4
E l
I A
t a
w ill
w eek
Ġc rop
Ġc reat
Ġf elt
ill ips
ut ers
ad el
ers e
ĠP it
ap ol
Ġun w
ock ed
ast e
Ġsp e
con s
lud ing
Ġmin ister
Ġbuild ings
Ġvent ures
Ġhouse hold
Ġsusp ended
ipp ing
Ġbook s
Ġchar acter
ĠIs rael
Ġengine ering
ĠAustral ian
Ġthous ands
Gen eral
Ġopin ion
Ġneigh bor
Ġcris is
H ere
a uc
t hen
Ġt it
Ġw ake
il ies
Ġre action
ac ing
ĠM ajor
Ġst ation
Ġpro gress
Ġex act
em ploy
ĠG reat
ĠE C
Ġ3 00
act ed
ĠSt ates
Ġfin ished
Ġproduc ing
Ġ4 6
pl us
Ġtax pay
ĠComm unity
row ing
Ġair lines
Ġmod els
Ġspecial ists
Ġph armaceutical
ĠBro ok
ufact urers
Ġdam aged
.) ,
Ġtest s
ĠMin istry
Ġhealth y
Ġwrit ten
gl as
Ġdistribut ion
Ġstruct ure
Japan ese
ĠSun day
Ġcolle ge
Ġexerc ise
ĠBrad y
Ġfarm ers
Ġwarr ants
Ab out
3 1
5 6
G E
d ed
f und
i at
l o
n y
p ret
or al
it rust
ic i
Ġth in
ac le
ĠM ix
ĠS chool
os a
ĠB ear
Ġas p
ĠT echnology
ĠH ow
ĠR ey
ĠW al
Ġint ended
Ġapp rec
li k
Ġcons olid
Ġacc used
Ġreport ing
Ġwor st
Ġcut ting
Ġemploy ment
Ġob ject
per form
Ġfall en
Ġfam ilies
ĠRep ort
Ġli ability
ĠFin ance
Ġrefl ects
Ġconsult ing
Ġnewsp apers
Ġjoin ed
Ġautom otive
Ġimmedi ate
ĠFrank furt
Ġdefend ants
Ġextra ordin
Ġchallen ge
Ġdecl ared
Ġconfir med
Ġtempor ary
ebr uary
Ġpiec e
Ġmus ic
Ġhundred s
ĠBroad casting
Ġparen ts
ij ing
Ġconvent ional
Ġlux ury
I ON
f ood
i que
l arg
n ings
p ric
Ġt ick
Ġs ection
Ġc ities
or ter
Ġn uclear
ĠC redit
Ġsh opping
ĠF ebruary
are ly
and er
ĠL loyd
ĠR uss
ant ed
Ġsp eak
Ġgo al
Ġro b
Ġass emb
for ms
Ġwor ried
Ġsur ge
Ġhal t
Ġfollow s
Ġvot ers
Ġdam ages
imin ary
Ġpat ent
Ġvolat ile
Ġden ied
hel an
Ġveh icle
Ġoutl ook
Ġrum ors
Ġunderst and
Ġvirt ually
trad ing
apol is
B ond
L L
m p
u k
re es
Ġs ust
Ġc ross
ing ap
il es
Ġd er
om es
Ġl ay
Ġl iving
el ine
ĠA ll
Ġex ist
Ġtr ucks
ĠF arm
ĠP ower
ch ip
ess ions
Ġv ide
ĠG ood
ĠH ung
Ġab and
ĠK ing
ĠK enn
Ġro ut
Ġlo y
for cement
Ġem ph
Ġdep uty
Ġent ertain
ph ia
Ġhapp ened
Ġpubl ishing
Ġschool s
Ġassoci ation
Ġassoci ated
ĠPr ime
Ġpan ic
ĠPart ners
Ġdoc uments
Ġestabl ish
Ġappe als
Ġprofess ional
Ġrecomm end
Ġcommit ments
Ġcompar able
ĠHol lywood
Ġresident s
Ġfranch ise
Ġbarrel s
exp ected
atur day
icar agu
rys ler
adel phia
pric ed
ingap ore
7 9
8 9
F ord
M er
d ie
h ood
l ia
o is
p ar
p art
er ry
Ġs ite
Ġs we
Ġc ard
or se
Ġw ife
Ġm ax
om s
Ġl ab
Ġcon vers
ĠA lex
Ġr ail
em an
ĠL ambert
ĠH ill
Ġ3 8
Ġres erve
ĠSt ear
iz ations
Ġcomm unications
Ġweek ly
Ġdef ault
Ġlead ership
On ly
Ġshe l
Ġagree ments
Ġstud io
ĠAr t
Ġposs ibility
Ġser ve
Ġcirc um
ĠPr udential
Ġsuff ered
Ġguarant ee
Ġut ility
Ġtroubl es
itz er
Ġunderwrit ers
emic onduct
ĠNav y
Ġscient ists
Ġmerch and
Ġtw ice
ĠMach ines
comm ittee
Ġdetermin ed
ĠMix te
F ederal
H A
O r
S ec
a ught
f ree
i ance
l iminary
m ond
t ained
er r
Ġc iting
Ġc yc
at in
Ġf ile
ro wn
Ġd ump
ĠM e
Ġcom fort
Ġsa ve
ĠA v
Ġsh own
ĠP rice
ĠP helan
um in
oun der
ĠL ev
ĠH all
ĠH UD
Ġab road
Ġj ournal
Ġ3 2
ok ing
Ġpre liminary
ren ce
Ġdec isions
Ġ4 3
Ġpr ison
ett e
Ġfl ight
Ġgen er
Ġrem ov
Ġcour ts
Ġ12 0
Ġreturn ed
Ġche ap
Ġcent ury
Ġant itrust
Ġcoll aps
Ġmet als
Ġinit ially
Ġdiscl ose
Ġcrit ics
Ġnetwork s
ĠBe ijing
ĠUS X
Ġmean while
Ġsqu ee
Ġprosp ects
Ġey e
Ġps ych
Ġdism iss
othe by
Ġexcl us
Ġtumb led
lia ment
4 1
C an
R O
b on
c ing
g il
i ences
Ġc ateg
ar r
ec k
Ġn ov
ĠC ray
ĠS outhern
ĠS ingapore
ow ed
Ġpro ve
res p
ĠA MR
Ġas king
Ġr ival
ĠF utures
ĠF uj
um met
ĠJ oseph
ell ing
ĠH amp
ĠR ev
ĠR AT
ĠW ork
ĠE nergy
Ġpl ummet
Ġmon itor
Ġ198 3
iz es
Ġim pl
li ance
Ġdo or
Ġ4 7
Th us
Ġar ch
Ġins urers
Ġprov iding
sh ip
Ġgu idelines
att ers
Ġput s
Ġhand le
Ġfact or
Ġspecial ty
Ġconf ident
Ġca ut
Ġkeep ing
Ġview s
Ġrepresent atives
Ġboost ed
Ġalle g
Ġbase ball
Ġaccept ed
Ġsupp osed
Ġrespons ibility
Ġguarant ees
Ġhost ile
Ġinvent ories
Ġpict ure
raz il
Ġtraff ic
Ġlangu age
Ġcomprom ise
Ġcert ific
Ġnerv ous
Ġspe ech
lik ely
6 3
6 8
9 9
C R
S c
b ed
h a
m ons
w ise
er ly
re al
at eral
Ġb ol
ar man
Ġp eak
as hed
Ġd il
ent y
ĠM art
The ir
ĠB u
ĠB ill
ĠP ublic
ĠN icaragu
ect ors
ĠD ist
ĠD efense
ant um
Ġup on
Ġpric ing
Ġgro ss
Ġme ant
Ġadd ress
ens us
Ġoper ator
ian ts
Ġbo om
Ġsl ump
Ġfl ag
Ġwor se
Ġgen e
Ġserv ed
Ġdeal er
Ġannoun ce
Ġwar ned
Ġed ition
Ġmag n
Ġread y
Ġsuggest s
ĠCl ass
Ġdiscuss ions
Ġvis it
ĠRepublic ans
rem ely
Ġaud ience
kn own
urch ase
ĠPhil ip
ĠNav igation
Ġfair ly
Ġbott om
Ġcandid ates
Ġcontrovers ial
ĠItal y
Ġaggress ive
ĠMits ubishi
Ġsli pped
Ġwond er
ĠGreens pan
Ġextraordin ary
Ġemph as
ĠStear ns
7 7
A C
C omm
M S
M an
M ER
T er
d y
m ine
r s
t ech
v ard
Ġo d
Ġc olum
or age
Ġb on
ar ry
Ġf res
Ġp aint
Ġp ushed
Ġto ol
Ġh ur
Ġe g
ur a
ur rent
ĠA NC
ts burgh
ag ues
Ġex cept
ĠP at
ĠN issan
em per
ab y
Ġint ent
ĠK renz
arg o
Ġ4 1
Ġreport ers
Ġrep ut
Wh y
Ġent ered
Ġext ent
Ġter min
Ġregul ations
Ġvot es
ef eller
ĠTel ephone
Ġrepresent ing
Ġcover age
Ġarg ued
ĠPar ibas
Ġcirc ulation
ĠKore an
Ġdoc t
Ġassist ance
Ġprofess or
Ġlit igation
Ġaltern ative
icial s
Ġbure auc
Ġlend ers
Ġconclud ed
overn ment
3 4
7 2
8 00
P h
T oday
a um
i ro
p roduc
t ic
u a
Ġt ask
or der
Ġb ul
Ġp un
Ġp etro
Ġm atters
ut ch
Ġn ames
Ġfor med
ĠM ark
ĠM ess
ĠM ortgage
ĠS ir
am ble
ul ate
Ġtr ip
Ġtr aining
ĠF e
ard en
Ġcont ends
ip e
Ġind eed
Ġpr in
ild ing
Ġdisc ip
ever al
Ġfore casts
stitut ion
Ġrel uct
Ġrequ ires
Ġmeet ings
Ġspecial ist
Ġ14 1
Ġbeg un
Ġsett ing
Ġindic ate
Ġsw ings
Ġretail ers
Ġstrateg ic
Ġfind ing
Ġcol or
Ġblack s
Ġtyp e
Ġdev ices
Ġhist or
Ġsucceed s
Ġstreng then
Ġassist ant
ĠPhil adelphia
Ġeditor ial
Ġdescrib ed
Ġdiscover ed
Ġtrigger ed
ĠOak land
itzer land
gil vy
) :
A P
B ank
F rom
S everal
a ut
i ac
i aries
o en
Ġt ent
an z
Ġc it
Ġf reed
Ġf ather
Ġf ounder
Ġm eth
ic an
ol itan
Ġst yle
Ġcon fl
ĠB ure
Ġcomp ens
Ġsh r
ell or
ĠL ee
op e
Ġ3 6
ĠO ne
Ġint ends
Ġ5 2
Ġper man
ult ural
Ġdr am
Ġcall ing
Ġbr anch
Ġadv isers
Ġco ff
te gr
Ġstud ies
Ġlook s
Ġmove ment
ĠEn gl
Ġcoll ection
Ġlim its
iam i
Ġauthor ities
ĠCont inental
Ġsusp ension
Ġur ged
Ġparticip ants
Ġsoc iety
Ġrat io
Ġut ilities
Ġcor rect
Ġprosecut ors
Ġrad io
ĠCD s
Ġappropri ations
ĠSim mons
ĠCit icorp
Ġopt im
Off icials
ĠPetro leum
F in
I BM
N or
P r
c ies
g u
l ong
w an
Ġ esc
in i
er ts
re duc
ar ian
Ġp ark
ĠM ur
ig er
Ġcon stitutional
ag n
Ġun likely
ĠR ec
ĠR oy
ĠR oth
ost a
ĠIn tel
Ġexp ressed
ĠI r
Ġcons ecutive
Ġcan not
Ġass ess
Ġne ither
Ġunder lying
Ġdr ives
Ġfl ights
Ġcost ly
ĠComm unist
ĠTr ump
pr ises
Ġhead s
Ġ' "
Ġph ys
Ġsen ators
Ġvot ing
Ġold er
Ġdiffer ences
ĠPh illips
Ġstrateg ies
ĠCar l
Ġnegoti ating
Ġcrit ical
ann ie
Ġeas ily
Ġcritic ism
Ġpurs ue
Ġfeat ures
cr ip
ĠAtlant a
Ġce iling
Ġresign ation
Ġintell igence
ĠUSA ir
ĠPit tsburgh
D I
D r
D ow
L ike
R ober
c ut
d in
h ard
l oss
n old
Ġf ashion
Ġp it
Ġin n
ic tion
Ġh on
st ances
Ġst eep
ow e
im al
us er
Ġmillion s
ĠP a
ap ed
Ġv oice
ĠH art
Ġsp in
Ġsp ons
Ġ2 50
anc ellor
Ġqu arters
Ġinvest ed
ĠO il
Ġinter pret
Ġ4 8
rop olitan
ett ers
Ġsc en
Ġtake overs
Ġbl ood
Ġbr ands
Ġequ ivalent
ins urance
Ġev al
Ġco ol
Ġpurch asing
Ġext end
Ġext ended
Ġmod erate
Ġpolit icians
ĠAr ab
Ġtel ecommunications
Ġrul ed
ĠRober ts
che ll
Ġpat ients
ĠHar ris
Ġproceed ings
cont in
Ġdepos it
Ġopport unities
Ġjud ges
Ġcolle agues
Ġship ments
inter est
ĠFor ce
Ġplast ic
ĠKe ating
Ġiniti ative
Ġbask et
Ġens ure
Ġtaxpay ers
% -
L aw
R es
d om
s ch
v iously
Ġt ies
it chell
Ġf aster
Ġp act
Ġm ention
Ġin qu
el ess
Ġn one
ĠC F
ol m
ol ar
ĠS ears
ĠS aturday
ir gin
Ġpro hib
Ġwh oles
oc h
iv als
ĠD en
ĠJ eff
Ġch ains
Ġch oice
ĠR oss
Ġexp anding
Ġdis e
Ġgro wn
iz z
Ġro und
Ġse es
Ġse at
Ġim m
ĠCh ase
Ġ4 00
Ġoffer ings
Ġ9 8
Ġgen eration
olog y
Ġgr ad
Ġche ck
Un til
Ġca ught
Ġprom ise
Ġperson nel
Ġinst all
Ġknow s
Ġref und
Ġpriv ately
ER AL
Ġmanufact urer
Ġretail ing
ĠTel e
Ġcover ed
Ġcontribut ions
Ġdeter ior
Ġwa it
ĠAg ency
Ġlear ned
ĠSoc ial
Ġadop ted
Ġobl igation
Sen ate
Ġbail out
ĠDou glas
larg est
ĠBure au
0 3
M arket
N e
P ar
P ack
b l
h at
h ost
n am
s yl
in ing
Ġo w
at i
Ġb atter
Ġw ild
ing ly
Ġm other
is hes
il ton
Ġl if
ut h
ac co
ĠM ary
ĠM iller
ĠS CI
uc tions
ĠA BC
ĠB razil
oc o
ĠT urn
Ġexp ert
Ġexp ense
anc hes
Ġres c
man n
use um
iz ens
Ġ5 7
ĠCh rysler
ĠCo ors
Mr s
Ġbank er
Ġsell ers
Ġ6 3
Ġ10 1
ĠV a
Ġins ured
Ġcar ried
inc ome
Ġturn ing
Ġstud ent
Ġsim ple
yn am
Ġposs ibly
Ġmemb ership
Ġexper i
vironment al
Ġindustrial s
ĠGr and
Ġeas ier
Ġattorney s
Ġpop ulation
IN G
Ġlaws uit
Ġill egal
Ġsaf e
idel ity
Ġprosp ect
Ġpush ing
ĠThom son
oph istic
Ġinstr uments
Ġansw er
ĠRock efeller
ko osa
Ġobserv ers
urm oil
Ġmerchand ise
ĠDist rict
Ġfres h
ĠEngl ish
5 1
5 4
6 4
B ache
C C
P ric
P resident
b ec
f ect
g ate
r imin
u i
Ġt um
Ġt ied
Ġt urmoil
Ġs ets
Ġc ig
Ġc old
Ġc row
Ġc ulture
Ġl ives
st ore
ut ed
ad ium
Ġst age
Ġst ress
Ġst abil
ot e
ĠB el
ĠB udget
ag ers
Ġsh ot
Ġsh ipping
ate ver
Ġr ace
ew ay
ew lett
if ying
ĠD is
ĠR TC
Ġsp ur
ans as
Ġres ume
ack ed
Ġnew ly
ven ues
ĠSt ores
ren e
ĠCo ast
oss ible
Ġsl id
Ġcur b
ĠV er
Ġ199 3
Ġel sewhere
ob ile
Ġadv oc
hen s
Ġlower ed
Ġsever e
ĠMar c
Ġext remely
Ġstrong ly
Ġpolit ics
Ġbas ic
Ġpass en
back s
Ġpat tern
Ġjoint ly
ĠDav is
ĠSw itzerland
Ġlaws uits
pro fit
Ġmass ive
ED ERAL
iff s
Ġprompt ed
Ġliber al
Ġenj oy
emiconduct or
Ġcollaps ed
Ġmeth od
6 1
9 2
9 8
N P
S J
i ers
m as
Ġ X
Ġ ver
it able
ar io
Ġm ur
Ġm ine
Ġl etters
Ġe p
Ġe le
ĠC osta
ĠM iami
Ġst er
Ġcom ments
Ġhe at
Ġr an
ew hat
ĠP ont
ĠT enn
ĠW SJ
Ġsp ark
ub s
ri ers
Ġinvest ing
ĠI l
ous ing
Ġpres ence
Ġapp rove
Ġk ill
Ġwe ap
Ġen h
Ġar m
Ġgovern ments
Ġam endment
Ġdr ink
Ġfl o
Ġcurren cies
oth ing
Ġacqu iring
Ġdep end
olog ical
ĠMar sh
Ġaff ord
ten ance
ĠMan ville
Ġsupport ed
Ġresult ing
Ġfac ing
Ġcre ating
ke i
ĠMc G
Ġte acher
Ġweak er
Ġmet ric
Ġsug ar
ys is
AT ION
mak ing
Ġcop y
ĠFl a
Ġocc as
Ġsurpr ised
Ġexpand ed
Ġtempor arily
Ġpers u
Ġhear ings
Ġz ero
Ġult imately
Ġpul led
ĠNort hern
van ia
Ġadministr ative
bo ard
ĠNik kei
Ġentertain ment
Ġalleg ations
Ter ms
Rober t
0 4
B I
N ever
R E
U AL
b ro
b ell
g n
l ight
p ower
Ġt en
Ġs earch
ar ner
Ġf lex
ic ts
ic ated
Ġd ied
om pl
ent ed
ĠC os
ol ine
ĠM itchell
Ġst ret
ĠS otheby
ĠA S
ĠA T
ĠB ob
ĠB alt
Ġun able
Ġv s
ĠG as
ĠH er
ĠH an
Ġch ip
od ities
ue bec
Ġcont ain
Ġ198 1
Ġdis k
Ġman age
Ġdo zen
Ġen orm
lin ois
Ġsub committee
Ġ6 6
Ġhigh way
Ġeff icient
ib b
Ġbr anches
Ġreal ize
ĠMan ufacturers
Ġca using
abor ate
Ġseek s
uck y
off s
Ġprocess ing
Ġcare er
bur g
Ġcarri ers
ĠApp le
Ġrapid ly
Ġfundament al
Ġconcent r
Ġcircum stances
ĠHamp shire
reduc tion
Pack ard
syl vania
D ealers
F EDERAL
J ames
S e
S ee
V olume
f in
g ent
t le
w in
w er
Ġa erospace
Ġs ophistic
Ġc os
ic ed
Ġh ired
om a
Ġre ass
Ġre forms
el d
ol ic
ĠM GM
Ġg ames
ĠS and
Ġcon cept
am ount
Ġhe ard
ĠT om
Ġexp osure
ĠI ran
Ġbec oming
Ġk ick
Ġk illed
Ġ( "
Ġcomm itted
Ġret ain
Ġsup erv
Ġcompl ained
ĠEu ro
Ġhal ted
eep ing
Ġmer ely
Ġwar ning
echnolog ies
Ġplay ing
Ġhard er
Ġallow ing
Ġsom ewhat
ili pp
Ġrepresent ed
Ġsol id
ĠAd v
Ġ197 9
Ġtyp es
Ġnat ure
ĠDr ug
Ġsuff icient
Ġbring ing
Ġstat us
Tr ust
Ġcoop eration
ĠSteven s
Ġrestaur ant
Brit ish
Ġpip eline
Ġsil ver
ĠEconom ic
ĠCarol ina
Ġinqu ir
0 1
7 1
D av
M ich
P P
b est
c ks
m a
o oth
p roducts
Ġt on
Ġt ape
Ġt rem
Ġthe ory
or r
Ġf illed
Ġm and
Ġan al
ent er
Ġl ag
ec ker
ĠA I
ĠA cc
ĠB reed
Ġr ated
Ġde g
ect ions
ĠD on
ĠD utch
ĠJ ew
ell a
ĠG NP
ĠL uf
ĠH on
ast rop
ĠW at
ant i
ĠO gilvy
ail ed
Ġcons p
Ġwe ight
red die
Ġar ms
Ġar rest
Ġam b
Ġimp ossible
Ġprofit ability
ĠEx xon
Ġel aborate
On ce
Ġhelp ing
Ġreduc ing
Ġcorpor ation
esp read
Ġdemand s
Ġview ed
ris k
ook er
Ġgre en
ister ed
ĠComp aq
Ġbeh av
Ġbeh alf
Ġtarg ets
Ġstruct ural
Ġattract ive
ĠQu antum
ugg ish
Ġmerch ant
ĠMcC aw
Ġaltern atives
Ġelimin ate
Ġdisappoint ing
Ġplast ics
Ġappoint ed
Ġcomplain ts
Ġrepe ated
Ġdispl ay
Ġexact ly
employ ment
Ġmax imum
Ġcaut ious
Ġperman ent
tegr ated
Ġcig aret
Ġenorm ous
6 00
9 4
9 7
E n
E st
P A
Q u
b ut
b and
b acco
s ized
y d
Ġs le
Ġs ex
Ġs uits
Ġo ught
is k
Ġto t
Ġto bacco
Ġre op
ac o
ĠM o
Ġst ories
im ore
am ber
oc a
th ur
Ġun iversity
ĠD u
ĠD ean
ĠJ ac
ĠL ang
ĠH is
ric k
Ġag ent
Ġcont end
ri an
ĠI m
Ġdis ag
ĠY oung
Ġoffic ers
Ġus ers
lin ed
Ġatt end
Ġsup erc
ĠV irgin
Ġstate ments
Ġadv ice
ĠInd ia
Ġdem ocracy
Ġhand ling
Ġsecond ary
Ġaff airs
Ġca ution
Ġrecord ed
Ġclaim ed
ĠPh ilipp
ER S
Ġform al
ai wan
Ġwid espread
Ġpubl ished
ĠCont rol
Ġconsult ants
Ġthreat ened
yl ene
Ġroom s
Ġanticip ated
Ġnorm ally
Ġfriend ly
Fr iday
third s
Ġspecul ators
Ġoccur red
Ġstead y
ĠNe koosa
Ġfrequ ently
Be fore
perform ing
ĠMart in
Ġcoff ee
. ;
0 2
0 6
8 3
D ec
P l
Y SE
b al
t op
u ate
Ġt ext
Ġa w
Ġa ide
re hens
Ġs on
en Trust
Ġw itness
Ġp ool
Ġm ist
as c
Ġre ward
ĠC amb
ad or
ad io
Ġst anding
ig an
Ġbe er
Ġbe at
im p
im ated
ĠB ull
qu isition
Ġr ing
Ġr all
Ġr ivals
ak en
th an
Ġwas te
Ġun ve
Ġun like
Ġv eter
ĠL BO
ĠH el
Ġag ents
ep s
Ġj ur
Ġbillion s
ĠO p
Ġbec omes
ach ing
Th ird
Ġacc el
Ġacc omp
Ġcomm issions
Ġass ume
ens es
oy ota
Ġbl ame
min ent
Ġfore st
Ġdiv isions
Ġdel ays
Ġturn s
Ġmain tenance
Ġlook ed
Ġ14 2
Ġsubs crib
Ġprom ised
Ġformer ly
Ġpress ures
Ġris en
Ġeffect ively
Ġretail er
ann el
Ġbad ly
Ġprof ession
OR T
Ġdoub led
Pro fit
Ġborrow ing
Ġident ified
Ġcommit ment
Stock s
ĠAfric an
ĠAtlant ic
etro it
Ġwatch ing
Ġaward ed
Ġconn ection
Ġaffili ate
Ġlob by
Ġdownt urn
Ġpe ace
Ġnov el
Ġcertific ates
Pric es
Dav id
ĠBreed en
8 1
I s
W illiam
g round
k a
r un
r aw
y er
in son
Ġc atch
Ġc ouncil
es ides
en a
en z
it em
Ġw ear
Ġan x
Ġre venues
ec o
ut ies
ad o
Ġfor ward
Ġg ap
Ġg all
Ġg arden
Ġg host
Ġst ream
ĠB ron
Ġhe d
oc al
ĠF ar
ĠF DA
ell ed
ock s
ĠL as
ĠW ang
ĠW olf
ab ody
ant ile
Ġres istance
Ġdis contin
Ġ5 4
Ġover night
ĠY ear
pl es
vel and
Ġwork er
Ġrep air
Ġgen es
Ġcar ries
Ġem ot
Ġsur f
Ġfell ow
ĠBank ing
land s
Ġgr ain
inc inn
ĠAir ways
Ġresult ed
eg as
Ġplay er
Ġaccount ed
hor ity
Ġsubsid ies
Ġmet al
ĠSp ain
Ġgas oline
che mical
ĠBr idge
aph ics
Ġcirc uit
Ġportfol ios
Ġdeter mine
Ġvar iety
Ġorgan izations
Ġviol ations
alt ies
Ġfield s
ĠChrist mas
Ġdelay ed
Ġregard ing
Ġmem ory
Ġobl ig
Ġsyndic ate
Ġmachin ists
ĠPe abody
Ġtit le
ĠFarm ers
ĠHung ary
Ġplummet ed
Ġarch it
ĠIl linois
incinn ati
1 20
7 8
C s
M ay
U N
W A
d ale
i qu
w ar
w here
Ġt able
Ġw el
Ġf at
Ġf ly
Ġp ill
Ġp age
al ed
Ġd ip
Ġh us
et ts
ĠC N
ĠC are
Ġfor ms
ĠM CA
Ġst ick
Ġst reet
im ony
us etts
Ġcon sequ
uc e
uc cess
Ġsh op
ĠG E
ĠR og
ab ilities
Ġac ad
Ġab ort
op her
ich ol
ex change
Ġqu ant
ĠSt ar
ĠO l
Ġrec alls
Ġ5 9
ach usetts
Ġ8 5
Ġstr a
Ġret ired
iss ue
og el
Ġsl uggish
Ġrep ay
Ġdisc our
Ġbl amed
Ġ199 9
Ġact ing
ob il
Ġcr uc
Ġtrans l
omp son
the less
ĠAr my
Ġbeg ins
Ġchang ing
Ġfac ed
Ġstand s
Ġinstitut ion
ĠMin ne
Ġexpl ain
Ġwrit er
Ch ar
Ġred e
Ġvict ory
ĠElect ron
Ġcritic ized
Ġident ify
ĠMerc antile
Ġcalc ul
Per haps
ĠPenn sylvania
Ġphot ograph
Ġdest ro
ĠAut hority
ici ency
Ġpaint ings
Ġreput ation
ĠBalt imore
Ġsophistic ated
Ġcos met
Mich ael
best os
ĠMinne apolis
7 00
7 50
C ongress
C urrent
F ed
G eor
H er
d o
h and
i as
t ers
t aking
Ġ et
Ġ eth
he ed
Ġc el
Ġw ave
Ġm ic
ic ious
Ġd ict
ec ured
ĠM ic
Ġst re
Ġst able
ĠS her
ow ers
im ited
res ent
Ġtr im
ĠD ai
ĠD irect
Ġha z
ĠG i
ock heed
ĠH a
ĠH en
ĠR ob
ĠW right
ĠE ar
op ol
Ġle aves
Ġse ed
Ġlo g
Th ree
Ġwe alth
Ġiss u
Ġins urer
Ġmin ing
iet nam
ĠTh ompson
Ġrequ iring
Ġnum erous
Ġhand ful
Ġtotal ing
Ġindic ates
Ġhop ed
Ġclos er
ĠSh ow
Ġexpl oration
Ġread ing
ech an
Ġbroad cast
Ġsk ept
ĠNorth rop
Ġproject ions
ĠLaw rence
Ġappro x
Ġill ustr
Ġdoc ument
Ġuns ecured
Ġfight ing
sc ale
Ġtrend s
fort un
Ġscient ific
rep rene
Ġachie ve
Ġapplic ations
Ġmess age
Ġincent ives
Ġproced ures
Ġassemb ly
Ġsust ained
Ġreluct ant
hard t
Ġwholes ale
ĠAI DS
9 1
C ola
T reasury
W arner
b ol
b orn
i est
m ember
w ing
he less
Ġs em
Ġo m
Ġf et
et ter
ĠC ath
ĠS k
ĠB ern
Ġas bestos
qu er
Ġtr iple
ĠF oreign
ect ic
ĠT ax
ĠT aiwan
Ġun expected
Ġun employment
ell i
ĠG al
ĠG OP
ĠR el
ĠR eg
Ġj et
anc er
Ġgo als
ack er
ĠI c
Ġint ens
Ġint ense
Ġapp ly
ail s
Ġ8 9
Ġsec ret
Ġsub sequ
ĠV an
ĠV ol
ix on
Ġgen erate
Ġrem arks
Ġbr idge
Ġdevelop er
Ġbrok en
Ġrev ers
Ġcompet e
ĠEn vironmental
Ġmer gers
Ġmed ium
emp tion
Ġ18 0
irc uit
Ġbroad er
Ġhapp ens
Ġsum m
Ġsched ule
ĠCont ain
ĠSe a
Ġdifficult ies
Ġpil ot
Ġrepl aced
Ġrecover ed
cont rol
Ġsurpr ise
Ġfavor able
ĠMed ic
Ġfri ends
Ġconfir m
ĠChar l
Ġwarr ant
Ġcat astrop
Ġconduc t
Ġunf air
ĠMcD onald
ĠEqu ipment
Ġpurp ose
Ġsens itive
Ġrenew ed
Ġbul k
ĠDen ver
ĠMarsh all
Never theless
3 50
7 3
A pp
B ig
C o
D P
G A
K R
R ec
S ony
c ard
h us
r am
t z
u is
Ġs end
Ġc ells
Ġb ell
Ġb ik
Ġw all
il ip
Ġd ial
Ġl eng
Ġe ased
Ġn ort
ĠS kin
un ction
ir th
im ents
Ġy oun
Ġcon ven
Ġcon stant
ĠB an
am s
qu ality
ĠF HA
ĠF idelity
ĠP roducts
em y
Ġor din
ĠH aw
ĠR eal
ĠR oman
ĠR iver
ĠR adio
ast ers
igh ter
ĠW itter
od ak
ist ed
ric ulture
Ġpl enty
ĠI f
Ġro ck
av y
Ġcons umption
Ġdown ward
Ġ6 9
Ġsl ower
its u
Ġdr iving
Ġins ide
Ġ9 5
Ġ9 7
apital ization
ib ilities
Ġrel ative
ĠAn t
Ġfe ed
Ġdeal ing
ret e
Ġent reprene
Ġpost p
Ġbrok e
Ġpoint ed
Ġshort ly
enn is
Ġsee ing
Ġcoll ateral
Ġallow s
Ġview ers
emp ts
Ġgl ass
Ġcover ing
Ġsol icit
Ġarg ument
Ġ197 4
Ġ200 9
Ġintroduc e
ipp er
Ġcomb ination
Ġmean ing
OR P
Ġmot ion
Ġencour age
Ġdeliver ed
ĠDonald son
Ġlic ense
ĠCle veland
Ġarrange ment
ĠMax well
Ġapprec iation
Ġswe et
ĠMess rs
ĠTurn er
Ġcruc ial
Ġrede em
ĠSkin ner
0 7
0 9
9 3
I G
N ational
O ct
R A
d ollar
g rowing
h aul
i able
m ont
t orney
y ers
Ġa ware
in ist
he ld
Ġc ou
es a
Ġf ee
Ġm echan
Ġre ve
Ġre str
ĠM ad
ĠM ason
Ġg ather
ter ed
ĠA b
In ter
Ġr ush
ĠP ort
ĠN ichol
if fer
if ically
ĠD arman
ĠD etroit
ĠG ill
ĠL oren
ĠH ooker
ĠW ell
Ġ19 60
ĠE state
Ġmarket place
Ġpl aces
Ġcont est
Ġcont roll
der ed
ĠO F
ĠO n
ord s
Ġall oc
Ġdec re
ĠCh ancellor
Ġwe ather
Ġ7 2
Ġsec ured
Ġoper ators
An y
Ġmay or
Ġbo x
Ġprogram ming
Ġpay able
Ġdes k
Ġdes ire
Ġdiv ided
Ġdon ations
app ing
Ġfil ings
Ġgu y
Ġcompet ing
Ġregul ation
Ġrecord s
Ġsw itch
Ġtest ing
Ġsubsid iaries
wh ite
iven ess
Ġlegisl ative
With out
ĠGr amm
ĠComp osite
Ġauthor ized
ĠBar ney
ĠSc ott
ĠSw ed
ĠAs ian
serv ices
ĠMass achusetts
Sh ort
Ġpromot ion
Ġsqu are
ĠBer lin
Ġeduc ational
Ġcandid ate
Ġdead line
Ġlob b
Ġbarg ain
Ġpurp oses
Ġincent ive
ĠDan iel
Ġcell ular
ĠNicaragu a
oen ix
Ġster ling
ĠVirgin ia
rehens ive
Ġstra ight
9 00
M uch
N B
P O
T HE
U R
a fter
d a
d ef
i ate
l oan
p et
r id
t es
v in
v ious
z ed
Ġs and
Ġs emiconductor
an a
Ġc art
Ġb ud
Ġb urn
Ġf ill
Ġf urn
al ing
Ġto uch
Ġd imin
Ġd uty
Ġre act
Ġe ager
ĠC ross
ĠC enTrust
ac re
ĠS ection
Ġr ac
Ġr ig
Ġr ich
ĠF ood
ĠP il
ĠP ict
ĠP aper
um ber
ĠJ en
ĠH ewlett
ĠW eb
ĠE r
Ġac ts
ud man
Ġexp ire
ip ts
ĠO k
ual ty
Ġk id
Ġcons ensus
Ġpr int
Ġmay be
ĠV ietnam
Ġbl ow
Ġeven ing
Ġsur round
form ation
ĠBank ers
Ġshould n
Ġter ror
ĠAr k
ivers al
Ġindic ation
Ġhop ing
Ġcharg ing
Ġbene fic
Ġnegoti ated
Ġsuccess or
Ġpack aging
Ġconv icted
AN K
Ġattempt ing
Ġparticip ate
ĠPro f
Ġguarant eed
Ġrespond ed
Ġmot or
Ġprior ity
Ġalleged ly
Ġabs orb
Ġlink ed
ĠHold ing
ĠAc quisition
Ġbure au
ĠBanc orp
Ġmount ain
Ġdefin itive
Ġrestaur ants
Ġwat ched
Ġrang ing
Ġscre en
Ġstar ts
Ġsubm itted
Ġmainfr ame
Ġcreat ive
Ġcyc le
CR S
Ġcolum n
Ġcit izens
Ġweap ons
ĠHan over
Ġbehav ior
ĠJac ob
ĠYear gin
Ġhus band
ĠIc ahn
9 6
B l
C ar
F L
I S
P ol
T ex
b aum
c oup
f ell
i us
j ects
k ers
n ard
p age
r idge
s en
u ations
Ġt re
Ġt urb
Ġs ch
Ġs anc
Ġs ued
Ġf al
Ġf ans
Ġh um
Ġh yp
et ime
ĠC incinnati
ĠC ORP
ĠM icro
Ġg yr
un ting
ot al
Ġas ide
ag s
Ġsh ips
Ġr aw
ĠF ifth
ĠF err
are l
ĠD ay
Ġv ary
ĠG a
ĠL atin
ĠH ot
ĠH unt
Ġch urch
ĠR ay
ĠR ica
ĠW a
Ġad equ
ue z
Ġind ict
ri e
ĠSt r
aw a
Ġro w
Ġall iance
Ġim ag
Ġ8 00
Ġplan es
Ġpol y
ĠV egas
Ġdef e
Ġcr ack
Ġhold er
Ġfinancial ly
Ġshe et
Ġcred ibility
Ġfr ustr
orpor ate
Ġco ordin
pr int
Ġhand led
Ġpost s
ient ed
Ġprom ises
ier ce
Ġimport ance
Ġindic ators
Ġloc ation
ĠPh oenix
rup tion
iam ond
Ġmark ed
Ġexper iment
cl ass
Ġread ers
Ġdev ice
ĠSe oul
ĠDel ta
ĠChe v
Ġcanc eled
cont rolled
Ġjoin ing
ask a
Ġprinc iple
Ġdeath s
Ġpresent ed
AS A
Ġcarry ing
Trad ing
ĠBell South
Ġencour aged
Ġprec ious
Ġconduc ted
Ġsel ected
Ġcoop er
Ġachie ved
ĠStein hardt
Ġdepart ure
Ġacknowled ged
Ġpo ison
ĠWal ter
Ġvide o
Ġloy alty
Ġexclus ive
iac om
Ġconfl ict
Ġcompens ation
sch ild
Ġanal ysis
ĠLuf kin
Ġapprox imately
ectic ut
. '
7 4
A verage
J aguar
R ich
S ays
Y our
a ugh
c ount
f oot
l om
l ov
r ont
r ights
s up
u ous
in ch
Ġc apped
at ap
at ically
or ough
Ġb ody
Ġb omb
Ġw ood
ar ound
Ġf em
ing house
Ġan g
Ġh its
Ġre ject
Ġe asing
el ing
ill an
ĠC O
ĠC al
ĠC ub
ur able
Ġst ood
Ġst uff
ot echnology
ĠA k
Ġcomp ares
am ily
Ġsh ape
Ġr id
Ġr ank
Ġr ape
ul ian
ĠF ried
ĠF oods
ĠN YSE
ĠN ixon
Ġun n
ĠD a
ĠD od
ĠH erald
ĠR osen
ri er
ie ux
ĠI M
ĠK y
ĠK ent
ĠK KR
Ġall ies
Ġapp lied
Ġfin ed
Ġ5 3
Ġ5 6
Ġ5 8
li um
Ġlo ad
Ġlo ve
Ġ8 7
Ġen forcement
lud e
Ġass umption
for ce
Ġsc ale
Ġatt itude
Ġreg ime
Ġins ists
Ġback l
stitut e
Ġmanag es
Wh o
Ġdeal ings
Ġcred its
Ġrest rict
te ga
Ġopp ose
Ġexpect ing
ĠWar ren
Ġhard ly
Ġindic ating
Ġtest imony
sp ec
Ġexpl os
ĠSp iel
Ġreason able
ĠCol or
ĠBe ach
CI AL
Ġwin ter
Ġorgan ized
Ġsupp lier
Ġfeel ing
Ġsuff er
Ġfoc used
pro cess
Ġborrow ed
iec e
Comp anies
Ġjud g
Ġpoll ution
ĠInter state
Ġbit ter
Ġappropri ate
Ġlear n
ĠII I
Ġrebound ed
Ġbull ish
Ġpul p
uz z
Ġmachin ery
Ġresol ve
ĠAll en
Ġaband oned
umin um
Ġsquee ze
arr ass
Ġimpl ic
Ġdram atic
ĠRoth schild
Ġexperi enced
rimin ation
ĠDis ney
ĠHon ecker
Ġabort ions
Ġcel ebr
A ss
C l
P art
P EC
T S
c ar
d em
d eal
h as
i ber
l ife
n ual
v ogel
w orth
z ale
Ġt ap
Ġt one
on zale
Ġb irth
it i
Ġw ish
ar c
Ġf it
Ġf ab
Ġf ifth
Ġp et
Ġp estic
Ġp apers
Ġm ix
Ġm aster
ion e
il a
Ġd ream
Ġth row
ent h
ent ure
Ġl ift
et ed
Ġn omin
ur ies
ol ut
Ġg un
Ġst ated
Ġst orage
ot ic
ĠA venue
Ġex hib
In c
In ternational
ul a
ul ner
ĠP rov
ĠD ie
Ġv ast
and om
em pl
ell ite
Ġch a
ĠIn t
Ġpl aint
Ġexp end
Ġle verage
Ġres um
Ġup ward
Ġrec apitalization
Ġpre gn
iz able
Ġdec ades
Ġ8 8
ash ing
ett a
Ġ6 1
Ġsc he
ick en
Ġreg istered
Ġdr ag
Ġback ing
ft y
Ġrem ove
Ġsur plus
Ġbid ders
Ġbr ain
ĠInd ustry
ĠTh ree
Ġdevelop ers
ev a
Ġent hus
Ġob vious
Ġturn over
Ġconsider able
ĠEn gel
Ġmat ure
Ġsw ap
Ġactiv ists
Ġwrit ing
ĠQ uebec
ĠZ eal
mak er
ĠOr ange
down s
Ġsucceed ed
Ġengine ers
Ġpound s
ĠAg n
Ġarr ang
Ġpromot e
Ġorigin ally
Ġpremium s
Ġperm ission
CO M
Ġanticip ation
Ġey es
Ġbur den
Ġpiec es
Ġcalc ulated
Ġfoot ball
ĠCor ry
Ġfle et
ĠBrook s
ĠKenn edy
Ġcateg ory
Ġfreed om
Ġoptim istic
ĠTele graph
Ġarchit ect
May be
Ġcosmet ics
Ġmic rop
ĠHen ry
ĠWeb ster
coup on
Rich ard
onzale z
ĠEngel ken
D T
D on
I m
N on
S im
T yp
U ST
W all
b usiness
i ere
k ey
v ant
y cl
Ġ id
Ġs outhern
an ish
Ġc oin
at he
it ation
Ġw al
ar ation
Ġf ired
Ġp ump
Ġm art
Ġm icro
il os
Ġd uties
Ġh or
Ġh arm
Ġre insurance
et na
et heless
ĠM ul
ĠS qu
Ġon to
ir l
ir m
ow a
ot ing
ĠA re
ĠB eth
ag le
Ġsh ops
Ġex ception
Ġr ide
Ġr ational
th at
ĠF annie
ĠF CC
ĠP ress
Ġun ders
Ġv ulner
ĠJ on
ĠG onzalez
ĠL ew
ĠL ockheed
ĠH oll
ĠR E
ĠR o
ĠR emic
ĠW is
ĠW ill
ab isco
op er
ric h
pp en
Ġnot ing
ri a
ĠSt at
Ġwhe at
so ft
ĠK a
ĠK r
li ers
Ġacc ident
Ġass ass
itt ees
Ġplan e
Ġ6 4
Ġconc rete
Ġ10 2
Ġimp osed
Ġfl ed
Ġ9 00
Ġgen etic
Ġlong time
ob e
Ġrem ark
Ġrem ember
Ġyou th
tern al
Ġbel ong
ĠAn ton
Ġdevelop ments
ĠBo es
Ġemploy ers
Ġrece iving
Ġthink ing
Ġgr ants
the re
Ġ13 0
Ġconsider ation
per ial
ĠAr thur
Ġdist ric
ĠAl bert
Ġsupport ers
Ġlow est
Ġimport ed
Ġnation wide
Ġeng aged
Ġprob e
Ġarg ues
ĠBl o
Ġ197 2
ĠPar liament
Ġbreak ers
Ġpack ages
ĠOr ganization
Ġdifficult y
Ġassoci ate
Ġwin ning
Ġpredict ing
Ġproj ected
Ġdistribut ed
Ġur ging
Ġclass es
Ġuns uccess
Ġstat istics
Ġperm it
Ġrecomm ended
Ġentire ly
Ġcompar ison
Ġexceed ed
Ġdisp os
let ter
ĠBanc o
ĠItal ian
Ġaggress ively
Ġemb arrass
Ġdang erous
Ġspir its
Ġrob ust
Ġtent atively
Ġdeg ree
Ġprofession als
ĠPict ures
ĠSpiel vogel
ĠZeal and
A F
B esides
C he
D onald
L ON
S m
T E
g ets
h ow
l usion
p orts
p rice
s m
v al
w ater
y ard
Ġt act
in der
in ct
in vest
Ġb le
Ġb and
Ġb arely
it ures
Ġw alk
Ġp enn
Ġd ub
Ġh y
om ura
ĠM aine
Ġst ability
Ġst akes
ig ible
ot ton
os h
am in
am an
am ing
Ġsh all
Ġr ub
ul ous
ew el
Ġtr ain
ĠF ree
ĠN at
ĠN EC
ĠN abisco
ect ual
ĠD o
ĠD un
and a
and y
and hi
ĠJ im
ĠG ren
ĠG ov
ĠL ex
ĠL eb
ĠL illy
ĠH am
ĠH ahn
ĠH ousing
ud er
Ġsp ort
Ġinc ur
ake over
ack ete
Ġnot ice
Ġout come
Ġother wise
aw are
ĠK le
ĠK odak
li anz
ile o
ĠCo hen
Ġper fect
pl an
Ġass ert
ert o
Ġstr uck
Ġgovern or
lin ing
enc ing
Ġatt empts
Ġno body
amp ed
Ġprov ed
Ġmin istry
app oint
AL L
Ġra ises
ĠMar ine
Ġcontract or
Ġfact ories
Ġrev ive
Ġmer ge
Ġph ilos
Ġdro pping
ĠCon stitution
Ġcomplet ely
Ġlot s
ĠSp anish
Ġdiscl osure
Ġsteel makers
ĠMich igan
Ġtyp ical
ĠOr tega
Ġimprove ments
Ġdiscuss ed
Ġdiscuss ing
Ġocc up
Ġsucceed ing
ĠIs land
amb ling
ĠPro t
Ġtreat y
Ġtell ing
Ġreach ing
Ġdisappoint ed
Fr ank
Ġinstr ument
Ġansw ers
Ġcontrovers y
Ġpen alties
Ġinsist ed
Ġtim ing
Ġsudden ly
Ġcho ose
Ġess entially
heim er
Ġmainfr ames
Ġtick et
Ġbureauc rat
Ġprin ting
nold s
Ġtot ally
Ġdisag ree
Ġveter an
ĠOp tions
Ġsubscrib ers
Ġdiscontin ued
ĠDai wa
Ġleng th
Ġgyr ations
Ġsche me
Ġdistric ts
0 8
B u
F oreign
L e
O ut
P eter
R udman
T el
T ime
f ers
f red
h let
h alf
k ins
l ook
l ah
n o
p ective
s ub
w ith
w art
Ġt ar
on ent
Ġc ry
Ġb reat
Ġw ire
Ġw ine
ar p
Ġp ork
Ġm or
Ġto y
Ġto ll
ic he
ic ian
Ġd raft
Ġl ists
st one
ĠC IA
ur ther
ĠM esa
ly mp
Ġst im
ĠS i
le hem
ig el
ter ling
ĠA erospace
ĠB ever
Ġcomp ound
Ġwh ites
Ġr are
ak s
ĠF air
iv an
ĠT iger
Ġun con
Ġun ions
Ġv o
Ġv an
ĠG iants
ĠG andhi
ĠL ong
Ġch amp
ĠW ood
ab in
ĠE duc
ĠU t
ist an
ud i
Ġexp ires
Ġres olution
Ġcl ub
Ġqu alif
der ick
ĠO ld
Ġrec r
Ġrec all
iz er
ĠK at
Ġover haul
over ty
Ġstr ip
Ġpresident ial
Ġplan ners
Ġ6 7
Ġ6 8
Ġsc ores
og g
og ether
ian a
Ġcur t
Ġdef ensive
we alth
Ġtrans port
Ġtrans pl
Ġlead s
Ġdep ressed
Ġadv ised
Ġkn ew
ĠBank ruptcy
Ġhelp s
row th
Ġdem ocrat
ret te
Ġgu ide
Ġfr ag
Ġob tained
Ġrest ore
Ġcle ared
Ġche cks
Un like
Ġsupport ing
Ġconf ront
Ġca uses
Ġart icles
Ġproduct ivity
Ġslow ed
Ġpot entially
Ġbar riers
Ġvol unt
Ġarg uments
With in
Ġbroad casting
Ġhapp y
Ġassoci ates
Ġteam s
Ġchar ity
yl lium
Ġur ban
Ġparticip ation
serv ice
ĠConn aught
Americ a
Ġtechn ique
Ġseason ally
Ġdetail ed
Ġunderwrit er
Ġperm itted
Ġvers ions
olid ated
ĠCamp bell
Ġbus y
Ġps yllium
ĠNort heast
Con c
Ġrefer ring
Ġbi otechnology
Ġasp ects
Ġcomfort able
Ġdismiss ed
Can ada
ĠWork ers
Ġbol ster
Ġemphas is
Ġdise ase
Ġow ed
ynam ics
Ġdestro y
Current ly
ĠDirect or
Ġyoun ger
ĠJen rette
lah oma
1 10
B ANK
C om
E W
E m
b s
c ur
c olm
k es
m od
m ail
m ade
p ass
u ent
Ġa ver
he user
Ġs ong
Ġs outh
Ġs itting
Ġo ust
Ġc overs
Ġb ed
Ġb ases
Ġb aby
it ol
it ely
Ġf ol
Ġp ed
Ġm ill
Ġto x
Ġto ug
Ġan aly
ro cess
ic ing
Ġd in
id man
Ġl ock
Ġl unch
st yle
ĠC our
ĠC ra
ĠM ag
ear ly
ĠB ow
Ġsh ake
Ġat hlet
ul ating
ies on
ĠT a
um s
oun ced
ĠL and
ĠH y
ĠH uman
ĠH amm
Ġoff s
Ġch arter
ĠR owe
ost er
ĠW ay
ĠW CRS
ĠE g
ays ia
ĠU r
ĠU ph
ee b
ĠIn tegrated
ist ers
ud son
Ġpl ed
Ġpl ays
ond a
ip les
Ġres ort
Ġres erv
port ion
ĠO PEC
ĠO lymp
Ġpre ced
Ġint r
ĠCh ief
Ġacc ur
Ġ7 7
Ġany way
ert on
Ġinterest ing
ett i
Ġeconom ics
Ġsc ene
Ġatt ached
ield s
Ġfinanc ed
ild ers
Ġ199 5
ind ustry
Ġtax able
Ġsm ooth
ĠComm on
ĠComm odity
led ge
Ġreal ized
ks amer
Ġ20 19
ull ivan
Ġreduc tions
Ġforeign ers
Ġgr ant
Ġturn around
Ġrev olution
Ġche aper
Ġevery body
ĠRes olution
Ġknow ledge
Ġmed ic
Ġexpl ains
Ġexper iments
cl aim
ĠLe ague
Ġrestruct ure
Ġrisk y
Ġcap t
ĠBr ands
Ġlist en
Ġ197 3
Ġsent iment
ĠGerm ans
Ġgreat est
ĠEd ison
Ġreb els
Ġcop ies
ĠAt torney
Ġide as
ĠHar vard
Ġden y
Ġsepar ately
ĠSup er
Ġfavor ite
Ġfre ight
Ġattract ed
ĠIR A
Ġrequest ed
Ġsurvey ed
ĠChrist opher
Ġadm itted
Ġseg ments
Ġelimin ated
Ġmiss ing
Ġclean up
Ġresident ial
bu ilding
Ġpict ures
Ġdomin ated
Ġpen alty
go ing
Ġsurv ive
Ġstead ily
Ġhospital s
Ġstrugg ling
Ġsurprising ly
Ġassum ed
Ġrespect ively
Ġinvolve ment
ĠRey nolds
Ġod d
Ġpetro leum
Ġshr ink
Ġpassen ger
Ġteacher s
Ġstret ch
Ġinquir y
Ġdip lom
ĠGi ulian
Ġnort hern
ĠNichol as
ĠPil son
Ġsanc tions
ĠFerr anti
process ing
ĠGiulian i
1 30
C orporate
D ON
G old
I B
I F
L ondon
M oody
S om
U A
a ults
b ig
f ire
k el
p ublic
t ical
w ich
Ġt reas
Ġt ells
Ġt iny
in ced
on om
Ġthe ater
an on
Ġc ards
or ous
Ġw ages
Ġf lying
Ġm al
Ġm yst
Ġm ale
is ys
ion ally
il ae
as er
Ġh ire
Ġh ang
Ġl ov
et ics
Ġe ld
el son
ĠM useum
ĠM ORT
ĠS pr
ĠS ullivan
un te
ir ation
ow ing
ĠA etna
ĠB art
Ġsh if
ul ative
ĠF ire
ĠF BI
ĠP AP
ore st
ĠN ot
ĠN igel
if ul
ort ium
ĠT e
ĠT ur
ĠT oyota
ĠD aily
ĠD atap
ĠG amble
ĠL es
ĠE v
Ġsp ect
Ġinc ident
Ġj ewel
ip als
Ġcl in
Ġcl imate
Ġrec on
aw ay
Ġapp le
Ġapp arel
Ġbuy s
Ġwe igh
Ġacc r
Ġcomm odities
Ġ7 3
Ġstr ing
Ġsell er
Ġsub urb
Ġret ained
ĠV iacom
Ġrep urchase
Ġbl oc
Ġdeb ts
Ġspec ifically
Ġbel ief
Ġdep ends
Ġserv ing
Ġreal ity
Ġequ ities
Ġfar mer
Ġreported ly
Ġgu ys
Ġent it
Ġent ry
Ġco ast
Ġob st
Ġext ensive
Ġmain tained
Ġstud ying
Ġste pped
Ġ14 0
ĠMer ieux
enn ial
ator ies
ĠWar s
ĠWh itt
Ġlegisl ators
Ġdeli ber
Ġgot ten
Ġeng ines
che quer
roll er
Ġgreat ly
ĠSe idman
Ġadjust able
She arson
ĠSa ab
Ġimprov ing
Ġexc luding
ĠFund ing
Ġrestric ted
Ġrequest s
Ġhom eless
Ġjud icial
Ġoutl ets
ĠMon ieson
ĠEnter prises
Ġmodest ly
onn a
Ġinvent ory
Ġinj unction
Ġrum ored
Ġperform ed
de velop
Ġelectric al
Ġrefin ery
RI ME
Ġwithdraw al
Ġsym bol
Ġdepart ments
Ġintegr ated
Ġconcent rate
uts che
Ġresol ved
Ġcoal ition
ĠCap itol
ĠRAT E
Ġtool s
Ġdiscip line
erts ilae
ĠRoy al
crip tion
Ġinn ov
Ne ither
Est imated
Ġrall ied
ĠCN N
Char les
Ġhaz ard
ĠContain ers
GA GE
Oct ober
Ġcontroll ing
Ġsurround ing
olut ely
ĠDie go
Ġvulner able
ĠLew is
LON DON
ĠGren fell
Ġphilos oph
ĠMORT GAGE
A D
B usiness
E u
E conom
N ext
N issan
S an
S ov
U NT
c ter
c ost
e u
f re
l uster
m osp
n ival
u ition
u able
w hel
z z
he ster
Ġs ending
or iented
Ġb oss
Ġw alls
Ġf ro
Ġp ays
Ġp overty
al og
al ph
Ġm ission
is ory
ic on
Ġd urable
Ġl ies
Ġl ire
Ġl ands
et ers
ec e
ut ions
Ġn urs
ĠC able
ĠC oca
Ġfor g
Ġfor t
ĠM att
Ġst adium
ĠS out
un der
Ġpro te
im m
ot ron
ment o
Ġcon gl
ĠA ust
ĠA ff
Ġhe fty
Ġat mosp
In tel
Ġr ain
ul u
ĠN omura
Ġde fer
ess ee
ess ional
ĠT R
ĠJ ose
ĠL y
ĠR et
ĠW alt
ĠE DT
ist ant
ich i
Ġag end
Ġcl ot
ri end
act ers
ie gel
ĠI owa
ov a
Ġk ron
av or
Ġman ip
Ġcons ent
Ġcomm ittees
ass y
Ġam bit
ade qu
Ġeconom ies
Ġimp lement
Ġfinanc ier
ink erton
Ġfl aw
Ġins ider
Ġthem e
Ġspec ified
Ġbro ther
Ġdiv est
Ġbr ight
Ġfe ared
Ġnews letter
vert ising
ĠTr avel
Ġleg it
Ġdel eg
Ġob s
Ġuse ful
Ġfall s
Ġboard s
ĠMer ksamer
Ġhard ware
Ġindic ations
Ġsw it
Ġfail ing
sp ons
Ġweak ening
Ġstrateg ist
Ġexpl an
Ġfind ings
Ġfound ed
Ġmil k
ĠSp ec
ĠSp orts
co h
Ġquot ations
Ġhapp ening
Ġbreak ing
ĠCont ras
ĠSc iences
ĠMay nard
Ġdev ast
medi ate
Ġthreat ening
ĠConn ecticut
Ġaud it
Ġdiscount ing
Sh are
Ġserious ly
oming dale
Ġnecess arily
Tr ans
Ġscr ut
ĠAnd erson
cep tions
Ġexcess ive
Ġintell ectual
Ġball oon
oh l
Ġfuel ed
ĠMid west
Ġprotest s
ĠPost ed
Ġdang er
Ġess ential
Ġconced ed
Ġassum ing
Ġneighbor hood
ĠHow ard
ĠAlex ander
ĠFuj itsu
ĠRAT ES
MER CIAL
Ġeg gs
cut ting
Ġhon or
ĠMarc os
Ġflex ibility
Ġconsp ir
eps i
Ġacad emic
Ġstre ets
ĠGal ileo
Ġsubsequ ent
Ġbik es
Ġfab ric
COM MERCIAL
Ġmicrop rocess
ĠHam ilton
ackete ering
ĠUr ban
ĠUph am
ĠPAP ER
Ġcongl om
C olumbia
G ood
S un
a us
c an
c all
c orp
d is
h ome
r ative
s ector
z one
Ġ ice
Ġt ank
Ġa wa
re ll
re ced
Ġs hed
Ġc ycl
at on
Ġb uck
it ro
ar ity
Ġf ed
Ġan ger
ro ok
ic tions
Ġd ie
om as
Ġl os
Ġl ung
et work
el a
ĠC ode
ol ph
ac ra
ĠM a
ĠM ik
ers h
Ġst orm
ĠS ons
ĠS acra
ow b
Ġsa m
Ġcon stit
ĠA B
Ġsh ock
up s
Ġtr ail
ĠF ort
ĠD E
and em
ell ogg
ĠL ines
ĠH un
ĠW PP
se e
ab s
ĠE ST
ard ed
Ġexp iration
Ġle ase
Ġcont ent
Ġj ol
Ġnot ion
ĠO m
Ġrec k
Ġout s
ign al
Ġint ention
ĠK ansas
Ġproduc es
Ġk ids
av al
Ġover whel
Ġpart ial
Ġacc omm
Ġacc ompl
Ġbusiness men
iss ance
Ġatt ended
Ġ10 3
Ġofficial ly
ĠV ice
Ġhigh s
Ġthere fore
Ġwor ries
ind ing
Ġsm oking
ict or
Ġrel ie
Ġpublic ation
Ġindex es
Ġgu ess
Ġemploy er
ceed s
Ġcompet itor
Ġperiod s
Ġfam ous
eg oti
Ġset back
Ġport ray
Ġref uge
Ġcoll ect
Ġsw eeping
Ġpriv ile
ĠGen eva
Ġloc ated
Ġmet ropolitan
ĠWh it
Ġsuggest ing
Ġquot as
ĠInvest ments
Ġconv inced
ĠCl ark
ĠCl ub
ĠSc ot
Ġadjust ments
Ġprep are
Ġprep aring
ĠDel med
ĠGold en
Ġappro ached
AN C
Ġviol ation
Ġviol ated
Ġkind s
Other s
ĠSa f
Ġstruct ures
ropri ations
Ġlack luster
Ġpick ed
48 6
Ġtradition ally
ĠGu ard
onn ell
ĠGl ass
Ġadm its
ĠPl an
ran ston
Ġground s
ĠMach in
Ġelectric ity
Ġappoint ment
Ġrecogn ized
Ġrelationship s
Ġreplace ment
Ġdivers ified
Ġsignal ed
Sp ec
Ġcas ino
Mc C
oney well
Ġded uct
Ġconsist ently
lo ad
Mer rill
Ġdump ed
resp ond
Ġdil uted
Ġdoct or
Ġdoct ors
Ġresc ue
Ġmur der
ĠRog er
fortun ately
ĠWa ertsilae
Ġindict ment
ĠKle in
ĠBever ly
Ġdemocrat ic
Ġambit ious
Ġconglom erate
reced ented
ĠSacra mento
Ġaccomm od
E N
I R
L ook
M P
M ar
T otal
a ver
b ook
e en
o z
s ec
s ystem
Ġt ail
Ġa ides
er a
on ing
Ġs un
Ġs ectors
Ġs izable
Ġc ub
at o
Ġb rib
Ġf an
Ġf ault
Ġp our
Ġp ath
Ġp itch
il s
Ġh amp
Ġh iring
Ġl ib
Ġe at
ut ter
ay lor
ĠC and
ĠC BO
Ġfor cing
ol en
Ġg e
Ġg iants
le bor
est in
ir able
Ġpro minent
ot ed
ot us
ear ing
ĠA z
ĠB as
ĠB oren
Ġas ks
Ġcomp liance
Ġwh atever
Ġr arely
ul s
Ġtr acks
Ġtr uth
ĠF A
ĠF ox
ĠP ers
ĠP ack
ĠP inkerton
ĠN ext
ĠN ev
iv ate
iv etti
ĠD es
ĠD orr
ĠD ynamics
Ġv ir
ell igence
ĠG e
ĠL ine
ĠL ittle
ĠW ith
ĠW ells
Ġac res
ric ultural
Ġag rees
our i
Ġres et
Ġup per
Ġup set
ĠI NC
Ġrec yc
ĠK emper
Ġinter ven
Ġsome body
Ġk illing
Ġman eu
Ġso y
ult ane
Ġ7 1
Ġ7 9
Ġany body
iss ipp
Ġ6 00
ra id
Ġdr iven
fl ation
ĠEx chequer
Ġfl ood
Ġem p
Ġadv erse
Ġair port
Ġcompl aint
Ġrece ipts
Ġgr aphics
Ġext ension
Ġter rit
emb ers
Ġconsider ably
Ġopp onents
St ate
Ġmer ged
Ġfac ts
Ġmat uring
Ġneg l
ĠMc K
ĠDep os
Ġli abilities
uss els
Ġprot ected
sp ect
rel lebor
Ġclear ing
Ġexpl ained
Ġrepresent ative
Ġvol unte
Ġsol ution
ĠBr ussels
ĠPar amount
Ġcare fully
Ġcomb at
ĠDel aware
Ġren t
Ġsupp liers
dr ink
Ġchar acters
Ġcal m
Ġseason al
Ġcor respond
Ġdefend ant
Ġtarget ed
Ġap artment
Ġrespond ents
ĠApp ropriations
ĠMon ey
Ġple a
Ġple aded
Ġfeat uring
Ġdraw n
Ġmiss ile
Ġinj uries
Ġpers ist
ĠMex ican
Ġoun ces
Ġfun ction
ĠPer u
Ġhar vest
Ġfundament als
Ġign ored
ĠAut om
Ġtransfer red
Ġstrugg le
Brit ain
ĠMal colm
ĠMal aysia
Ġdownt own
Ġconced es
ĠSam uel
ĠRuss ian
Ġshel f
Ġod ds
Ġpetro chemical
ĠIr ish
Ġscen ario
oco a
Ġadvoc ates
Ġep is
Ġpersu ade
ĠPhilipp ines
Ġoblig ations
ĠElectron ics
ĠMic hel
Ġskept ical
Ġordin ary
ĠHaw ai
Ġfal se
Ġbackl og
ĠColor ado
Ġimplic ations
Sm all
Sov iet
ĠDorr ance
rellebor g
. :
2 25
C alif
H O
M ed
P re
P ut
T okyo
b read
c le
c ry
c tions
c ourt
d am
d istance
g ood
h l
h ic
h ail
i en
m ath
r uct
t ogether
u erto
w as
w ould
x a
z man
Ġ ing
in as
er rill
en ith
it er
Ġm ood
Ġin duc
is a
ou d
Ġh am
Ġh urricane
Ġre acted
st ream
el ect
Ġn ice
ĠC ab
Ġfor fe
ĠM em
ĠM CI
ly n
Ġst ance
Ġst rict
ĠS o
un ning
est s
ĠB ates
ag ger
ce an
Ġhe ro
Ġr acketeering
ak ed
Ġal uminum
ĠF ound
ĠF oot
ĠF reddie
ĠP uerto
ap ing
ĠT er
ĠT echnologies
ĠT aylor
Ġun ivers
ĠD ennis
ĠJ ud
ĠG all
ĠG ary
ĠL ead
ĠL ane
ĠL TV
Ġch air
Ġch osen
ĠR I
ĠR os
ĠR am
ĠR ally
ast ic
ĠW ater
ab ortion
ist on
ud es
Ġsp ill
pp er
Ġ2 000
Ġexp ress
Ġle asing
Ġle ague
Ġcont ained
anc ies
Ġcl er
ight ened
ĠO per
ĠCh urch
Ġcons ortium
Ġ8 1
Ġen able
Ġafter math
Ġsec ure
Ġne ut
ens ions
Ġbond holders
og en
Ġconc essions
Ġimp ose
Ġimp rop
Ġreg istr
Ġdisc rep
str ong
Ġgen erated
Ġback ground
Ġcr imes
Ġjust ify
Ġdep ending
app y
Ġval uable
ĠTh ird
omp uter
Ġfil ms
Ġcompl icated
ins ky
ger y
Ġpolit ically
ĠAr m
Un ited
eth ylene
Ġconf usion
Ġed ge
Ġed ged
ath an
Ġclaim ing
Ġinstitut e
Ġart ist
Ġslow ly
Ġbre ach
Ġfind s
Ġlegisl ature
Ġtro ops
Ġform ally
ĠLe on
Ġnegoti ate
Ġpred icts
Ġbenefit ed
Ġsol e
Ġarg uing
ĠBl ock
Ġsk i
ĠNorth west
ĠCol o
ĠMay or
Ġintroduc tion
ĠWed tech
Ġconvert ed
Ġvis itors
Ġemer ging
Ġchar ities
Ġrespons ibilities
Ġill eg
Ind ustry
ĠPart nership
Ġfoc using
ĠCom mercial
Pro ceeds
Ġautom obile
Ġinterview ed
Ġer r
Ġpoll s
CO UNT
Ġinf ring
Ġencour aging
Invest ment
Ġinvestig ating
ĠSoc iety
Ġadop t
Ġbus hel
Ġmoment um
Ġthous and
Ġaffili ates
Ġsym p
Ġscre ens
ĠMiss issipp
Ġbear ish
Ġunp recedented
Ġrecommend ations
Ġrail road
Ġmonitor ing
Ġcrow d
Ġenh ance
Ġtrem end
Ġcigaret tes
Ġunve iled
iqu es
Ġconsequ ences
ĠShow time
Ġentreprene ur
Ġlobb ying
Ġbud gets
ĠOk lahoma
Ġpoly ethylene
Ġang ry
Ġjudg ment
Ġexpend itures
Sim ilar
Ġunders c
ĠBlo omingdale
invest ment
ĠLeb anon
ĠEduc ation
Ġtoug her
ĠCour ter
Ġoffs etting
kel ey
ĠBart lett
develop ed
ĠMik hail
ĠCBO E
ĠPack wood
B at
B ush
C ol
D e
H ill
O per
W ell
b ors
b urn
d rew
f old
f eld
h igh
h ua
l an
l im
t or
t ies
y u
Ġ iron
he id
er ial
Ġs ick
Ġc attle
Ġc otton
Ġc ocoa
at ra
Ġb ow
it age
ar i
ar on
Ġf are
Ġp in
Ġp owers
Ġin eff
Ġto wer
Ġan im
Ġan imal
Ġd rought
Ġh orse
id av
id ges
Ġl uc
Ġl ie
Ġre ly
st reet
et on
el i
el and
ĠC ur
ĠC ranston
ur ring
ol iday
Ġg ar
Ġg irl
ĠS om
le ge
Ġis ol
Ġbe ef
ĠA sh
ĠB a
ĠB all
ce ived
Ġsh ipped
th ony
ĠF ield
ĠP fe
ĠP ierce
ch oice
ĠN etwork
ĠT os
um er
Ġha ir
ĠG ard
ĠL or
ĠL eg
ĠH o
ĠH ospital
ĠR ou
ĠR ights
ĠR onald
ĠR oh
ĠW eek
Ġab use
ĠU p
ĠIn formation
ist ol
Ġmon opol
Ġbu oy
ĠK h
Ġro utes
Ġsal ary
ĠNew port
Ġman ner
Ġdo g
gr aded
Ġen act
Ġ7 4
Ġoper ated
Ġwork st
Ġpr a
Ġexecut ed
Ġatt r
Ġfund ed
Ġprop erly
Ġdisc ounts
Ġfl uct
Ġel igible
ific ations
ob ody
Ġcr unch
Ġem br
Ġtrans form
Ġrel ax
Ġmin im
Ġmin ute
Ġmin isters
Ġsign als
iet e
ĠMar ina
pr ise
ĠSen ator
Ġstud ios
Ġrev erse
til ities
Ġsim ultane
Ġaff idav
Ġtal ked
Ġwar m
Ġshort age
ĠAss et
Ġris es
Ġlow s
Ġinst alled
Ġref use
Ġpar liament
Ġtest ify
Ġmed i
Ġinvol ves
Ġweak en
Ġweak ened
Ġbre wing
Ġinform ed
Ġmeas ured
Ġmid st
ĠBl ue
Ġquot a
ĠZ ur
Ġboost ing
Ġbreak s
Ġalle ges
Ġconv iction
ĠSe ag
Ġdiscuss ion
ĠPol ish
Ġadjust ment
ipp on
Ġemer ged
dr iven
Ġstaff ers
Ġdistribut or
Ġclass ic
ĠAg riculture
Ġer a
ĠPan aman
Ġprosp ective
Ex c
Ġban ned
Ġprosecut or
ĠAnd rew
Ġinj ured
ĠBrad street
Ġpartnership s
Ġrefin ancing
ograph ic
Ġdomin ant
Ġult imate
ĠMil an
ĠJack son
ĠEqu ity
Ġwind ow
Ġconsist ent
ĠMiss ouri
Ġconsolid ated
Ġder iv
ĠKenn eth
Ġloy al
par ts
Ġconvers ion
Ġeg g
Ġmention ed
izz a
ĠTenn essee
Ġspark ed
Ġconcentr ated
Ġrepeated ly
ĠIm perial
ena issance
Ġemot ional
ĠOl ivetti
Ġdecre ase
Ġrac ial
ĠAk zo
ĠIM F
ĠKent ucky
Ġplaint iffs
Ġarrang ed
ĠAre a
ppen heimer
Ġincur red
ĠProt ection
sub stant
ĠEv ans
ĠWars aw
Eu rop
ĠAff airs
Ġconspir acy
Ġcub ic
ĠRI CO
ĠMississipp i
ĠPfe iffer
1 70
4 50
A M
A X
A ir
A BC
C BS
D igital
D TV
E d
F our
F urther
G u
M ortgage
N D
Q intex
S O
U s
b re
b us
c el
c ollar
d ling
e ment
g oods
h y
m illan
p eople
p enter
w s
Ġ They
Ġa veraged
re v
Ġs ad
Ġc amer
Ġc abin
at ers
Ġb orn
Ġb ound
Ġb read
Ġb reed
Ġb order
Ġw is
Ġw ors
Ġf ix
Ġp ig
Ġp ess
Ġp ock
Ġm as
Ġm ort
Ġin ev
Ġin adequ
is ons
ro g
Ġd ark
Ġd rew
id ity
Ġl anding
et a
el man
ut ing
ĠC as
ad ian
ad just
ĠM d
ĠM arg
Ġst uck
ĠS il
le g
Ġcom edy
im a
os uez
Ġcon str
Ġcon struct
ĠA xa
ĠB og
ĠB rew
Ġsh ad
oc hester
Ġr ural
Ġwith drew
up p
ĠF em
ĠF eb
ĠP C
ĠP epsi
ch i
ch t
ch or
ĠT ed
ĠT relleborg
Ġun h
Ġv ig
ĠJ o
oun ce
ĠL imited
ĠH O
ĠR od
ast ro
Ġ19 69
od es
Ġinc est
gh an
Ġres ur
ex empt
Ġcl ar
ok ed
Ġqu it
ri k
ition s
ition al
ous es
Ġdis rup
Ġdis asters
Ġint end
ree k
ĠK n
ĠCh annel
Ġlo ose
Th rough
Ġcomm and
Ġcomm unities
Ġ7 00
ens on
ang er
Ġown ing
Ġexecut ion
Ġend s
Ġend ors
Ġconc lusion
ĠV ictor
Ġpay roll
Ġrep orter
Ġdeb ut
Ġ199 7
Ġeff iciency
min ute
Ġdes per
Ġmin es
Ġadv ances
ĠAn g
Ġfe els
ret t
Ġgu errill
Ġgr ip
Ġpost ing
ene fit
Ġnear by
az z
Ġstud ied
Ġcredit or
Ġsix th
Al ready
ĠAl lied
ĠAl aska
ĠTreasury s
unic ation
Ġcre ation
Ġindic ator
Ġsw ift
Ġpriv at
Ġfail ures
ĠPh armaceutical
Ġcomplet ion
ER T
Ġclear ance
Ġamount ed
Ġform ula
Ġsuit or
Ġbar red
Ġcover t
Ġquot es
Ġsk ills
Ġcontribut e
Ġcontribut ion
AT E
Ġ197 1
Ġ197 6
Ġsent enced
Ġpubl ish
ĠBar ry
nes ota
ĠCol gate
Ch ina
Ġsusp ect
ĠAm ex
Ġarbitr agers
Ġide al
Ġvis ible
Ġvis ited
Ġtend ered
Ġden ies
ĠWilliam s
Ġdoub ts
Ġparticip ating
Pro gram
Ġpick ing
ĠFrank lin
ĠJust in
Ġperm its
Ġstay ed
Ġpurs uing
Ġlit er
Ġmult iple
ĠEng ine
ĠLa ure
Ġce ase
ĠSoc iete
Ġnarrow ed
Ġunus ually
Ġsound s
Ġrecogn ize
ĠMont real
Ġlic ens
Ġapplic ation
Ġpain ting
ĠGar c
Ġexam ination
Ġbask ets
Cons ider
Ġtour ists
Ġstem ming
Ġmatch ing
El sewhere
Ġfranchise es
Ġremov ed
Ġbon uses
aut hor
Ġspin off
ĠRoberts on
ĠBel g
ĠVer mont
Ġflo ating
ĠSand inist
ĠJew ish
Ġarrest ed
ĠMo ore
ĠHis pan
Ġsurf ace
Ġcalcul ations
uis se
Ġterror ism
Ġadequ ate
Ġfem ale
Ġunn ecess
enth al
ĠInt elligence
ĠUt ah
Ġeld erly
ĠSout heast
Ġclot hes
Ġexplan ation
Ġconstit u
Oper ating
Ġluc rative
ĠPanaman ian
Ġpess im
! "
2 40
A ct
B ack
C ommunications
E Y
F OR
I P
L ater
N early
P eters
R et
S C
S P
U p
V est
W he
a ith
c as
e k
f us
f raid
h o
h ors
n ew
o om
o itt
y e
z ens
Ġ ."
Ġa fraid
in er
re cht
Ġs ed
Ġs ac
Ġo zone
Ġc um
Ġc ounts
at ures
or rect
Ġb acter
Ġf el
Ġf ert
Ġf ores
Ġm ere
Ġm useum
is an
ic am
Ġd ual
Ġd ress
Ġd amp
Ġh in
Ġl ap
Ġl ived
st ar
st ill
st ers
st ig
st ory
Ġe lement
Ġn orth
ĠC ard
ĠC ie
ĠC arter
ĠM ir
ĠM ah
Ġst ressed
ĠS us
ĠS um
ĠS em
un es
un ists
le ading
ĠB ud
Ġcomp iled
Ġex empt
oc ation
Ġr anks
ul ent
Ġtr ies
ĠF res
ĠF itz
ĠF iat
ĠF argo
ĠP lant
ĠN ether
ort on
ĠT ro
ĠH ast
Ġch ose
Ġch amber
ĠR ico
se y
ĠU tilities
op ular
od ore
ub b
Ġag ricultural
Ġle an
Ġcont ains
Ġstock holders
Ġcl othing
Ġind irect
ri ble
ign ificant
Ġpre stig
ĠK ar
Ġim bal
av is
Ġover come
Ġdo zens
Ġper ception
ish ment
rop ert
Ġbusiness man
Ġoper ational
Ġus er
Ġunder t
Ġplan ner
ian o
Ġatt acks
Ġbo il
ick ing
Ġearn ing
fl ot
Ġdisc rimination
Ġbl ank
ĠEx ecutive
ound ed
Ġspec ify
ib a
ĠUn iversal
Ġsur ve
Ġserv es
Ġkn ock
Wh atever
Ġpublic ity
hold ing
Ġgu ilders
Ġannoun cing
Ġemploy ed
Ġcontract ors
Ġgr ab
Ġrest ated
Ġ11 1
Ġmod er
Ġopp osite
ĠAr row
aid en
Ġdist inct
Ġaff air
Ġaff ecting
ĠAl lianz
Ġph ase
Ġregul ator
ĠRep resent
Ġinst ant
Ġdrop s
Ġdro ve
Ġlat ter
Ġbas ically
ĠMin nesota
ĠSte ve
ĠCar penter
ris on
fol k
Ġcol on
Ġcond em
ĠAd vertising
ĠRe venue
Ġbroad ly
ĠZ enith
Ġsk y
ĠSe attle
Ġfav ored
Ġred emption
Ġgold en
Ġunc lear
Ġstri king
epend ent
crib e
Ġemer ge
Ġattempt ed
Ġcampaign s
Ġblock s
Ġviol ate
ĠSa udi
Ġsuff ering
Ġstruct ured
Ġpromot ions
ĠQu otron
Ġsat ellite
Ġrej ection
Ġroll ed
Ġroll ing
Ġanticip ate
Ġple ased
ĠGl enn
Ġdraw ing
Ġelimin ating
af e
Ġabs ence
Ġabs olutely
Ġlink s
room s
Ġcat alog
Ġvac c
Ġshut tle
ero flot
Ġconn ected
ĠWil son
Ġrefer red
Over all
Ġfrequ ent
Ġacknowled ges
Ġarrange ments
ĠEdward s
ĠIsrael i
Ġtick ets
Ġjournal ists
Ġcateg ories
Ġbureauc racy
Law yers
ĠCF TC
Ġdeterior ation
Ġlif ted
ĠMary land
Ġhed ge
Ġwel come
do ing
ĠEar th
Ġsumm it
ĠAnt ar
Ġfurn iture
augh ter
Ġpestic ides
ione er
Ġresum ed
Ġid le
ĠStat istics
ĠAnton io
ĠBoes ky
Ġunsuccess ful
Ġrecr uit
ĠKat z
Ġhazard ous
Econom ists
Ġatmosp here
Ġagend a
owb oys
system s
Ġmaneu ver
ĠFound ation
Ġtremend ous
Ġmort ality
adjust ed
oitt e
ĠNether lands
ĠHast ings
5 50
B r
C S
C it
C amp
C apital
D emocrat
E astern
F ew
F reddie
G e
G r
G overnment
J eff
M I
N obody
P aul
R ated
R ather
S w
V al
c ap
d ep
f at
f ill
g om
g le
j ohn
l est
l ance
m o
n ost
o ard
o gh
p erson
r ation
r ap
r ift
t urn
t roller
u or
w estern
y ou
Ġt emb
Ġt echnologies
re tion
Ġs ister
Ġc ul
Ġc argo
or gan
Ġb ells
Ġw ider
Ġw ins
Ġw aves
Ġp hen
is ms
Ġd ry
Ġd iamond
Ġl ately
st ated
et ing
Ġn om
Ġn ick
ay ing
ĠC ancer
ĠC ircuit
ur ances
ĠM en
ĠM ell
ĠM oon
Ġg ift
Ġst olen
ĠS ug
le vel
Ġpro long
us ive
ot o
os ures
Ġcomp troller
Ġsh out
th s
Ġtr ick
Ġal ive
ĠF ol
ĠF TC
ĠF UN
ĠP S
ĠP ubl
ch ing
ĠN am
ĠN FL
ĠN ASA
if ies
ess ed
Ġun spec
em ex
ĠJ er
ell ow
ĠG overnment
ĠL O
ĠW ard
ĠW ach
Ġab rupt
od ed
Ġpl ot
Ġpl ate
Ġinc orrect
ans on
Ġcont act
Ġj ail
ip her
Ġnot ably
ok es
AR S
Ġup d
ĠI ss
ĠSt one
Ġshare d
own ers
ord ers
ĠK u
ĠK ab
ĠK emp
Ġro y
Ġro of
Ġse ize
Ġsal aries
Ġk ing
ount ing
Ġover r
ĠCh amber
Ġcons isting
Ġdo ors
gr ap
Ġ8 4
ress ive
Ġen ab
Ġen acted
Ġ7 6
Ġany where
Ġar ray
Ġam ended
Ġlik es
Ġimp e
Ġimp ression
Ġreg ions
Ġrep eal
Ġdr illing
Ġ199 6
Ġ9 3
Ġact ed
ind ed
Ġsm oke
Ġsur gery
Ġconcern ing
Ġdon ated
Wh ite
Ġyield ing
Ġagree ing
ĠTr ading
Ġfr uit
Ġfr action
As ked
Ġemploy s
rol et
Ġcomputer ized
Ġgr anted
Ġrest ored
Ġmove ments
Ġour s
Ġdist urb
Ġprom ising
ateg ic
Ġpress ing
Ġmat ched
ĠWest inghouse
ĠMc N
Ġnon performing
.) .
Ġloc ations
Ġremain der
emp tions
Ġadvert ise
Ġexpl o
Ġpass ing
Ġeng age
Ġsuccess fully
Ġsteel maker
ĠGr ay
AT O
Ġ197 7
Ġwid ened
Ġsit es
ĠGre ece
ĠRich mond
ĠCol lege
Ġovers ees
Ġreb u
Ġcomb ine
ĠAm endment
dr ug
Ġindepend ence
ĠSup erv
cont ract
ĠPro cter
Ġautom atic
Ġpromot ing
Ġcor rec
Ġreview ing
Ġunderwrit ing
ĠBer keley
AS B
Ġcommission er
Ġrespond ing
ĠChrist ian
Ġple as
Ġchallen ges
gers oll
Ġspread s
Ear nings
Ġinvestig ators
Ġcorn er
Ġregard ed
ĠLouis ville
Ġdi agn
Ġperform ing
Ġrein vest
Ġfun ctions
ĠFlor io
Ġroad s
Ġregular ly
Ġsuper market
Ġwind ows
Ġlic enses
ĠPal o
Ġopt ical
Ġbi as
ĠRub icam
Ġdispl ays
Ġspir it
cons in
Sec ond
ĠAv iation
ĠLev ine
Can adian
ĠFuj i
ha ust
Ġhistor ical
Fin ally
Ġassess ment
ĠCF Cs
Ġimm une
Ġstabil ize
Ġmand atory
Ġcigaret te
Ġsle ep
Ġreop en
Ġring ers
ĠBron x
Geor gia
Ġcatastrop hic
IG N
Ġgather ing
ĠLoren zo
ĠSwed ish
ĠJacob son
ĠBeth lehem
Ġqualif y
ĠCra ig
Ġtreas urer
spons ored
coh ol
ĠMachin ists
McC aw
Calif ornia
Ġilleg ally
Ġcum ulative
Ġphen omen
ĠFUN DS
Ġunspec ified
8 50
A W
A ut
B enz
C r
D O
F annie
J udge
L et
L ate
M A
M its
P roduc
R JR
S I
S al
S te
S anta
U T
W ed
W ash
W here
a ud
b ar
b age
b ide
c or
c ase
g ence
h oods
h olm
j ury
k ur
l uent
p e
r ated
s im
t own
w ear
z er
z ech
Ġt ables
Ġt emper
Ġt uition
Ġs ank
Ġc ode
Ġc ultural
Ġb lin
Ġb att
it ate
it igation
ed ith
Ġf end
Ġf ool
Ġf usion
al m
Ġm ir
Ġm ild
Ġm ills
Ġin ner
ro ck
as y
Ġd ig
om eter
om bia
id ency
Ġl aid
Ġl etting
Ġre imb
st ance
st ered
ĠC up
ĠC ities
ĠC oke
ĠC owboys
ur se
Ġfor th
ĠM ount
ĠS T
ĠS ut
ĠS uisse
ir ts
ot te
Ġcon ce
ĠB en
ĠB acker
ĠB enson
am ford
Ġhe ating
Ġhe lic
oc c
Ġr ushed
Ġr andom
ul es
Ġal ter
ĠF oster
ĠP re
ĠP ic
ĠP as
ch o
ĠN elson
ĠT im
ĠT ower
Ġun r
Ġun related
ĠD ick
ĠD aly
Ġv owed
um n
um ing
and ler
ĠG il
ĠG od
ĠL ake
ĠL ind
ĠH ear
ĠH end
ĠH DTV
Ġch ances
ĠR en
ĠR ose
ĠR alph
Ġ19 75
ĠE th
ĠE li
ĠE PA
ud ent
Ġad ap
Ġad ults
Ġsp ots
Ġexp osed
Ġexp ired
ans ui
Ġcont ing
Ġcont ext
Ġ-- -
Ġnot ified
ok h
Ġup scale
act ory
Ġbu ff
ĠSt amford
ĠO ppenheimer
Ġrec ording
Ġout p
Ġpres erve
Ġse qu
Ġinter im
ey er
Ġcons iders
pl ed
Ġ7 8
Ġany more
ass ette
Ġar my
Ġunder standing
An nual
Ġret re
Ġexecut e
Ġsc ience
og ic
og ue
Ġsl ip
He alth
ons ider
Ġrep airs
Ġ199 8
Ġins ol
Ġ9 1
Ġact ively
ft ersh
Ġbro thers
Ġmin ic
Ġcomput ing
Ġbr idges
Ġfederal ly
Ġsign ing
Ġcount ed
Ġcount ers
ĠAn ders
Ġless on
Ġgu ard
ĠMar vin
Ġgr id
Ġgr im
Ġstrong est
Ġsim pl
ĠStock holm
Ġste am
Un less
St r
ĠAl t
ĠAl to
Ġwar s
ĠMer edith
ĠBro s
rat or
Ġmat urities
ĠWall ach
Ġcre ates
Ġpropos ing
Ġref r
15 5
eb ook
Ġsw eep
Ġdemand ed
Ġtop ic
Ġtest ed
Ġkeep s
Ġart ists
ĠFin n
Ġexpl aining
cent ury
Ġnegoti ators
Ġcol ony
Ġsol ve
Ġsol utions
ann on
Ġpat ient
ĠBr un
ĠBr uce
ĠBl um
Ġsent ence
Ġla ugh
Ġcare ful
Ġconv ention
Ġquestion ed
bitr age
Ġ200 3
ĠCol eman
Ġovers ee
Ch rist
ĠDe utsche
ĠPol it
ĠPol ar
Ġstri pped
Ġstri kes
ĠGold berg
Ġaccept ing
rec iation
Ġinterv ention
ĠHar old
Ġblock ing
Other wise
Ġarr ived
Ġfast est
Ġdesign er
Ġappear ance
ĠAf ghan
Ġmass age
Ġmass acre
Comp any
Comp uter
empor ary
ĠApp lied
hib a
Ġfeat ure
ows ki
Ġrad ical
Ġcounter parts
Ġpoor ly
Ġmargin al
Ġpopular ity
ĠAc cept
Ġbur st
omin ated
Ġmem or
Ġunderst ood
Ġconduc ting
Ġsel ect
hi hua
reg on
Ġrecogn ition
Ġmount ing
Ġsuper ior
Ġequal ing
Ġdefin ition
Ġsym pt
Ġign ore
Ġign oring
Rep ublic
ĠMet ropolitan
Ġpublisher s
Ġenter prises
Ġquiet ly
Bond s
Ġestablish ment
part y
Ġconvers ations
Ġpsych ology
ĠNicaragu an
Ġmeant ime
Ġcolum ns
Ġbon us
produc t
Ġpark ing
Ġhon est
ĠJeff rey
Ġdise ases
Ġbatter y
Ġpassen gers
ATION AL
Ġkick ed
Ġsuperv is
ĠEuro com
Ġjur ors
Ġaccomp an
Geor ge
ĠVol okh
Ġcou ples
Ġdimin ished
ĠProf essional
Ġpregn ant
Typ ical
Ġpenn y
Ġdin ner
ĠCommon wealth
Som etimes
Ġshif ting
Ġjewel ry
Ġswit ched
call able
Ġcycl ical
Ġlos ers
Ġaccommod ate
Ġterrit ory
ĠDepos it
ĠHawai i
ĠLead er
Ġregistr ation
ĠRou ge
Exc luding
Ġderiv ative
Ġcabin et
ĠFem ina
ĠGarc ia
Ġvacc ine
Ġhelic op
1 45
4 25
B rown
D o
D ou
E ast
F re
L IN
M oney
N orth
O C
S ir
W ork
b id
b el
b ot
b ean
d es
e z
f ast
f all
h ave
l ock
l ie
n ce
o ided
p son
p rov
p urchase
s qu
s elling
u h
u ine
w ether
y en
Ġ rom
Ġt ire
Ġt ie
Ġt anks
in ity
er man
er ia
er ating
Ġs idelines
an im
Ġc ush
es is
at ched
en er
or f
or er
Ġb ike
it ach
ed o
Ġw ary
Ġf illing
Ġf aith
Ġp all
Ġp ure
Ġp eg
Ġp riz
al van
Ġm ent
Ġm oral
as ers
as nost
Ġd ated
Ġh ide
ent on
Ġl ad
Ġre aches
st al
st and
ĠC S
ĠC ell
ol ly
ol ester
ol ved
ĠM ather
ĠM ills
Ġg olf
Ġst ir
Ġst iff
Ġst ems
ĠS y
ĠS at
ĠS is
ĠS id
ĠS yd
un ct
un ned
est ed
ig y
us al
ĠA er
ĠB ou
ĠB ir
ĠB ass
Ġcomp onents
ak y
ak ers
ĠF er
ĠF ilip
ĠP ap
ĠP roduc
ĠN u
ĠD eb
ĠD ella
ĠJ ay
end ers
ell ent
ĠG rad
ĠL one
ĠL DP
ĠL otus
ĠH amb
Ġoff sh
ĠW y
ĠW aste
ab out
ab eth
od a
ĠIn gersoll
ist ical
Ġle ases
Ġcont ended
ip t
Ġinv ited
ere g
Ġnot ebook
ĠSt ras
ĠO w
eral ly
Ġgro c
ren cy
ĠK as
ĠK och
ĠK ohl
ĠK ellogg
Ġse ized
Ġinter state
Ġinter bank
Ġapp les
Ġdec iding
ail ing
Ġover d
ach ment
Ġ8 3
Ġ8 6
ms ley
Ġen v
lud ed
ass ador
ash ua
Ġam end
ade au
Ġsl ashed
Ġdef ended
Ġdef ined
Ġdef aults
Ġdr ivers
Ġdisc retion
Ġfl ash
Ġfl ows
Ġdeb acle
Ġspec ulated
Ġcr ush
ĠUn isys
Ġtrans fers
Ġdes ert
Ġmin imal
Ġsur ren
Ġbid der
Ġshe ets
Ġadv isory
hen baum
Ġkn ocked
ĠInd osuez
me g
ĠAn thony
vert ed
Ġdeal ership
Ġrece iv
ling ton
ron ic
az da
ĠAl fred
ĠMan ila
unic ipals
Ġav oided
Ġorder ly
Ġpar all
Ġsom ewhere
Ġgain ing
ĠCon ner
Ġfound ation
Ġwrit es
Ġrestruct ured
Ġsuggest ions
Ġrequire ment
Ġpack aged
Ġsoon er
Ġpubl ishes
ĠCont ra
ĠBar n
Ch airman
ĠBe ers
ĠAm ster
ĠDel oitte
ĠSal v
Ġviol ence
Ind ividual
Ġliqu or
Ġur ge
Ġengine ered
Ġcongress man
Pro be
Ġpros per
Ġattract ing
Ġer ror
Ġuns ett
Ġdesign s
Ġborrow ings
Ġpromot ional
inn ie
Ġconserv atives
Ġban ning
olid arity
Ġship yard
Ġmar ried
Ġdisput es
Ġdisput ed
Ġmaintain ing
Ġinflu ential
Ġwrong doing
ĠAc ad
ĠAc henbaum
Ġresear cher
Ġvac ant
ĠGreen wich
ĠMil ton
Ġdeep ly
comp uter
Ġbarg ains
Ġprotest ers
ĠPal estin
Ġdiss ident
ĠCons erv
Ġcho ices
ĠEm ploy
Ġsubm it
Ġapart heid
Ġunw illing
Ġhousehold s
ĠBrook lyn
Ġobject ives
Ġaband on
ĠKing dom
Ġrout ine
Ġsquee zed
Sc ott
Comm on
Ġesc ape
Ġinn oc
Ġinterpret ed
Ġbatter ed
Ġexpert ise
Ġcrow ded
Ġele v
Ġreop ened
Ġsuperc onduct
Ġsuperc omputer
Ġwitness es
Ġanx iety
ĠCath ay
ĠBern stein
Ġunexpected ly
Ġbell wether
Ġconstant ly
Ġpostp one
umber ed
Tex as
Ġenthus i
ĠQuebec or
Ġassass ination
Ġdub bed
Ġhy br
ĠLex us
appoint ed
Ġuncon stitutional
Em ploy
eeb ok
ĠTur key
Ġmicroprocess or
Similar ly
ĠZur ich
ĠSem el
aiden form
Ġprolong ed
ĠNam ib
Wash ington
ĠPolar oid
ĠAccept ance
Ġcush ion
itach i
olester ol
ĠSyd ney
ĠAmster dam
B o
C rit
C NB
D B
D em
D ep
E T
F ollow
F ees
G iven
H ouse
H aving
I LL
I mp
L ong
L loyd
M e
M id
M erc
N one
N egoti
O K
P C
R ight
S ept
S terling
Z T
a ire
b ust
b ury
d oes
e ven
f air
g ar
h m
h on
h orn
j ud
l if
p eco
s es
t ra
v iew
w it
x y
Ġt ack
Ġt ension
Ġt aste
Ġa ro
in ations
er b
on ough
Ġs essions
an es
Ġb old
Ġb etting
it ively
it udes
Ġw ed
Ġw oo
Ġf ares
al con
ing ers
ing ell
Ġin her
Ġto pped
ic ate
ic its
ic iary
il ization
as ks
Ġd ance
Ġd ynam
Ġd aughter
Ġd ereg
Ġh id
Ġth ick
Ġl in
st op
et ch
ĠC in
ĠC hen
ur ally
ĠM ack
ĠM obil
Ġg au
Ġst ages
ĠS ol
ĠS ub
ĠS DI
ĠS aks
un ted
le ans
est ro
est le
ig o
ow itz
Ġpro d
ter y
Ġsa g
Ġsa ving
ĠA eroflot
ĠB ork
ĠB ally
ĠB enn
ag g
Ġcomp are
Ġsh ore
Ġsh oot
Ġhe m
Ġex haust
ul ence
ain ts
Ġtr uly
Ġal ly
ĠF le
ĠF ab
ĠP eople
ĠP izza
ĠP emex
ĠN R
ĠN ippon
ĠN CNB
Ġde pl
iv ision
ort ed
ĠT W
ĠT rib
ĠD ole
ĠJ erry
Ġha ul
ĠG ab
ĠL ab
ĠH ess
ĠH off
ĠH BO
ĠH udson
ĠH onda
Ġch unk
Ġch annel
Ġch olesterol
ĠR ap
ĠR enaissance
ĠW he
ab insky
ĠE s
ĠE ll
ĠE agle
op ing
ĠIn str
Ġpl at
Ġsp ends
Ġinc orpor
Ġcont empl
Ġres orts
Ġind icted
ok yu
port ed
port ing
ĠI ron
ĠO re
Ġrec re
Ġrec onsider
Ġout cry
iz abeth
Ġpres idency
Ġse iz
Ġfin es
Ġfin ish
Ġim minent
Ġdec ides
li ver
ĠY ank
ĠY ale
Ġper ceived
Ġacc um
ish ita
Ġme at
Ġme ga
ecut ives
Ġass igned
over ed
Ġsales man
Ġstr ain
Ġiss uing
Ġpresident s
Ġam az
Ġsub stance
Ġsc ut
Ġsc ore
Ġsc ared
Ġprop er
eop ard
ĠV iew
Ġhigh light
Ġthere after
Ġdr ain
Ġdr ama
amp s
Ġact or
Ġcar bon
Ġcar pet
Ġprov ider
Ġem issions
Ġgrow s
Ġgrow ers
Ġtrans m
Ġdep ress
Ġbr ings
app ropri
Ġadv ising
Ġaut hors
ĠAn n
Ġspok e
Ġent ering
Ġev ident
Ġrece ives
Ġhead ing
At lant
az ard
az ine
Ġsecond s
yn ex
Ġche m
ĠAir port
Al ong
Ġph ones
Ġant ib
ufact uring
Ġed itors
Ġperson ally
ier ra
Ġsett ling
ĠMc L
ential s
Ġcoll abor
ef in
less ly
Ġmanufact ure
Ġmanufact ured
ĠSh arp
ĠFin land
emp le
Ġexpl ore
Ġpass age
ĠCar bide
ĠMor ishita
ĠDec ker
ĠSp ace
Ġsing er
ĠTel ecommunications
Ġread er
Ġcommercial s
fol io
ĠBr istol
ĠGr ace
Ġ197 8
opp ers
ĠShe ll
ĠBar b
ĠCol omb
ĠOr der
ĠOr leans
Ġprefer ence
Ġcop e
Ġred emptions
crib ed
Ġcanc el
ĠSm all
Ġdistribut e
pro f
Ġfre eway
Ġestabl ishing
Ġhot els
Americ ans
Ġtechn iques
Comp aq
ĠVal ue
Ġap iece
lear ly
ĠMon etary
ĠMac millan
Ġprosecut ion
ĠHug hes
Ġpurs uit
ĠGu arant
dic tion
Ġbott le
Ġinvestig ations
Ġlear ning
ĠLouis iana
fr ont
Ġmem o
Ġmind s
Ġspecul ative
Ġiniti atives
ĠMcD onough
ĠMont e
Ġsli pping
Ġdiss ent
Ġobserv ed
Ġlaunch ing
My ers
Ġcast ing
Ġintegr ation
ĠWe is
Ġrepe at
ĠEm b
Ġsatisf y
Ġsatisf ied
Ġsatisf action
ĠFre derick
Ġstem med
ĠIndian apolis
Ġneighbor hoods
ĠMajor ity
iat ric
Ġobject ive
Ġexist ence
Ġrecommend ation
Ġlab el
atin um
Ġgener ic
Ġremov ing
Ġbol stered
Ġannounce ments
Ġmagn etic
produc tion
ipe i
gu ided
ĠCarl os
Ġspons or
Ġinterpret ation
Ġbasket ball
Ġtum or
Ġcopy right
Ġoccas ionally
ĠAS SO
ĠWat hen
yd ro
Ġtext ile
Ġaccomp any
Ġquant ities
Ġpostp oned
Ġsweet ened
ĠMad ison
Inter est
ĠWell ington
ĠArk ansas
ĠHot el
ĠRay mond
ĠChev rolet
ĠCub a
Ġexplos ion
ĠWis consin
Ġaver ages
Ġmedic ine
IB OR
ĠDatap roducts
Ġfro zen
Ġoverwhel ming
Ġhamp ered
ĠFA A
Ġvir us
Ġemp ire
Pre viously
Ġham mer
Ġdiscrep ancies
lim it
eli hood
ĠGard ens
Ġwis dom
Ġinadequ ate
Ġunnecess ary
Ret ail
Ġsac r
Ge igy
Ġtemb lor
ĠIss ues
ĠKab ul
Ġimpe achment
Ġphenomen on
Ġinsol vent
ĠASSO CI
1 40
4 75
A c
C ity
C ray
D ay
E P
G l
G reat
H ar
I H
K idder
M icro
N O
N othing
O b
R ev
S il
W estern
Y ear
a uty
c er
c ol
c ity
c ott
d on
d ro
d oor
g ro
g ain
n ad
n ation
n ik
n eg
p iece
r age
r ary
s ignificant
t t
t ick
u ated
u ating
u ise
w aste
x ide
z oil
z hihua
} ,
Ġt reasury
Ġt issue
Ġt asks
Ġa ftersh
in os
in ely
he lp
er ox
Ġs id
Ġs our
Ġs ink
Ġc er
Ġc ro
Ġb our
Ġb oy
it arian
ar bitrage
Ġf ought
Ġf ancy
Ġm ush
is ive
is able
ro s
ro ft
ic ism
ic yc
il ateral
as hes
Ġd ust
Ġh unt
Ġh itting
Ġh oliday
Ġth anks
Ġth orough
Ġre actions
Ġn ose
Ġn eck
Ġn iche
ay ed
ay ers
ĠC oll
ĠC irc
ad en
Ġg ent
Ġst y
ĠS ur
ĠS tern
ĠS oup
ĠS olidarity
un ion
Ġ1 70
le an
Ġcom ic
Ġcom eb
Ġbe ars
Ġpro of
us o
os hi
ear ning
ĠA ZT
ĠB ry
ĠB uff
ĠB rian
Ġcomp ly
Ġhe s
In s
Ġr ic
Ġr ice
ul in
ul atory
rom e
Ġal together
Ġal cohol
ĠF orest
ĠP Cs
ess ing
ĠT w
Ġun if
Ġun anim
ĠD i
ĠD al
ĠD ES
ĠD ingell
Ġv ess
Ġv ision
ell ate
ĠG ould
ĠG erald
ĠG AF
Ġch airs
ĠR and
ĠR eebok
Ġ19 50
ĠE mer
Ġab ol
art ed
Ġpl ain
Ġsp y
Ġ2 70
ep lex
Ġj eopard
Ġres emb
Ġcl ause
ri age
ri ev
act ive
Ġbu zz
ĠI NT
Ġop ens
ord on
aw n
ĠK ir
Ġdec ent
ov ich
av ed
Ġcons ists
arg in
Th omas
ik a
ik o
Ġcomm unist
ash i
Ġsub jects
Ġret ains
orn e
Ġbo oming
Ġprop ag
ick ers
Ġsl ack
Ġimp ending
ra ham
ĠV oice
Ġins iders
Ġ9 6
ind s
Ġgen uine
ib ank
Ġtrans ition
Ġrel ating
rov ed
Ġdep reciation
ĠBank America
omp uters
Ġair ing
Ġra ider
Ġ12 9
olog ist
Ġreduc es
Ġob viously
Ġhand ed
the y
inc ent
Ġspecial izes
Ġreturn ing
ĠAr ts
ĠAr by
Un fortunately
Ġaff luent
Ġcent ennial
aim ler
Ġtal ent
Ġsen ator
Ġseem ingly
Ġorder ing
Ġnon etheless
Ġsom etime
work s
Ġte en
Ġart ific
ĠSh annon
ĠTex aco
au x
au ld
ĠSouth west
ĠSp iegel
Ġwrit ers
Ġplun ging
ĠTel evision
Ġmid night
ĠPet erson
Ġpred ecess
Ġgl asnost
Ġpat ents
Ġcap able
Ġboost s
Ġsk in
Ġsk id
ĠComp any
AT ES
Ġreason ably
ĠTV A
opp y
ĠRich ter
ĠBar cl
Ġ200 4
ĠCol ombia
ĠEd elman
Ġdev al
Ġfav ors
Ġwin ners
ĠDel icious
Ġvar i
Ġvis its
Ġrele ases
be at
Ġaccept able
rec urring
Ġprem ier
ĠHar ry
Ġdoub ling
Ġproceed ing
ama ichi
Ġinterview s
ĠPan zhihua
Ġdepos itary
Ġaud iences
Ġdisapp ear
Ġliquid ation
Ġexc lude
Ġclimb ing
Sh ares
ĠMotor ola
Ġsure ly
Ex xon
NC NB
ĠChrist ie
US X
Ġrecomm ends
Ġinf r
Ġsyn the
Ġsn apped
Ġchallen ged
ĠHealth Vest
cr ash
Ġmis leading
Ġdisappoint ment
br idge
Ġce ment
tr ade
ĠSim pson
Ġbur d
Ġdi ab
Ġvac ation
bu ro
Ġdescrib es
Ġprompt ing
Ġprompt ly
Ġbull et
ograph y
law yer
Ġwithdraw n
equ ity
Ġhar sh
Ġscand als
atter ed
Ġsurv ival
raz y
comp any
Ġphot o
Ġphot os
ĠLabor atories
Ġrang es
Ġrang ed
Ġintegr ity
Ġpull ing
Ġsettle ments
Mc G
Every one
bank ing
Cont ra
Ġtour ist
Ġtour ism
Ġcrop s
ĠStates West
Ġconsolid ation
Ġsust ain
ĠHung arian
par ov
Ġcyc les
ĠBu ick
vard nad
Ph ilip
Ġoptim ism
ĠMur ray
Ġphys ical
Ġphys ician
DI S
ĠHart ford
Ġspons ors
Ġeval uation
Ġeval uate
Ġdeposit ory
Ġdeterior ating
Market s
Ġow es
Ġtum ble
Ġmethod s
ĠHer itage
Ġinquir ies
Dec ember
ĠCamb od
Ġwear ing
Ġanx ious
Ġgall ery
Ġet hn
ĠRob inson
Ġseed s
Ġsem ian
ĠCharl otte
App le
ĠBan que
Ġreve al
ĠEr n
Ġsch olar
Ġdefe at
ĠChev ron
deal er
Ġexhib ition
ĠKr avis
Che mical
Ġtact ics
Ġassert ed
Ġtranspl ants
Ġvolunt ary
Ġfol ks
Ġtox ic
ĠTa ipei
big gest
ĠNot es
Ġsuburb an
onna is
ĠAust in
ĠTR UST
ĠLy onnais
Ġlegit imate
Ġscrut iny
Ġprivile ge
ĠSaf ety
Ġanim als
ĠKh mer
substant ial
Europ ean
ĠMarg aret
ĠBrew ing
Ġfert il
Ġimbal ances
ropert y
CS F
gom ery
ĠSug arman
ĠSuperv ision
Mits ubishi
Annual ized
Ġsympt oms
ĠCell ular
ĠSis ulu
ĠKas parov
Ġhid den
Ġgau ge
ĠHoff man
Ġcomeb ack
ĠINT ER
vardnad ze
B ar
B aker
C onn
D u
D re
D et
D ollar
E L
F l
F und
F ER
F utures
J ack
L abor
M o
M ax
M CA
R eg
S up
S cribe
T T
T akeover
W orld
a ired
c ot
c ili
c ircuit
d ner
d led
f our
f ere
f amily
f izer
g ling
i ors
i ated
j i
k ee
l aim
n ame
p o
p in
s ome
t ains
t akeover
u els
v ale
v iol
z ing
z heim
Ġt un
Ġt ip
Ġt ends
Ġt empt
Ġt abl
Ġa str
er ious
er ick
on ly
re en
re form
Ġc ere
at re
at ible
at rice
en ius
or ate
or ia
Ġw ines
Ġw estern
Ġw rec
ar ray
Ġf ate
Ġf inger
Ġf iber
Ġp erv
Ġp ills
ing u
Ġm ile
Ġin k
is ure
Ġto w
il der
Ġd ive
Ġh all
Ġh ook
Ġth rowing
Ġth wart
ĠC a
ĠC am
ĠC zech
ac les
ĠM us
Ġg ifts
Ġst aged
Ġst alled
Ġit em
Ġ1 10
Ġon going
Ġbe aut
Ġpro ven
Ġpro portion
Ġpro claim
im ental
us on
Ġy es
res dner
Ġcon stitute
ĠA C
ĠA very
ĠB y
ĠB on
ĠB onn
ĠB oyd
ag en
Ġcomp rehensive
Ġsh aken
Ġhe ll
Ġr er
Ġr iding
her s
ak i
ak istan
ĠF ult
ĠP ret
ĠP AS
ĠP ope
ch ief
ĠN L
ĠN ow
ĠN ob
ĠN az
ĠN SC
ĠN IH
iv ated
ĠT ol
ĠT own
ĠT amp
ĠT erry
ĠD ill
ĠD em
ĠD ell
ĠD ealers
Ġv end
Ġv ans
Ġv ital
Ġv ocal
um ble
em ble
ĠG ordon
ĠL ipper
ĠR U
ĠR y
ĠR ie
ĠR ead
ĠR ochester
Ġmarket er
ĠIn ternal
Ġinc omp
Ġinc hes
Ġj ack
ire ment
Ġnot iced
ri pp
ight ed
ĠI v
ĠO regon
Ġrec ip
eral s
Ġint rad
ĠK ay
ĠK night
Ġpres erv
Ġse a
Ġapp et
Ġim ages
Ġover head
ĠY am
Ġcons c
con sc
Ġper estro
Ġso aring
ug s
Ġ4 86
Ġass ured
Ġass erts
ert z
Ġsales men
Ġsales people
Ġpr ide
Ġsc aled
Ġend orse
Ġprop ose
Ġsl ated
Ġreg ain
Ġdef l
Ġdef icits
Ġthere by
ild ren
ern and
Ġlong standing
Ġprov ince
pt y
ept ive
Ġjust ice
min ed
Ġdep r
Ġshe ll
Ġadv ise
Ġwell s
sh aring
Ġbill ing
Ġcount ing
ĠAn gl
ĠAn heuser
ĠTh is
ĠTh rift
Ġlower ing
olum bus
Ġnews print
ĠBo ok
Ġher self
Ġdem anding
Ġsever ely
erson al
Ġcontract ed
Ġgr ay
Ġext r
inc ial
Ġopen ly
Ġrev ived
ĠAr nold
Ġche ating
Un ion
ĠEn d
Ġmer it
Ġwar ming
Ġwar ns
Ġwar nings
Ġshort ages
Ġtel eph
ĠSan ford
Ġport able
Ġsw ing
Ġprot ecting
work ers
Ġsubsid ized
Ġte a
