{"<s>":0,"<pad>":1,"</s>":2,"<unk>":3,"<mask>":4,"!":5,"\"":6,"#":7,"$":8,"%":9,"&":10,"'":11,"(":12,")":13,"*":14,"+":15,",":16,"-":17,".":18,"/":19,"0":20,"1":21,"2":22,"3":23,"4":24,"5":25,"6":26,"7":27,"8":28,"9":29,":":30,";":31,"<":32,"=":33,">":34,"?":35,"@":36,"A":37,"B":38,"C":39,"D":40,"E":41,"F":42,"G":43,"H":44,"I":45,"J":46,"K":47,"L":48,"M":49,"N":50,"O":51,"P":52,"Q":53,"R":54,"S":55,"T":56,"U":57,"V":58,"W":59,"X":60,"Y":61,"Z":62,"[":63,"\\":64,"]":65,"^":66,"_":67,"`":68,"a":69,"b":70,"c":71,"d":72,"e":73,"f":74,"g":75,"h":76,"i":77,"j":78,"k":79,"l":80,"m":81,"n":82,"o":83,"p":84,"q":85,"r":86,"s":87,"t":88,"u":89,"v":90,"w":91,"x":92,"y":93,"z":94,"{":95,"|":96,"}":97,"~":98,"¡":99,"¢":100,"£":101,"¤":102,"¥":103,"¦":104,"§":105,"¨":106,"©":107,"ª":108,"«":109,"¬":110,"®":111,"¯":112,"°":113,"±":114,"²":115,"³":116,"´":117,"µ":118,"¶":119,"·":120,"¸":121,"¹":122,"º":123,"»":124,"¼":125,"½":126,"¾":127,"¿":128,"À":129,"Á":130,"Â":131,"Ã":132,"Ä":133,"Å":134,"Æ":135,"Ç":136,"È":137,"É":138,"Ê":139,"Ë":140,"Ì":141,"Í":142,"Î":143,"Ï":144,"Ð":145,"Ñ":146,"Ò":147,"Ó":148,"Ô":149,"Õ":150,"Ö":151,"×":152,"Ø":153,"Ù":154,"Ú":155,"Û":156,"Ü":157,"Ý":158,"Þ":159,"ß":160,"à":161,"á":162,"â":163,"ã":164,"ä":165,"å":166,"æ":167,"ç":168,"è":169,"é":170,"ê":171,"ë":172,"ì":173,"í":174,"î":175,"ï":176,"ð":177,"ñ":178,"ò":179,"ó":180,"ô":181,"õ":182,"ö":183,"÷":184,"ø":185,"ù":186,"ú":187,"û":188,"ü":189,"ý":190,"þ":191,"ÿ":192,"Ā":193,"ā":194,"Ă":195,"ă":196,"Ą":197,"ą":198,"Ć":199,"ć":200,"Ĉ":201,"ĉ":202,"Ċ":203,"ċ":204,"Č":205,"č":206,"Ď":207,"ď":208,"Đ":209,"đ":210,"Ē":211,"ē":212,"Ĕ":213,"ĕ":214,"Ė":215,"ė":216,"Ę":217,"ę":218,"Ě":219,"ě":220,"Ĝ":221,"ĝ":222,"Ğ":223,"ğ":224,"Ġ":225,"ġ":226,"Ģ":227,"ģ":228,"Ĥ":229,"ĥ":230,"Ħ":231,"ħ":232,"Ĩ":233,"ĩ":234,"Ī":235,"ī":236,"Ĭ":237,"ĭ":238,"Į":239,"į":240,"İ":241,"ı":242,"Ĳ":243,"ĳ":244,"Ĵ":245,"ĵ":246,"Ķ":247,"ķ":248,"ĸ":249,"Ĺ":250,"ĺ":251,"Ļ":252,"ļ":253,"Ľ":254,"ľ":255,"Ŀ":256,"ŀ":257,"Ł":258,"ł":259,"Ń":260,"Ġt":261,"Ġa":262,"in":263,"he":264,"er":265,"on":266,"re":267,"Ġs":268,"Ġthe":269,"Ġo":270,"an":271,"Ġc":272,"es":273,"at":274,"en":275,"or":276,"Ġb":277,"it":278,"ed":279,"Ġw":280,"ar":281,"Ġf":282,"Ġp":283,"al":284,"ing":285,"Ġm":286,"Ġin":287,"Ġof":288,"is":289,"Ġto":290,"ion":291,"Ġan":292,"ro":293,"ic":294,"il":295,"ĠĊ":296,"as":297,"Ġd":298,"ou":299,"Ġh":300,"om":301,"Ġand":302,"Ġth":303,"ent":304,"id":305,"Ġl":306,"Ġre":307,"st":308,"et":309,"Ġe":310,"el":311,"ec":312,"ill":313,"ut":314,"Ġn":315,"ay":316,"ĠC":317,"ad":318,"'s":319,"ur":320,"Ġfor":321,"ol":322,"ac":323,"ĠM":324,"ly":325,"Ġg":326,"ers":327,"ve":328,"Ġst":329,"ĠS":330,"un":331,"Ġit":332,"Ġ1":333,"le":334,"Ġthat":335,"est":336,"Ġon":337,"The":338,"Ġcom":339,"Ġis":340,"ir":341,"ig":342,"ow":343,"Ġbe":344,"ation":345,"Ġpro":346,"ver":347,"ter":348,"im":349,"Ġ$":350,"us":351,"ot":352,"Ġsa":353,"os":354,"ment":355,"illion":356,"Ġ\"":357,"Ġy":358,"res":359,"Ġcon":360,"uc":361,"ear":362,"Ġsaid":363,"ĠA":364,"ĠB":365,"Ġas":366,"ts":367,"ag":368,"Ġcomp":369,"ce":370,"Ġwh":371,"am":372,"Ġsh":373,"Ġhe":374,"Ġat":375,"ith":376,"ate":377,"Ġex":378,"ld":379,"oc":380,"In":381,"qu":382,"Ġr":383,"ul":384,"ew":385,"her":386,"Ġwith":387,"ak":388,"rom":389,"up":390,"ies":391,"th":392,"Ġby":393,"ain":394,"Ġfrom":395,"Ġtr":396,"Ġmillion":397,"Ġal":398,"ĠF":399,"ĠP":400,"ore":401,"ap":402,"Ġwas":403,"ch":404,"ĠN":405,"ial":406,"Ġde":407,"00":408,"if":409,"ark":410,"Ġare":411,"ess":412,"iv":413,"ould":414,"ect":415,"Ġits":416,"ort":417,"are":418,"ust":419,"ĠT":420,"Ġun":421,"ĠD":422,"Ġv":423,"any":424,"Ġyear":425,"um":426,"and":427,"em":428,"ive":429,"Ġor":430,"ĠJ":431,"Ġha":432,"'t":433,"end":434,"ell":435,"ĠG":436,"oun":437,"ock":438,"ĠL":439,"Ġhas":440,"ĠH":441,"Ġoff":442,"Ġch":443,"arket":444,"ĠR":445,"ost":446,"ast":447,"igh":448,"Ġwill":449,"ĠW":450,"ity":451,"se":452,"Ġ19":453,"ge":454,"ab":455,"ĠE":456,"out":457,"Ġac":458,"ĠMr":459,"Ġab":460,"ays":461,"all":462,"ĠU":463,"op":464,"Ġhave":465,"ome":466,"Ġmarket":467,"od":468,"ee":469,"ĠIn":470,"ist":471,"ric":472,"art":473,",\"":474,"ich":475,"ud":476,"Ġad":477,"ant":478,"Ġpl":479,"Ġsp":480,"age":481,"pp":482,"ard":483,"ub":484,"Ġinc":485,"ond":486,"Ġ2":487,"ong":488,"Ġag":489,"Ġcompany":490,"our":491,"ther":492,"Ġexp":493,".\"":494,"gh":495,".,":496,"ue":497,"tion":498,"Ġle":499,"ors":500,"ork":501,"Ġtrad":502,"duc":503,"ans":504,"Ġcont":505,"ep":506,"Ġwhich":507,"Ġj":508,"old":509,"Ġstock":510,"ip":511,"Ġ3":512,"Ġwould":513,"--":514,"anc":515,"Ġres":516,"ank":517,"Ġinv":518,"Ġgo":519,"Ġabout":520,"man":521,"ake":522,"ex":523,"ff":524,"ire":525,"ure":526,"ber":527,"ere":528,"Ġ--":529,"ack":530,"ine":531,"ated":532,"Ġcl":533,"Ġmon":534,"Ġnot":535,"Ġind":536,"mer":537,"Ġsays":538,"ok":539,"Ġthey":540,"AR":541,"Ġnew":542,"ST":543,"orp":544,"Ġqu":545,"Ġup":546,"ri":547,"Ġear":548,"Ġthis":549,"act":550,"Ġmore":551,"ings":552,"ART":553,"START":554,"Ġwere":555,"ations":556,"ight":557,"Ġhad":558,"der":559,"Ġbu":560,"Ġpric":561,"Ġbillion":562,"port":563,"ie":564,"Ġinvest":565,"ven":566,"ĠI":567,"ĠSt":568,"day":569,"ĠO":570,"ition":571,"ice":572,"Ġtheir":573,"Ġshare":574,"Ġop":575,"But":576,"Ġrec":577,"uch":578,"use":579,"Ġout":580,"Ġfir":581,"Ġbut":582,"Ġ198":583,"ry":584,"ign":585,"Ġwhe":586,"und":587,"Ġthan":588,"ous":589,"Ġdis":590,"Ġhis":591,"so":592,"ance":593,"eral":594,"Ġbeen":595,"Ġother":596,"Ġone":597,"ely":598,"Ġgro":599,"ident":600,"Ġpre":601,"Ġwho":602,"own":603,"ord":604,"aw":605,"iz":606,"Ġint":607,"ree":608,"ren":609,"ia":610,"ĠK":611,"ase":612,"ct":613,"oll":614,"Ġpres":615,"Ġro":616,"yst":617,"Ġall":618,"ose":619,"ary":620,"ical":621,"Ġse":622,"ents":623,"Ġinter":624,"Ġalso":625,"Ġbec":626,"Ġsal":627,"Ġapp":628,"Ġfin":629,"ĠCorp":630,"wo":631,"Ġproduc":632,"Ġim":633,"ual":634,"ities":635,"ey":636,"eek":637,"Ġdec":638,"ov":639,"Ġsome":640,"ates":641,"ail":642,"Ġ5":643,"ĠNew":644,"ĠInc":645,"Ġk":646,"ount":647,"av":648,"li":649,"able":650,"oin":651,"arter":652,"ble":653,"fter":654,"ime":655,"erv":656,"ile":657,"ares":658,"Ġover":659,"ĠCh":660,"ange":661,"Ġman":662,"ĠCo":663,"Ġpart":664,"Ġbuy":665,"Ġmonth":666,"ĠY":667,"Ġcons":668,"ach":669,"iness":670,"Mr":671,"ide":672,"Ġbank":673,"ause":674,"Ġdo":675,"usiness":676,"gr":677,"con":678,"Ġper":679,"Ġoffic":680,"Ġso":681,"ough":682,"000":683,"arg":684,"ug":685,"Ġshares":686,"Ġtwo":687,"ational":688,"Ġ4":689,"Ġtrading":690,"Ġ(":691,"pl":692,"oss":693,"Ġlo":694,"Ġ8":695,"Th":696,"Ġyears":697,"Ġwe":698,"ms":699,"It":700,"ased":701,"ress":702,"ult":703,"ik":704,"rit":705,"Ġacc":706,"Ġcan":707,"wn":708,"Ġen":709,"ugh":710,"ures":711,"Ġcould":712,"Ġcomm":713,"Ġafter":714,"ish":715,"rop":716,"Ġbusiness":717,"Ġ7":718,"Ġlast":719,"ments":720,"fit":721,"ions":722,"lud":723,"Ġ&":724,"Ġme":725,"ecut":726,"Ġadd":727,"ected":728,"Ġweek":729,"ĠFr":730,"Ġsec":731,"Ġany":732,"ass":733,"Ġass":734,"Ġne":735,"air":736,"ating":737,"ash":738,"ens":739,"Ġbecause":740,"ang":741,"vel":742,"red":743,"hed":744,"ĠYork":745,"ax":746,"ubl":747,"over":748,"ite":749,"Ġwhen":750,"one":751,"ence":752,"itt":753,"Ġar":754,"ert":755,"Ġoper":756,"Ġsales":757,"urn":758,"Ġstr":759,"Ġincre":760,"ester":761,"Ġiss":762,"Ġsell":763,"Ġpresident":764,"Ġwork":765,"Ġoffer":766,"meric":767,"ace":768,"Ġbond":769,"conom":770,"Ġus":771,"Ġdown":772,"vern":773,"Ġgovern":774,"Ġpr":775,"ower":776,"Ġam":777,"ade":778,"Ġunder":779,"for":780,"Ġonly":781,"osed":782,"Ġinto":783,"An":784,"lin":785,"Ġfirst":786,"enc":787,"Ġquarter":788,"Ġown":789,"ious":790,"Ġsub":791,"apan":792,"very":793,"Ġinterest":794,"Ġinclud":795,"oy":796,"Ġret":797,"Ġmost":798,"hn":799,"omm":800,"Ġsay":801,"ues":802,"Ġsuch":803,"iss":804,"Ġplan":805,"Ġexecut":806,"Ġreport":807,"ett":808,"Ġeconom":809,"iel":810,"orn":811,"ise":812,"ederal":813,"Ġ6":814,"Ġmay":815,"Ġsc":816,"ital":817,"alyst":818,"gram":819,"uring":820,"Ġmak":821,"Ġgovernment":822,"oint":823,"og":824,"ĠAmeric":825,"anies":826,"ian":827,"Ġend":828,"Ġatt":829,"Ġconc":830,"Ġprices":831,"change":832,"Ġfund":833,"Ġindust":834,"Ġif":835,"aj":836,"Ġbo":837,"Ġprogram":838,"Ġprop":839,"fer":840,"Ġcompanies":841,"Ġcents":842,"Ġlik":843,"ird":844,"eop":845,"Ġpol":846,"ick":847,"Ġsup":848,"Ġsl":849,"Ġ10":850,"Ġimp":851,"Ġcur":852,"ield":853,"Ġfinanc":854,"rough":855,"Ġearn":856,"ajor":857,"He":858,"ll":859,"ra":860,"Ġgroup":861,"lier":862,"ons":863,"Ġno":864,"Ġofficial":865,"Ġtime":866,"eople":867,"ets":868,"ĠV":869,"ĠJapan":870,"Ġest":871,"Ġann":872,"esterday":873,"50":874,"Ġreg":875,"Ġhigh":876,"Ġdef":877,"Ġnet":878,"Ġbet":879,"Ġprofit":880,"ood":881,"Ġthere":882,"Ġmany":883,"Ġpay":884,"ild":885,"Ġrep":886,"Ġprice":887,"ink":888,"Ġtake":889,"ern":890,"its":891,"urities":892,"Ġdr":893,"fl":894,"Ġanalyst":895,"Ġdisc":896,"Ġdire":897,"Ġlaw":898,"Ġrecent":899,"son":900,"Ġmajor":901,"ix":902,"amp":903,"ory":904,"ision":905,"Ġbl":906,"ĠEx":907,"ally":908,"Ġfl":909,"Ġdeb":910,"Ġ199":911,"ext":912,"Ġmuch":913,"Ġstate":914,"Ġcost":915,"Ġins":916,"Ġ9":917,"Ġwor":918,"Ġnow":919,"Ġcurren":920,"Ġel":921,"we":922,"Ġmonths":923,"Ġbig":924,"Ġthem":925,"ouse":926,"ief":927,"ater":928,"ound":929,"Ġact":930,"str":931,"ific":932,"Ġeff":933,"Ġinvestors":934,"Ġyesterday":935,"Ġagain":936,"ility":937,"ind":938,"Ġspec":939,"We":940,"Ġgen":941,"Ġback":942,"ame":943,"ublic":944,"Ġthree":945,"Ġcontr":946,"apital":947,"ives":948,"Ġrose":949,"Ġpeople":950,"tions":951,"Ġcontin":952,"Ġcar":953,"Ġdirect":954,"Ġstocks":955,"Ġlong":956,"ob":957,"Ġloss":958,"ft":959,"Ġeven":960,"orts":961,"Ġthird":962,"Ġrem":963,"fore":964,"Ġbonds":965,"Ġprov":966,"Ġcr":967,"airman":968,"ove":969,"Ġem":970,"Ġtax":971,"oth":972,"ner":973,"Ġthrough":974,"ects":975,"Ġhold":976,"pt":977,"ince":978,"ept":979,"ared":980,"Ġcall":981,"ib":982,"ss":983,"ury":984,"ton":985,"Ġjust":986,"Ġdid":987,"Ġearnings":988,"Ġhow":989,"Ġ30":990,"min":991,"ollar":992,"gan":993,"iday":994,"Ġyou":995,"Ġbro":996,"tern":997,"ystem":998,"ains":999,"rib":1000,"als":1001,"ĠUn":1002,"stit":1003,"Ġgrow":1004,"Ġfut":1005,"Ġwhat":1006,"reat":1007,"Ġnext":1008,"Ġtrans":1009,"Ġmake":1010,"Ġacqu":1011,"ever":1012,"io":1013,"ese":1014,"Ġdes":1015,"ember":1016,"Ġbel":1017,"Ġfore":1018,"ush":1019,"isc":1020,"Ġmoney":1021,"cess":1022,"Ġsm":1023,"ict":1024,"Ġpur":1025,"stitut":1026,"ied":1027,"Ġrel":1028,"Ġmin":1029,"ists":1030,"ics":1031,"ĠComm":1032,"Ġlead":1033,"Ġsur":1034,"Ġexpected":1035,"Ġexecutive":1036,"Ġchief":1037,"ible":1038,"Ġ.":1039,"Ġdiv":1040,"velop":1041,"rov":1042,"Ġcomput":1043,"Ġindustry":1044,"Ġbefore":1045,"Ġbid":1046,"Ġdep":1047,"On":1048,"ĠOct":1049,"ont":1050,"ĠAmerican":1051,"Ġbr":1052,"led":1053,"ĠFriday":1054,"Ġserv":1055,"Ġearlier":1056,"year":1057,"Ġdollar":1058,"Ġmade":1059,"uct":1060,"Ġconcern":1061,"ited":1062,"Ġfederal":1063,"ued":1064,"%.":1065,"ative":1066,"Ġunit":1067,"iew":1068,"form":1069,"Ġofficials":1070,"Ġfinancial":1071,"Ġshe":1072,"Ġdon":1073,"app":1074,"Ġcurrent":1075,"25":1076,"Ġadv":1077,"ily":1078,"Ġrate":1079,"line":1080,"ional":1081,"read":1082,"Ġcour":1083,"Ġaut":1084,"Ġproble":1085,"hen":1086,"other":1087,"Ġhig":1088,"Ġwell":1089,"Ġinvestment":1090,"Ġsign":1091,"Ġfirm":1092,"iet":1093,"Ġkn":1094,"And":1095,"Ġfour":1096,"Ġmanag":1097,"ced":1098,"Ġthose":1099,"ĠInd":1100,"sh":1101,"ween":1102,"lp":1103,"Ġreal":1104,"Ġstill":1105,"Ġdays":1106,"Ġequ":1107,"verage":1108,"ants":1109,"ency":1110,"Ġwhile":1111,"Ġshow":1112,"Ġlike":1113,"Ġbetween":1114,"ober":1115,"Ġbill":1116,"ider":1117,"Ġval":1118,"alif":1119,"Ġcount":1120,"me":1121,"ĠAn":1122,"ices":1123,"ploy":1124,"ines":1125,"Ġgood":1126,"arge":1127,"Ġfe":1128,"Ġfell":1129,"ĠTh":1130,"Ġagainst":1131,"ĠBank":1132,"venue":1133,"Ġsince":1134,"Ġlower":1135,"olum":1136,"ĠExchange":1137,"ising":1138,"Ġhelp":1139,"Ġdoes":1140,"ĠSept":1141,"Ġnews":1142,"ending":1143,"Ġdebt":1144,"omp":1145,"Wh":1146,"Ġspok":1147,"Ġget":1148,"Ġprev":1149,"Ġmarkets":1150,"Ġago":1151,"tal":1152,"ks":1153,"row":1154,"Ġchairman":1155,"For":1156,"les":1157,"Ġrates":1158,"AL":1159,"They":1160,"vert":1161,"ged":1162,"ized":1163,"ular":1164,"Ġdeal":1165,"Ġrequ":1166,"ump":1167,"Ġincome":1168,"ning":1169,"Ġyield":1170,"ful":1171,"Ġfar":1172,"Ġ20":1173,"Ġspokes":1174,"Ġagree":1175,"That":1176,"ertain":1177,"Ġestim":1178,"Ġcred":1179,"Ġhigher":1180,"ĠCalif":1181,"ases":1182,"Ġpublic":1183,"Ġdevelop":1184,"Ġshould":1185,"Ġindex":1186,"Ġsmall":1187,"ĠBo":1188,"ĠTr":1189,"reed":1190,"Ġher":1191,"Ġfil":1192,"Ġdem":1193,"Ġanalysts":1194,"ull":1195,"Ġless":1196,"Ġ15":1197,"Ġleg":1198,"Ġsecurities":1199,"reas":1200,"Ġcapital":1201,"agement":1202,"Ġissue":1203,"Ġsystem":1204,"ording":1205,"Ġair":1206,"ired":1207,"hold":1208,"ward":1209,"ĠSec":1210,"ually":1211,"ty":1212,"Ġdif":1213,"ĠBrit":1214,"Ġra":1215,"Ġnum":1216,"Ġsever":1217,"Ġreported":1218,"ret":1219,"75":1220,"Ġcompl":1221,"Ġlarg":1222,"ustr":1223,"Ġincluding":1224,"ators":1225,"ĠJapanese":1226,"ense":1227,"Ġfive":1228,"oci":1229,"Ġfunds":1230,"Ġcut":1231,"erson":1232,"ained":1233,"ev":1234,"Ġgu":1235,"ins":1236,"urance":1237,"Ġ12":1238,"ection":1239,"ĠEu":1240,"Ġent":1241,"Ġneed":1242,"Ġthese":1243,"artment":1244,"Ġannoun":1245,"echn":1246,"Ġbeing":1247,"Ġ1988":1248,"Ġfr":1249,"Ġhim":1250,"Ġproducts":1251,"As":1252,"ribut":1253,"ĠHouse":1254,"Ġdel":1255,"olog":1256,"ean":1257,"istr":1258,"orpor":1259,"Ġfew":1260,"Ġev":1261,"Ġdeclin":1262,"ger":1263,"Ġco":1264,"Ġpast":1265,"alth":1266,"Ġbanks":1267,"hip":1268,"land":1269,"Ġhal":1270,"Ġemploy":1271,"Ġpurch":1272,"att":1273,"osition":1274,"Ġresp":1275,"Ġincrease":1276,"ĠMar":1277,"This":1278,"Ġrece":1279,"Ġcontract":1280,"Ġdidn":1281,"Ġthink":1282,"unk":1283,"Ġreduc":1284,"ling":1285,"rol":1286,"Ġduring":1287,"Ġsold":1288,"10":1289,"pr":1290,"Ġhead":1291,"Ġgeneral":1292,"%,":1293,"Ġaddition":1294,"ior":1295,"Ġsale":1296,"Ġob":1297,"Ġcomputer":1298,"ron":1299,"Ġclosed":1300,"Ġforeign":1301,"Ġput":1302,"Ġcash":1303,"Ġgr":1304,"Ġbuild":1305,"Ġhand":1306,"ollow":1307,"the":1308,"ĠEurop":1309,"Ġwant":1310,"Ġext":1311,"uit":1312,"Ġpost":1313,"Ġday":1314,"Ġrest":1315,"Ġlevel":1316,"inc":1317,"pped":1318,"Ġoperations":1319,"Ġ1989":1320,"ohn":1321,"Ġcommon":1322,"If":1323,"ene":1324,"Ġfact":1325,"Ġvice":1326,"Ġway":1327,"Ġplans":1328,"Ġter":1329,"Ġfutures":1330,"At":1331,"eep":1332,"Ġwhere":1333,"reet":1334,"Ġ1987":1335,"Ġgrowth":1336,"reasury":1337,"Ġanother":1338,"Ġnear":1339,"Ġtrade":1340,"ject":1341,"te":1342,"Ġopen":1343,"ying":1344,"az":1345,"Ġboth":1346,"emb":1347,"Ġmeet":1348,"Ġsecond":1349,"ately":1350,"Ġbrok":1351,"gest":1352,"Ġ13":1353,"Ġ11":1354,"Ġisn":1355,"Ġfollow":1356,"imes":1357,"quarter":1358,"Ġearly":1359,"ised":1360,"Ġthough":1361,"Ġturn":1362,"Ġthen":1363,"Ġtak":1364,"ĠSen":1365,"ago":1366,"Ġmain":1367,"Ġstud":1368,"Ġconsider":1369,"Ġstrong":1370,"Ġissues":1371,"Ġcredit":1372,"aren":1373,"med":1374,"uf":1375,"ceed":1376,"Ġlook":1377,"eter":1378,"elf":1379,"Ġseveral":1380,"per":1381,"Ġuse":1382,"Ġcorpor":1383,"ees":1384,"Ġmod":1385,"Ġeach":1386,"Ġrun":1387,"Ġtraders":1388,"Ġtotal":1389,"ministr":1390,"ply":1391,"Ġvery":1392,"Ġsix":1393,"Ġmight":1394,"aper":1395,"Ġworld":1396,"get":1397,"Ġ'":1398,"Ġmov":1399,"Ġrev":1400,"til":1401,"Ġsim":1402,"Ġeconomic":1403,"round":1404,"Ġcle":1405,"Ġmove":1406,"earch":1407,"Ġclose":1408,"Ġpolit":1409,"Ġspecial":1410,"ages":1411,"Ġcompet":1412,"yn":1413,"Ġour":1414,"'re":1415,"Ġopp":1416,"ĠStock":1417,"Ġreturn":1418,"ĠAr":1419,"Ġche":1420,"ife":1421,"ongress":1422,"Ġused":1423,"ission":1424,"ient":1425,"Ġaverage":1426,"ting":1427,"Ġste":1428,"Ġspokesman":1429,"ults":1430,"iod":1431,"ially":1432,"anding":1433,"Ġadded":1434,"Ġcosts":1435,"Un":1436,"aid":1437,"outh":1438,"ready":1439,"Ġfall":1440,"Ġdist":1441,"Ġaff":1442,"Ġcent":1443,"ĠAir":1444,"ĠEn":1445,"St":1446,"ones":1447,"aim":1448,"Ġmer":1449,"Al":1450,"ten":1451,"Ġyen":1452,"ĠNational":1453,"Ġsuc":1454,"ason":1455,"ĠAl":1456,"ize":1457,"Ġstart":1458,"Ġ50":1459,"Ġpartic":1460,"Ġwon":1461,"eth":1462,"Ġbelie":1463,"way":1464,"ĠBush":1465,"Ġdue":1466,"ĠTreasury":1467,"Ġleast":1468,"Ġpoint":1469,"uction":1470,"Ġpolic":1471,"Ġdirector":1472,"Ġnumber":1473,"Ġtal":1474,"Ġwar":1475,"Ġperiod":1476,"Ġofficer":1477,"ittle":1478,"Ġagreement":1479,"ĠMan":1480,"vest":1481,"ames":1482,"ĠCan":1483,"Ġcourt":1484,"There":1485,"Ġlate":1486,"Ġ14":1487,"Ġamong":1488,"Ġboard":1489,"Ġbeg":1490,"Ġshort":1491,"ĠNor":1492,"roduc":1493,"ĠMer":1494,"Ġsupport":1495,"Ġdoesn":1496,"Ġprevious":1497,"ather":1498,"Ġalready":1499,"Ġchang":1500,"hes":1501,"Ġph":1502,"Ġsame":1503,"Ġbased":1504,"Ġtoo":1505,"ustom":1506,"oints":1507,"Ġ1990":1508,"Ġcase":1509,"unic":1510,"Ġtel":1511,"Ġant":1512,"Ġrevenue":1513,"Ġresult":1514,"Ġposs":1515,"ĠCongress":1516,"Ġconf":1517,"ĠBro":1518,"ted":1519,"enn":1520,"Ġinfl":1521,"Ġpoints":1522,"Ġregul":1523,"Ġfam":1524,"Ġevery":1525,"aged":1526,"ĠStreet":1527,"Ġaccording":1528,"Ġended":1529,"ufact":1530,"based":1531,"Ġca":1532,"ittee":1533,"ĠGer":1534,"Ġagreed":1535,"Ġsubs":1536,"Ġoil":1537,"Ġed":1538,"Ġsee":1539,"Ġstake":1540,"Ġprom":1541,"Ġexpect":1542,"Ġassets":1543,"eg":1544,"Ġformer":1545,"Ġvalue":1546,"ders":1547,"rat":1548,"ateg":1549,"ights":1550,"Ġapprov":1551,"Some":1552,"ĠAug":1553,"ĠGro":1554,"Ġgoing":1555,"Ġsen":1556,"Ġset":1557,"ĠJohn":1558,"ĠAss":1559,"Ġjunk":1560,"ĠThe":1561,"Ġfac":1562,"Ġpress":1563,"Ġloans":1564,"cy":1565,"Ġfur":1566,"Ġselling":1567,"ĠBritish":1568,"cc":1569,"ĠSov":1570,"Ġvot":1571,"ool":1572,"Ġris":1573,"Ġcustom":1574,"ically":1575,"ĠBoard":1576,"ternational":1577,"ale":1578,"Ġexchange":1579,"ministration":1580,"rad":1581,"ina":1582,"Ġmat":1583,"ived":1584,"Ġdam":1585,"ĠRes":1586,"ĠWest":1587,"ĠWall":1588,"ĠSeptember":1589,"action":1590,"irst":1591,"term":1592,"Ġneg":1593,"Ġhalf":1594,"ĠSan":1595,"ably":1596,"Ġseem":1597,"ath":1598,"Ġperson":1599,"imin":1600,"Ġrecord":1601,"Ġcalled":1602,"Ġcertain":1603,"Ġeconomy":1604,"Ġelect":1605,"ved":1606,"Ġpower":1607,"ively":1608,"ĠRep":1609,"isition":1610,"Ġlow":1611,"Ġstand":1612,"ornia":1613,"Ġposition":1614,"Ġuntil":1615,"16":1616,"ier":1617,"Ġproblems":1618,"echnolog":1619,"Ġsett":1620,"Ġcre":1621,"Ġport":1622,"ington":1623,"esp":1624,"Ġplay":1625,"20":1626,"Ġold":1627,"used":1628,"Ġfirms":1629,"ator":1630,"Ġinst":1631,"Ġoperating":1632,"ĠGroup":1633,"ces":1634,"ony":1635,"ends":1636,"Ġmanagement":1637,"Ġknow":1638,"Ġpropos":1639,"Ġav":1640,"Ġlittle":1641,"ĠCanad":1642,"ke":1643,"icago":1644,"ĠMc":1645,"ivers":1646,"ĠWar":1647,"Ġresults":1648,"ries":1649,"Ġtoday":1650,"Ġdrop":1651,"Ġref":1652,"ley":1653,"ĠDep":1654,"eal":1655,"ĠFederal":1656,"ization":1657,"olume":1658,"15":1659,"Ġ0":1660,"Ġaround":1661,"Ġcompared":1662,"ured":1663,"Ġimport":1664,"ential":1665,"Ġli":1666,"though":1667,"Ġoffice":1668,"Ġmaker":1669,"Ġtakeover":1670,"ves":1671,"Ġclaim":1672,"Ġconsum":1673,"Ġhard":1674,"ift":1675,"Ġeffect":1676,"eb":1677,"oor":1678,"asing":1679,"Ġorder":1680,"abor":1681,"onday":1682,"Ġagency":1683,"ium":1684,"Ġcoll":1685,"Ġinstitut":1686,"Ġindic":1687,"Ġallow":1688,"Ġoffering":1689,"ĠCalifornia":1690,"30":1691,"Ġsw":1692,"Ġproduction":1693,"ef":1694,"ership":1695,"Ġwhether":1696,"Ġser":1697,"Ġbuying":1698,"ided":1699,"amed":1700,"ĠInternational":1701,"Ġcontrol":1702,"ĠChicago":1703,"Ġhowever":1704,"Ġdiffer":1705,"Ġlim":1706,"Ġnon":1707,"Ġinsurance":1708,"Ġdemand":1709,"Ġpar":1710,"Ġlarge":1711,"ĠDow":1712,"Ġcountry":1713,"ned":1714,"ness":1715,"Ġannual":1716,"arent":1717,"Ġhop":1718,"ĠMonday":1719,"uss":1720,"Ġaccount":1721,"aff":1722,"resident":1723,"Ġlosses":1724,"ave":1725,"Ġtop":1726,"cept":1727,"ĠSecurities":1728,".)":1729,"Ġhome":1730,"Ġprot":1731,"Ġpriv":1732,"eed":1733,"less":1734,"Ġright":1735,"Ġincreased":1736,"ĠJones":1737,"Ġcontinue":1738,"Ġsom":1739,"ĠGen":1740,"ĠUAL":1741,"work":1742,"Ġtest":1743,"ortg":1744,"Ġloc":1745,"Ġgain":1746,"Ġrepres":1747,"Ġfail":1748,"Ġdro":1749,"ession":1750,"Ġquest":1751,"ĠNov":1752,"Ġcorporate":1753,"ĠAugust":1754,"Ġlikely":1755,"Ġfurther":1756,"Ġseek":1757,"Ġplant":1758,"Ġsharehold":1759,"Ġrecently":1760,"70":1761,"ĠCon":1762,"uck":1763,"Ġclos":1764,"Ġacquisition":1765,"hor":1766,"ondon":1767,"Ġmust":1768,"ended":1769,"Ġexpects":1770,"Ġsubsid":1771,"ism":1772,"Ġrul":1773,"ĠPh":1774,"Ġmed":1775,"ĠLt":1776,"Ġdeclined":1777,"Ġline":1778,"One":1779,"uff":1780,"Ġte":1781,"els":1782,"Ġcomplet":1783,"ĠFranc":1784,"ER":1785,"sp":1786,"Ġlat":1787,"Ġcharg":1788,"When":1789,"gress":1790,"Ġwithout":1791,"Ġdecline":1792,"Ġkeep":1793,"Ġpolicy":1794,"ĠAssoci":1795,"ĠLtd":1796,"rup":1797,"Ġmanufact":1798,"Ġweeks":1799,"Ġart":1800,"Ġretail":1801,"ĠSh":1802,"isco":1803,"Ġsenior":1804,"Ġmag":1805,"ked":1806,"mical":1807,"yp":1808,"ata":1809,"Ġfig":1810,"Ġview":1811,"Ġproduct":1812,"Ġheld":1813,"32":1814,"osite":1815,"ĠHe":1816,"Ġ25":1817,"Ġmemb":1818,"Ġdrug":1819,"ĠSoviet":1820,"ural":1821,"Ġinvol":1822,"Ġannounced":1823,"Ġbegin":1824,"ivid":1825,"Ġdom":1826,"udge":1827,"Ġnotes":1828,"Ġweak":1829,"Ġslow":1830,"Ġpolitical":1831,"rel":1832,"echnology":1833,"ĠDepartment":1834,"ead":1835,"Ġactiv":1836,"Ġclear":1837,"Ġbas":1838,"Ġcomment":1839,"Ġstrateg":1840,"iam":1841,"une":1842,"Ġlargest":1843,"Ġmark":1844,"isl":1845,"Ġbecome":1846,"19":1847,"Ġbene":1848,"ounts":1849,"ought":1850,"iscal":1851,"Ġbre":1852,"Ġmach":1853,"ĠMin":1854,"Ġhere":1855,"Ġintern":1856,"Ġremain":1857,"Ġcome":1858,"iron":1859,"Ġmaking":1860,"off":1861,"ving":1862,"Ġnation":1863,"ĠFin":1864,"ĠLondon":1865,"ĠSte":1866,"struct":1867,"ores":1868,"merc":1869,"ides":1870,"Ġgive":1871,"emp":1872,"Ġchange":1873,"wh":1874,"ered":1875,"Ġmet":1876,"oup":1877,"Ġrefl":1878,"Ġnine":1879,"Ġ100":1880,"Ġexecutives":1881,"Ġproblem":1882,"vers":1883,"ocrat":1884,"ĠTex":1885,"Ġadvert":1886,"Ġexpl":1887,"mercial":1888,"ips":1889,"Ġservice":1890,"standing":1891,"agu":1892,"Ġhealth":1893,"ĠWh":1894,"eph":1895,"au":1896,"Ġfiscal":1897,"iven":1898,"ring":1899,"Ġpass":1900,"ĠWash":1901,"bit":1902,"ished":1903,"ĠCar":1904,"Ġ18":1905,"Ġfind":1906,"cher":1907,"ili":1908,"Ġlot":1909,"oti":1910,"Ġvolume":1911,"ĠRober":1912,"Ġadministration":1913,"Ġdou":1914,"Ġbegan":1915,"Ġresearch":1916,"ĠIndustr":1917,"Ġlatest":1918,"40":1919,"ened":1920,"Ġfound":1921,"igation":1922,"Ġshar":1923,"ulation":1924,"Ġaren":1925,"Ġservices":1926,"cent":1927,"Ġmil":1928,"Ġinform":1929,"Ġexper":1930,"Ġsug":1931,"Ġmy":1932,"oman":1933,"irc":1934,"ĠPresident":1935,"Ġlegisl":1936,"ane":1937,"Ġpaid":1938,"Ġamount":1939,"etting":1940,"ividual":1941,"ĠMor":1942,"ĠSouth":1943,"iving":1944,"to":1945,"Ġnational":1946,"urity":1947,"ĠBig":1948,"ample":1949,"Ġexample":1950,"ĠFrancisco":1951,"Ġtro":1952,"ĠDec":1953,"Ġorders":1954,"udget":1955,"Ġearth":1956,"ris":1957,"Ġheav":1958,"ified":1959,"Ġmeas":1960,"Ġdivid":1961,"Ġpurchase":1962,"yo":1963,"atch":1964,"Ġtook":1965,"ĠSp":1966,"chool":1967,"gel":1968,"Ġwrit":1969,"Ġ16":1970,"ĠSenate":1971,"by":1972,"Ġsing":1973,"Ġmeeting":1974,"cl":1975,"most":1976,"Ġ{":1977,"Ġfuture":1978,"tain":1979,"Ġfull":1980,"Ġjob":1981,"Ġproposed":1982,"ither":1983,"icit":1984,"ĠFed":1985,"Ġnearly":1986,"ook":1987,"Ġinit":1988,"Ġthr":1989,"Ġform":1990,"ĠLe":1991,"Ġplun":1992,"Ġemployees":1993,"Ġdropped":1994,"ĠQ":1995,"Ġpot":1996,"Ġlater":1997,"Ġprocess":1998,"aps":1999,"ĠTel":2000,"Ġspending":2001,"ĠWashington":2002,"uly":2003,"rove":2004,"Ġbetter":2005,"unications":2006,"Ġmid":2007,"Ġread":2008,"acts":2009,"Ġrise":2010,"ĠPet":2011,"ĠOctober":2012,"Ġdeli":2013,"ĠTexas":2014,"itive":2015,"Ġbusinesses":2016,"ched":2017,"Ġhour":2018,"Ġlife":2019,"ody":2020,"Ġpossible":2021,"Ġmembers":2022,"rial":2023,"igned":2024,"Ġdiscl":2025,"orm":2026,"Ġnegoti":2027,"back":2028,"Ġparticular":2029,"Ġcame":2030,"ached":2031,"Ġcommercial":2032,"ears":2033,"emocrat":2034,"Ġ40":2035,"Ġloan":2036,"Ġbroker":2037,"ph":2038,"ĠFirst":2039,"okyo":2040,"Ġpred":2041,"Ġrepresent":2042,"Ġsuit":2043,"Ġworkers":2044,"ĠEurope":2045,"Ġearthqu":2046,"Ġindividual":2047,"lines":2048,"Ġproposal":2049,"EC":2050,"Ġgl":2051,"Ġgot":2052,"Ġeng":2053,"Ġinclude":2054,"cast":2055,"erate":2056,"Ġcrit":2057,"Ġbar":2058,"itor":2059,"Ġmortg":2060,"urt":2061,"Ġcomposite":2062,"Ġhasn":2063,"Ġcover":2064,"Ġinvestor":2065,"Ġbenefit":2066,"fic":2067,"fol":2068,"mon":2069,"Ġnamed":2070,"ott":2071,"Ġtrying":2072,"eor":2073,"viron":2074,"erve":2075,"Ġcol":2076,"Ġlawy":2077,"Ġestimated":2078,"empt":2079,"ipment":2080,"Ġothers":2081,"Ġreceived":2082,"80":2083,"Ġbest":2084,"Ġgas":2085,"Ġprob":2086,"Ġvol":2087,"Ġprograms":2088,"Ġsuccess":2089,"acific":2090,"ability":2091,"Ġpriced":2092,"Ġdecision":2093,"che":2094,"ients":2095,"Ġsol":2096,"ution":2097,"Ġestate":2098,"arm":2099,"ross":2100,"ĠMot":2101,"Ġgre":2102,"Ġgains":2103,"Ġcond":2104,"Ġvent":2105,"Ġoffered":2106,"Ġblack":2107,"Ġsteel":2108,"Ġinflation":2109,"Ġcustomers":2110,"iary":2111,"just":2112,"ention":2113,"unity":2114,"vironment":2115,"int":2116,"ann":2117,"Ġrestruct":2118,"estic":2119,"Ġarg":2120,"Ġpropert":2121,"),":2122,"Ġoften":2123,"Ġalmost":2124,"Ġcharge":2125,"12":2126,"ging":2127,"ĠAd":2128,"Ġtransaction":2129,"Ġmagaz":2130,"Ġearthquake":2131,"So":2132,"Ġpat":2133,"Ġpaper":2134,"ilar":2135,"epar":2136,"While":2137,"Ġfiled":2138,"Ġchanges":2139,"Ġrisk":2140,"Ġ17":2141,"ĠEl":2142,"Ġindustrial":2143,"With":2144,"ys":2145,"Ġtold":2146,"ech":2147,"urs":2148,"chang":2149,"ĠRe":2150,"Ġsoft":2151,"ister":2152,"uing":2153,"Ġcap":2154,"ald":2155,"Ġ31":2156,"Ġoutstanding":2157,"uesday":2158,"ĠAmerica":2159,"Ġnetwork":2160,"Ġbuilding":2161,"ering":2162,"ĠBr":2163,"Ġ($":2164,"Ġenough":2165,"Ġholding":2166,"Ġbroad":2167,"Ġcurrently":2168,"Ġtimes":2169,"ilities":2170,"Ġyet":2171,"Ġarea":2172,"Ġfinancing":2173,"co":2174,"Ġlet":2175,"orney":2176,"ĠRobert":2177,"put":2178,"ories":2179,"ĠTokyo":2180,"Ġable":2181,"ĠWarner":2182,"Ġlocal":2183,"Ġlist":2184,"ĠServ":2185,"Ġplace":2186,"Ġwouldn":2187,"ĠGeneral":2188,"Ġsuggest":2189,"How":2190,"roll":2191,"ĠBl":2192,"Ġwhose":2193,"ĠDemocrat":2194,"Ġquot":2195,"ges":2196,"ĠZ":2197,"ĠJune":2198,"ĠJuly":2199,"ĠGr":2200,"ounter":2201,"Ġboost":2202,"Ġdollars":2203,"ler":2204,"orrow":2205,"Ġwithin":2206,"60":2207,"time":2208,"Ġsk":2209,"Ġwasn":2210,"Ġjoint":2211,"Ġnever":2212,"Ġprivate":2213,"Ġhapp":2214,"ĠComp":2215,"Ġonce":2216,"Ġyour":2217,"Ġcontribut":2218,"ĠAssociation":2219,"AT":2220,"iting":2221,"ales":2222,"idence":2223,"Ġlost":2224,"osp":2225,"Ġ197":2226,"Ġprovide":2227,"Ġauthor":2228,"Ġmanager":2229,"ĠEuropean":2230,"Ġimportant":2231,"ai":2232,"mak":2233,"Ġaway":2234,"Ġsent":2235,"ality":2236,"ison":2237,"aster":2238,"ĠPar":2239,"ĠTuesday":2240,"Ġfourth":2241,"Ġbreak":2242,"Ġinformation":2243,"thing":2244,"Ġdivision":2245,"Ġmanagers":2246,"iversity":2247,"100":2248,"ience":2249,"ival":2250,"ificant":2251,"Ġdamage":2252,"Ġla":2253,"lement":2254,"ots":2255,"Ġadditional":2256,"ract":2257,"Ġthings":2258,"ĠMich":2259,"aph":2260,"retary":2261,"rupt":2262,"'ve":2263,"isions":2264,"500":2265,"ways":2266,"Ġcontracts":2267,"Ġrequire":2268,"Ġpack":2269,"Ġreason":2270,"lex":2271,"ĠTV":2272,"ourn":2273,"Ġleft":2274,"ĠNorth":2275,"gy":2276,"stant":2277,"ĠEast":2278,"Ġquick":2279,"Ġsoon":2280,"Ġbelow":2281,"Ġauto":2282,"After":2283,"Ġcare":2284,"Ġcirc":2285,"Ġwid":2286,"ĠCapital":2287,"ources":2288,"struction":2289,"while":2290,"ances":2291,"Ġmakes":2292,"Ġfollowing":2293,"Ġbudget":2294,"Ġpubl":2295,"Ġalle":2296,"ĠDav":2297,"Ġaction":2298,"ĠInvest":2299,"Ġcontinued":2300,"ĠGerm":2301,"Ġconsumer":2302,"Ġsingle":2303,"ah":2304,"ners":2305,"Ġsit":2306,"Ġsum":2307,"Ġcoup":2308,"ored":2309,"ourt":2310,"Ġinternational":2311,"45":2312,"side":2313,"uge":2314,"Ġbeh":2315,"Ġconv":2316,"opp":2317,"Ġcouldn":2318,"Ġsched":2319,"ĠUnited":2320,"Ġquestion":2321,").":2322,"king":2323,"rill":2324,"ĠMs":2325,"ands":2326,"share":2327,"Ġequity":2328,"Ġpersonal":2329,"Ġportfol":2330,"bitr":2331,"aul":2332,"Ġfree":2333,"Ġdeter":2334,"ĠGre":2335,"ĠRich":2336,"ĠChina":2337,"ĠAngel":2338,"Ġbelieve":2339,"Ġstandard":2340,"Ġcity":2341,"ĠShe":2342,"rict":2343,"Ġ26":2344,"estern":2345,"Ġsimilar":2346,"11":2347,"atives":2348,"ening":2349,"Ġled":2350,"illiam":2351,"ĠCont":2352,"ĠBar":2353,"Ġcrash":2354,"ĠCommission":2355,"Ġface":2356,"icle":2357,"oston":2358,"Ġconsult":2359,"Am":2360,"Ġmarg":2361,"usp":2362,"Ġmarketing":2363,"Ġ200":2364,"Ġcharges":2365,"BM":2366,"iol":2367,"nes":2368,"ĠCol":2369,"urers":2370,"Ġgreat":2371,"Ġjump":2372,"Ġmakers":2373,"18":2374,"Ġtyp":2375,"ĠGeor":2376,"ĠOr":2377,"ĠUnion":2378,"Ġraise":2379,"Ġterms":2380,"Ġsubsidiary":2381,"ral":2382,"ery":2383,"Ġpract":2384,"Ġshareholders":2385,"Ġcamp":2386,"Ġfood":2387,"Ġunion":2388,"ĠEd":2389,"ixed":2390,"Ġrights":2391,"Ġunits":2392,"ĠJames":2393,"Ġoptions":2394,"ordin":2395,"Ġpercent":2396,"ension":2397,"Ġdeficit":2398,"Ġcalls":2399,"ibility":2400,"Ġsignificant":2401,"Ġavail":2402,"35":2403,"To":2404,"aring":2405,"Ġhouse":2406,"Ġforce":2407,"ĠBoston":2408,"Ġimprove":2409,"Ġbiggest":2410,"What":2411,"arily":2412,"Ġhit":2413,"Ġhous":2414,"ills":2415,"ĠCl":2416,"Ġprefer":2417,"Ġincreasing":2418,"Ġcomputers":2419,"ephone":2420,"uation":2421,"head":2422,"Ġovers":2423,"Ġbad":2424,"ĠSc":2425,"Ġabove":2426,"Ġ60":2427,"Ġslight":2428,"Ġstatement":2429,"Ġequipment":2430,"aguar":2431,"Ch":2432,"ats":2433,"ĠMay":2434,"Ġgetting":2435,"Ġprof":2436,"Ġproject":2437,"Ġdev":2438,"Ġitself":2439,"ĠDe":2440,"Ġ500":2441,"Ġclaims":2442,"Ġpotential":2443,"ĠAngeles":2444,"Ġdet":2445,"Ġeas":2446,"ĠLos":2447,"Ġtaken":2448,"Under":2449,"Ġfamily":2450,"ficult":2451,"Last":2452,"Many":2453,"Re":2454,"TC":2455,"here":2456,"ĠSe":2457,"ĠBe":2458,"Ġdiscuss":2459,"Ġdevelopment":2460,"Ġdifficult":2461,"Ġdomestic":2462,"Ġcondition":2463,"den":2464,"eries":2465,"Ġschool":2466,"Ġsusp":2467,"Ġbase":2468,"aced":2469,"Ġattorney":2470,"ON":2471,"Ġfav":2472,"Ġpop":2473,"Ġreb":2474,"ĠPol":2475,"istic":2476,"ancial":2477,"Ġintroduc":2478,"Ġassoci":2479,"Ġdefense":2480,"evision":2481,"ournal":2482,"200":2483,"Ġcop":2484,"Ġbought":2485,"Ġred":2486,"acy":2487,"Ġgold":2488,"Ġvia":2489,"Ġadjust":2490,"Ġprep":2491,"ĠChairman":2492,"aterial":2493,"Ġtalks":2494,"bia":2495,"down":2496,"ises":2497,"imb":2498,"Ġrather":2499,"Ġunc":2500,"ĠWed":2501,"Ġpret":2502,"Ġperfor":2503,"Ġlegal":2504,"CI":2505,"ipp":2506,"Ġreached":2507,"ĠFl":2508,"mance":2509,"Ġadvertising":2510,"90":2511,"ware":2512,"erc":2513,"Ġdata":2514,"ĠPr":2515,"Ġexpens":2516,"Ġincluded":2517,"Ġdepartment":2518,"More":2519,"Ġtechnology":2520,"arant":2521,"ung":2522,"Ġcomb":2523,"Ġasked":2524,"erves":2525,"Ġapproved":2526,"Ġvolat":2527,"oon":2528,"Ġstri":2529,"Ġchild":2530,"epend":2531,"Ġ1986":2532,"Ġbanking":2533,"Ġbills":2534,"Ġteam":2535,"ga":2536,"atory":2537,"orld":2538,"Ġwin":2539,"ĠCity":2540,"ĠAm":2541,"ĠAt":2542,"ĠDel":2543,"ried":2544,"Ġenvironment":2545,"Ġlabor":2546,"ĠChe":2547,"ole":2548,"Ġconvert":2549,"ĠGold":2550,"abl":2551,"Ġlevels":2552,"Ġdifferent":2553,"Ġprobably":2554,"IN":2555,"ĠSystem":2556,"cement":2557,"ortion":2558,"Ġvar":2559,"ĠUS":2560,"Ġarbitr":2561,"ences":2562,"Ġeffort":2563,"ĠMarch":2564,"Ġreduce":2565,"Ġfigures":2566,"Ġrestructuring":2567,"Ġren":2568,"Ġsaying":2569,"Ġbook":2570,"Ġavailable":2571,"Ġide":2572,"onald":2573,"Ġconstruction":2574,"Ġposted":2575,"However":2576,"aign":2577,"gl":2578,"Ġwent":2579,"ecially":2580,"ify":2581,"ĠLaw":2582,"Ġmean":2583,"Ġdesp":2584,"13":2585,"By":2586,"Now":2587,"OR":2588,"You":2589,"Ġparent":2590,"ache":2591,"ĠSw":2592,"Ġvis":2593,"Ġorgan":2594,"ĠGermany":2595,"ne":2596,"Ġ#":2597,"Ġesp":2598,"Ġtend":2599,"itary":2600,"Ġhist":2601,"Ġrele":2602,"Ġnat":2603,"ĠFord":2604,"Ġfinance":2605,"raft":2606,"Ġcountries":2607,"ĠCanada":2608,"Ġperformance":2609,"ael":2610,"crib":2611,"Ġgiven":2612,"ĠJan":2613,"Ġreports":2614,"Ġknown":2615,"Ġnewsp":2616,"Ġdividend":2617,"be":2618,"Ġocc":2619,"earlier":2620,"Ġaccept":2621,"Ġseven":2622,"Ġsupp":2623,"Ġairline":2624,"attle":2625,"medi":2626,"month":2627,"Ġemer":2628,"ude":2629,"Ġnoted":2630,"Ġpredict":2631,"ray":2632,"rec":2633,"Ġever":2634,"Ġproj":2635,"hern":2636,"ĠInstitut":2637,"ipal":2638,"Ġclients":2639,"ĠKong":2640,"Ġinterv":2641,"ference":2642,"Ġsystems":2643,"ĠWhite":2644,"dr":2645,"eren":2646,"Ġcanc":2647,"Ġpil":2648,"ĠCourt":2649,"ĠMarket":2650,"Ġstep":2651,"Ġcoming":2652,"ĠLyn":2653,"Ġprem":2654,"Ġappro":2655,"Ġincreases":2656,"Ġprofits":2657,"Ġefforts":2658,"Ġholders":2659,"Although":2660,"ething":2661,"ĠCanadian":2662,"17":2663,"AN":2664,"Sales":2665,"oot":2666,"Ġpan":2667,"Ġstaff":2668,"Ġlaws":2669,"Ġcars":2670,"Ġanti":2671,"Ġdespite":2672,"uary":2673,"anch":2674,"Ġcases":2675,"Ġmaterial":2676,"These":2677,"itted":2678,"Ġattempt":2679,"Ġapproval":2680,"Ġlegislation":2681,"Ġbrokerage":2682,"Ġschedul":2683,"Ġcampaign":2684,"ES":2685,"ĠSm":2686,"imum":2687,"ĠHar":2688,"ĠHong":2689,"rench":2690,"Ġbuyers":2691,"Ġblock":2692,"Ġespecially":2693,"14":2694,"rist":2695,"Ġtarg":2696,"eration":2697,"Ġstates":2698,"ĠSal":2699,"Ġviol":2700,"Ġchar":2701,"Ġ22":2702,"Ġgroups":2703,"Ġpayments":2704,"Ġrespons":2705,"Ġventure":2706,"She":2707,"eas":2708,"writ":2709,"Ġweren":2710,"Ġthreat":2711,"ĠUniversity":2712,"Ġacquire":2713,"olumbia":2714,"Ġdistribut":2715,"Ġpreviously":2716,"Ġpercentage":2717,"market":2718,"Ġill":2719,"Ġeither":2720,"uter":2721,"Ind":2722,"umb":2723,"Ġ24":2724,"anced":2725,"Ġfeel":2726,"Ġhelped":2727,"ĠFinancial":2728,"Ġportfolio":2729,"oid":2730,"Ġauction":2731,"Ġden":2732,"Ġrepl":2733,"ecess":2734,"Ġgained":2735,"Ġsaf":2736,"ĠAs":2737,"Ġalong":2738,"alled":2739,"Ġkind":2740,"Ġinterests":2741,"orning":2742,"Ġremains":2743,"Ġliqu":2744,"Ġmortgage":2745,"Ġmagazine":2746,"Other":2747,"ector":2748,"ecting":2749,"uber":2750,"portation":2751,"ishing":2752,"Ġcurrency":2753,"ĠCommittee":2754,"Ġpressure":2755,"Ġparticularly":2756,"Ġslightly":2757,"uel":2758,"Ġwa":2759,"ston":2760,"elves":2761,"Ġcommittee":2762,"Ġworking":2763,"Ġacquired":2764,"Ġleaders":2765,"Ġcompleted":2766,"BC":2767,"yl":2768,"Ġreally":2769,"Ġname":2770,"Ġproducers":2771,"Ġusing":2772,"Ġgrowing":2773,"Ġsucceed":2774,"Ġmarks":2775,"wide":2776,"ille":2777,"ĠJaguar":2778,"ĠWilliam":2779,"Ġrelated":2780,"Ġraised":2781,"ĠAirlines":2782,"Ġdoub":2783,"Ġheavy":2784,"Even":2785,"Ġhuge":2786,"ĠSa":2787,"ĠPart":2788,"ĠDr":2789,"ĠWorld":2790,"ĠKore":2791,"avel":2792,"Ġestimates":2793,"Ġfailed":2794,"Ġplunge":2795,"nesday":2796,"55":2797,"Ġur":2798,"Ġsuff":2799,"atively":2800,"Ġfoc":2801,"isers":2802,"Ġtoward":2803,"Ġdoc":2804,"unch":2805,"ape":2806,"Ġclass":2807,"Ġrecover":2808,"Ġlooking":2809,"Ġtelevision":2810,"ĠGerman":2811,"Ġelectron":2812,"Ġsomething":2813,"Most":2814,"ule":2815,"itors":2816,"Ġthing":2817,"Ġproceed":2818,"veraged":2819,"ama":2820,"ĠPacific":2821,"Ġindepend":2822,"ĠIs":2823,"aily":2824,"Ġtaking":2825,"Ġparticip":2826,"rate":2827,"Ġve":2828,"Ġsepar":2829,"ilt":2830,"ĠSup":2831,"Ġalthough":2832,"ĠPL":2833,"cont":2834,"Ġstrategy":2835,"ĠLynch":2836,"serv":2837,"ined":2838,"Ġrole":2839,"index":2840,"Ġsurpr":2841,"Ġchemical":2842,"Ġengine":2843,"ĠDavid":2844,"aq":2845,"Ġpound":2846,"astern":2847,"ĠCom":2848,"Ġjoin":2849,"Ġowns":2850,"Ġbring":2851,"Ġproperty":2852,"ians":2853,"ĠCent":2854,"vey":2855,"amb":2856,"ĠPro":2857,"ĠDre":2858,"Ġkey":2859,"Ġregulators":2860,"85":2861,"pro":2862,"ently":2863,"ĠWestern":2864,"isting":2865,"Ġjudge":2866,"ught":2867,"Ġstruct":2868,"Ġdirectors":2869,"Ġleading":2870,"ustral":2871,"'m":2872,"Japan":2873,"ball":2874,"self":2875,"uments":2876,"ster":2877,"ells":2878,"oung":2879,"ressed":2880,"Ġsupply":2881,"Ġgoods":2882,"ruptcy":2883,"Ġfavor":2884,"ming":2885,"Ġsoc":2886,"Ġcongress":2887,"arters":2888,"Ġstarted":2889,"ĠRepublic":2890,"Ġseeking":2891,"New":2892,"point":2893,"Ġwants":2894,"Ġstren":2895,"Ġstores":2896,"Ġlonger":2897,"ĠBritain":2898,"Ġevent":2899,"Ġinstitutions":2900,"ck":2901,"eak":2902,"kin":2903,"ville":2904,"Ġfre":2905,"ĠSony":2906,"ĠAustral":2907,"wood":2908,"ropri":2909,"Ġprim":2910,"Ġplants":2911,"Ġestabl":2912,"Ġthrift":2913,"Ġdisclosed":2914,"Revenue":2915,"ĠWednesday":2916,"Ġscheduled":2917,"22":2918,"Pro":2919,"of":2920,"Ġthems":2921,"actions":2922,"Ġpros":2923,"ĠAg":2924,"Ġtrust":2925,"Ġhaving":2926,"ource":2927,"Ġcourse":2928,"Ġautom":2929,"Ġseems":2930,"Ġrules":2931,"Ġmanufacturing":2932,"Ġthemselves":2933,"iant":2934,"arson":2935,"riz":2936,"Ġissued":2937,"encies":2938,"Ġsubstant":2939,"Ġattract":2940,"Ġconcerns":2941,"Ġgenerally":2942,"Ġmeasure":2943,"Ġlawyers":2944,"Ġinterview":2945,"Ġstreng":2946,"lant":2947,"ask":2948,"Ġdone":2949,"Ġhot":2950,"omen":2951,"Ġeight":2952,"aining":2953,"Ġvict":2954,"Ġaccounts":2955,"Ġarr":2956,"Ġguarant":2957,"pril":2958,"ĠConn":2959,"Ġhours":2960,"Ġquickly":2961,"All":2962,"ney":2963,"idel":2964,"aine":2965,"Ġthought":2966,"press":2967,"Ġer":2968,"rem":2969,"idge":2970,"utes":2971,"ĠMass":2972,"Ġrat":2973,"ĠPan":2974,"izing":2975,"Ġdepos":2976,"Ġturned":2977,"Ġcompetition":2978,"Ġvote":2979,"Ġactivity":2980,"ĠIndustries":2981,"Ġsharply":2982,"haps":2983,"set":2984,"Ġaud":2985,"Ġahead":2986,"Ġnight":2987,"iring":2988,"ĠApril":2989,"aging":2990,"uman":2991,"Ġ21":2992,"Ġ35":2993,"Ġoutside":2994,"Ġdisapp":2995,"Ġdoing":2996,"Ġrelations":2997,"eanwhile":2998,"Ġreduced":2999,"Ġbasis":3000,"ĠRichard":3001,"Among":3002,"23":3003,"hel":3004,"osing":3005,"aint":3006,"Ġreserves":3007,"lied":3008,"Ġimpact":3009,"Ġopport":3010,"Ġinvolved":3011,"Ġmilitary":3012,"BS":3013,"Ġut":3014,"icip":3015,"Ġlight":3016,"Ġuns":3017,"Ġsubject":3018,"Ġincludes":3019,"Ġdiscount":3020,"Ġminor":3021,"Ġconsidered":3022,"Ġtroubl":3023,"ford":3024,"ires":3025,"itz":3026,"alt":3027,"Ġlack":3028,"ĠColumbia":3029,"ĠMed":3030,"Ġ23":3031,"Ġinvestments":3032,"Ġimmedi":3033,"Ġprinc":3034,"alysts":3035,"iety":3036,"ĠPLC":3037,"Meanwhile":3038,"oice":3039,"Ġfri":3040,"ĠSun":3041,"ĠSeries":3042,"ĠFrench":3043,"Ġabortion":3044,"Ġimprov":3045,"Ġdealers":3046,"Ġneeded":3047,"ĠElect":3048,"Ġliquid":3049,"'ll":3050,"men":3051,"xel":3052,"Ġtreat":3053,"orb":3054,"Ġfast":3055,"Ġpick":3056,"Ġexc":3057,"Ġrange":3058,"Ġtry":3059,"Ġalways":3060,"graph":3061,"ĠFrank":3062,"Ġdesign":3063,"ĠTrust":3064,"Ġlargely":3065,"ĠMerrill":3066,"ĠFund":3067,"Ġclimb":3068,"Ġseen":3069,"Ġappear":3070,"Ġassist":3071,"Ġestimate":3072,"Ġstudy":3073,"Ġcaused":3074,"ĠMorgan":3075,"ĠInstitute":3076,"Sh":3077,"body":3078,"Ġborrow":3079,"Ġfield":3080,"Ġhurt":3081,"Ġtraded":3082,"Ġadds":3083,"Analysts":3084,"Ġpromot":3085,"ĠQu":3086,"ursday":3087,"Ġarbitrage":3088,"65":3089,"Americ":3090,"ding":3091,"Ġstat":3092,"ĠAf":3093,"ĠNews":3094,"Ġenc":3095,"ction":3096,"Ġtechn":3097,"Ġcal":3098,"acity":3099,"Ġareas":3100,"ĠMrs":3101,"thers":3102,"Ġcenter":3103,"Ġseries":3104,"makers":3105,"ae":3106,"kn":3107,"Ġsav":3108,"ĠBay":3109,"ĠIR":3110,"rend":3111,"Ġapparent":3112,"rought":3113,"ĠReserve":3114,"ĠSmith":3115,"bur":3116,"iec":3117,"ety":3118,"igin":3119,"ĠJust":3120,"ĠGM":3121,"Ġ28":3122,"ĠIBM":3123,"Ġseason":3124,"Ġappe":3125,"Ġ45":3126,"Ġplanned":3127,"Ġleader":3128,"Ġrestric":3129,"Ġwr":3130,"Ġleveraged":3131,"ugg":3132,"Ġ80":3133,"Ġfranc":3134,"related":3135,"ĠMotor":3136,"Ġcor":3137,"uses":3138,"bert":3139,"Ġcarri":3140,"Ġreview":3141,"Ġtelephone":3142,"Ġbeginning":3143,"ĠIndustrial":3144,"Ġsituation":3145,"Ġdetail":3146,"Acc":3147,"ault":3148,"mark":3149,"state":3150,"Ġrecession":3151,"Ġroom":3152,"Ġworth":3153,"Ġcontinuing":3154,"Ġshows":3155,"Ġsettlement":3156,"Ġjumped":3157,"Ġprojects":3158,"Ġveh":3159,"Ġaid":3160,"Ġmen":3161,"urch":3162,"Ġdeath":3163,"Ġhaven":3164,"Ġpartner":3165,"Ġmeans":3166,"ĠThursday":3167,"Ġfiling":3168,"Ġinstead":3169,"Ġserious":3170,"Ġlimit":3171,"Ġindependent":3172,"ham":3173,"iation":3174,"ux":3175,"Ġsqu":3176,"Ġfight":3177,"Ġmass":3178,"oming":3179,"Ġlines":3180,"Ġconference":3181,"ĠBusiness":3182,"ĠJournal":3183,"Ġbecame":3184,"Ġproduce":3185,"ike":3186,"Ġunderwrit":3187,"Ġrequest":3188,"Ġbrokers":3189,"Ġmerger":3190,"ĠMichael":3191,"Comp":3192,"hing":3193,"Ġsure":3194,"Ġword":3195,"Ġmorning":3196,"Ġhom":3197,"Ġland":3198,"illed":3199,"Ġstop":3200,"Ġorigin":3201,"ĠEastern":3202,"Ġearned":3203,"Ġfloor":3204,"Ġopened":3205,"Ġsimply":3206,"empor":3207,"Ġpremium":3208,"Ġ`":3209,"Ġsession":3210,"ars":3211,"Ġjud":3212,"oody":3213,"Ġsurvey":3214,"Ġsmaller":3215,"Ġcreated":3216,"Ġdelivery":3217,"ination":3218,"Ġsat":3219,"ĠSch":3220,"Ġperm":3221,"ĠFrance":3222,"Ġowned":3223,"Ġshowed":3224,"Ġfees":3225,"Ġrequired":3226,"Ġparts":3227,"ĠPhil":3228,"ĠService":3229,"ED":3230,"Ġprosp":3231,"ĠBer":3232,"iff":3233,"ĠGuber":3234,"Ġpresent":3235,"Ġanything":3236,"ĠVal":3237,"Ġactive":3238,"Ġtaxes":3239,"ĠPeters":3240,"Ġcolle":3241,"Ġsummer":3242,"Ġpreferred":3243,"Ġprofess":3244,"Ġvolatility":3245,"37":3246,"AS":3247,"Ex":3248,"bor":3249,"Ġfixed":3250,"Ġpoll":3251,"Ġdaily":3252,"Ġstay":3253,"Ġrally":3254,"Ġvers":3255,"Ġdefend":3256,"Ġeditor":3257,"changed":3258,"Ġtarget":3259,"ĠDrexel":3260,"According":3261,"Ġful":3262,"Ġrej":3263,"Ġnecess":3264,"Ġspl":3265,"Ġtrader":3266,"ĠState":3267,"Ġcommission":3268,"Ġmajority":3269,"Ġcarry":3270,"ĠTrans":3271,"Still":3272,"Ġchanged":3273,"Ġhistory":3274,"300":3275,"NC":3276,"ker":3277,"sc":3278,"woman":3279,"Ġtons":3280,"Ġaim":3281,"rew":3282,"Ġside":3283,"unt":3284,"ĠPaul":3285,"rior":3286,"Ġreceive":3287,"Ġlimited":3288,"Ġhope":3289,"Ġhopes":3290,"28":3291,"48":3292,"95":3293,"Both":3294,"Ġap":3295,"eto":3296,"olution":3297,"lying":3298,"allen":3299,"Ġroll":3300,"Also":3301,"Ġeduc":3302,"oan":3303,"sw":3304,"uits":3305,"Ġtell":3306,"Ġtrend":3307,"onse":3308,"Ġpush":3309,"Ġreach":3310,"uty":3311,"Ġwhy":3312,"ivil":3313,"emic":3314,"ĠJr":3315,"ounc":3316,"Ġspace":3317,"Ġ27":3318,"Ġusually":3319,"ĠIndex":3320,"Ġannouncement":3321,"Ġrespond":3322,"Ġclosing":3323,"Ġclosely":3324,"Ġfrancs":3325,"CO":3326,"Ġwater":3327,"ĠSav":3328,"Ġbankruptcy":3329,"Ġflat":3330,"ĠThom":3331,"Ġanticip":3332,"Ġcritic":3333,"Ġcapacity":3334,"Ġletter":3335,"Ġconditions":3336,"Ġchildren":3337,"ĠSystems":3338,"Ġsavings":3339,"26":3340,"27":3341,"inn":3342,"idder":3343,"Ġnorm":3344,"Ġtradition":3345,"Ġproduced":3346,"ĠDecember":3347,"ĠShearson":3348,"Ġnatural":3349,"Tr":3350,"nership":3351,"Ġident":3352,"reme":3353,"ico":3354,"ute":3355,"lear":3356,"using":3357,"ĠApp":3358,"ĠNav":3359,"Ġacross":3360,"Ġnote":3361,"Ġconserv":3362,"Ġener":3363,"Ġinitial":3364,"Ġbenefits":3365,"Ġstrike":3366,"Trad":3367,"ument":3368,"Ġban":3369,"Ġnar":3370,"olid":3371,"ume":3372,"alls":3373,"Ġexpand":3374,"Ġoutl":3375,"Ġdecided":3376,"ĠChrist":3377,"Ġprevent":3378,"Ġspokeswoman":3379,"Ġpilots":3380,"Since":3381,"US":3382,"hman":3383,"met":3384,"well":3385,"ecause":3386,"ective":3387,"Ġagencies":3388,"Ġrecomm":3389,"Ġ1985":3390,"ĠExpress":3391,"Ġ1992":3392,"Ġprovision":3393,"Ġtransactions":3394,"apped":3395,"Ġevidence":3396,"Ġwanted":3397,"Ġextra":3398,"Ġfollowed":3399,"Ġarticle":3400,"Ġdouble":3401,"eff":3402,"Ġcand":3403,"atic":3404,"Ġinf":3405,"urer":3406,"Ġforced":3407,"ĠMon":3408,"ĠMac":3409,"usion":3410,"ĠInter":3411,"Ġ29":3412,"Ġbuilt":3413,"Ġparty":3414,"airs":3415,"Ġscr":3416,"Ġminimum":3417,"Ġentire":3418,"Ġnewspaper":3419,"Ġcongressional":3420,"Ġprosecut":3421,"36":3422,"400":3423,"Not":3424,"Ġbal":3425,"Ġmember":3426,"iding":3427,"Ġcomes":3428,"agan":3429,"Ġship":3430,"aker":3431,"ĠHug":3432,"Ġfinal":3433,"Ġ75":3434,"Ġdirectly":3435,"ĠAnd":3436,"Ġbelieves":3437,"Ġprotection":3438,"Ġmedia":3439,"His":3440,"fort":3441,"hib":3442,"ym":3443,"Ġsyn":3444,"Ġple":3445,"Ġmar":3446,"icient":3447,"asts":3448,"utual":3449,"Ġrising":3450,"ĠHut":3451,"Ġasset":3452,"Ġpurs":3453,"ĠEnter":3454,"Ġmatter":3455,"Ġsharp":3456,"Ġoverseas":3457,"'d":3458,"38":3459,"aur":3460,"ns":3461,"Ġwomen":3462,"elt":3463,"Ġwhole":3464,"Ġunchanged":3465,"Ġveto":3466,"ĠGu":3467,"Ġtrades":3468,"Ġdisput":3469,"Ġcommit":3470,"Ġ1991":3471,"Ġfeat":3472,"Ġreturns":3473,"Ġshareholder":3474,"Ġquoted":3475,"125":3476,"47":3477,"lic":3478,"Ġsn":3479,"Ġfair":3480,"Ġmom":3481,"Ġgave":3482,"ĠAverage":3483,"ĠBell":3484,"ĠJudge":3485,"Ġchallen":3486,"rice":3487,"iega":3488,"Ġscient":3489,"Ġcontinues":3490,"ĠCommunications":3491,"Ġyields":3492,"Ġmodest":3493,"Ġavoid":3494,"Ġsoftware":3495,"Ġseparate":3496,"29":3497,"dle":3498,"gers":3499,"ox":3500,"rep":3501,"Ġsize":3502,"Ġbattle":3503,"Ġmot":3504,"iser":3505,"ouis":3506,"Ġhost":3507,"ĠCamp":3508,"Ġgame":3509,"Ġspread":3510,"Ġdecl":3511,"like":3512,"Ġminutes":3513,"Ġresponse":3514,"Ġcreditors":3515,"Ġmerch":3516,"Ġconfir":3517,"ĠBrothers":3518,"Ġinstitutional":3519,"Ġbehind":3520,"Ġconvertible":3521,"ouncil":3522,"Ġbit":3523,"Ġbrought":3524,"aries":3525,"ows":3526,"Ġtrial":3527,"Ġchain":3528,"Ġnothing":3529,"owned":3530,"aving":3531,"Ġoperation":3532,"Ġdesigned":3533,"Ġdeclines":3534,"Ġterm":3535,"Stock":3536,"Ġinstance":3537,"Ġeffective":3538,"ĠHealth":3539,"rolled":3540,"Ġuncertain":3541,"onn":3542,"Ġsense":3543,"Ġsector":3544,"Ġrad":3545,"Ġexport":3546,"Ġeconomist":3547,"ĠMerc":3548,"ĠMcC":3549,"Ġallowed":3550,"Ġquestions":3551,"ĠJustice":3552,"Ear":3553,"cr":3554,"gia":3555,"tel":3556,"Ġtoget":3557,"Ġcompar":3558,"Ġwilling":3559,"Ġexports":3560,"Ġquality":3561,"ĠChar":3562,"Ġretire":3563,"Ġactual":3564,"Ġsigned":3565,"Ġdelay":3566,"Ġhands":3567,"Ġconsumers":3568,"Ġenvironmental":3569,"Ġencour":3570,"Ġtogether":3571,"Its":3572,"dic":3573,"right":3574,"surance":3575,"yc":3576,"hest":3577,"ream":3578,"Ġprior":3579,"icles":3580,"Ġlit":3581,"ĠSEC":3582,"apers":3583,"ems":3584,"ĠGl":3585,"Ġadm":3586,"Ġspent":3587,"Ġspring":3588,"Ġinvent":3589,"berg":3590,"ĠStan":3591,"Ġdraw":3592,"ganization":3593,"fully":3594,"Ġrunning":3595,"ĠManagement":3596,"Ġmachines":3597,"chers":3598,"ĠLehman":3599,"Ġalleged":3600,"Ġintroduced":3601,"Ġidea":3602,"Ġenergy":3603,"No":3604,"Ġtempor":3605,"Ġcounter":3606,"Ġbott":3607,"omon":3608,"ental":3609,"illing":3610,"ĠCD":3611,"irt":3612,"Invest":3613,"ulated":3614,"Ġaltern":3615,"istry":3616,"uble":3617,"Ġ1980":3618,"Ġseg":3619,"ogn":3620,"Ġimports":3621,"Ġelimin":3622,"Ġactually":3623,"Ġspecific":3624,"ĠSecretary":3625,"ebr":3626,"ĠGeorge":3627,"?\"":3628,"ios":3629,"Ġage":3630,"ino":3631,"Ġways":3632,"Ġfear":3633,"Ġmiss":3634,"Ġinj":3635,"road":3636,"ĠMos":3637,"Ġyoung":3638,"Ġrum":3639,"ĠPl":3640,"Ġoffers":3641,"Ġability":3642,"Ġbrand":3643,"ĠThat":3644,"Ġruling":3645,"Ġcontributed":3646,"Ġexpenses":3647,"ĠAfric":3648,"33":3649,"house":3650,"not":3651,"inter":3652,"erous":3653,"Ġcivil":3654,"Ġpers":3655,"Ġmult":3656,"urb":3657,"estate":3658,"Ġexerc":3659,"que":3660,"Ġappropri":3661,"Ġpaying":3662,"Ġmoves":3663,"Ġpositions":3664,"Ġactivities":3665,"Ġmachine":3666,"iliar":3667,"casting":3668,"Ġgreater":3669,"Ġfully":3670,"af":3671,"ona":3672,"Ġspend":3673,"Ġquake":3674,"Ġoffices":3675,"ĠAmericans":3676,"Ġrelatively":3677,"Ġhimself":3678,"Ġmaintain":3679,"ĠNoriega":3680,"ĠAtlant":3681,"Ġvarious":3682,"ĠSupreme":3683,"First":3684,"gains":3685,"ran":3686,"Ġwage":3687,"Ġpoor":3688,"Ġmis":3689,"omb":3690,"entures":3691,"urric":3692,"Ġstory":3693,"ĠAriz":3694,"ĠBrad":3695,"Ġwhite":3696,"Ġrule":3697,"akes":3698,"Ġabs":3699,"Ġinvestig":3700,"Ġground":3701,"Ġperhaps":3702,"Ġ90":3703,"Ġcuts":3704,"ĠEng":3705,"roducts":3706,"Ġcustomer":3707,"ospital":3708,"Ġmargin":3709,"ĠJanuary":3710,"Ġdisappoint":3711,"42":3712,"Ġcorn":3713,"Ġhear":3714,"ĠPark":3715,"ĠPeter":3716,"Ġdeals":3717,"ifts":3718,"ĠLa":3719,"ansion":3720,"Ġpartly":3721,"itting":3722,"Ġattribut":3723,"Ġadvanced":3724,"Ġneeds":3725,"Ġopposition":3726,"Ġinflu":3727,"espite":3728,"changes":3729,"Moreover":3730,"Ġapparently":3731,"Because":3732,"bber":3733,"icial":3734,"etro":3735,"Ġey":3736,"ĠMex":3737,"oses":3738,"quarters":3739,"acks":3740,"merce":3741,"undred":3742,"Ġsecurity":3743,"Ġpayment":3744,"Ġmoved":3745,"ĠResearch":3746,"Ġdeliver":3747,"Ġpopular":3748,"ĠLawson":3749,"58":3750,"875":3751,"Yesterday":3752,"br":3753,"counter":3754,"craft":3755,"ein":3756,"gency":3757,"Ġtw":3758,"Ġce":3759,"Ġben":3760,"isher":3761,"Ġhuman":3762,"oln":3763,"igital":3764,"cep":3765,"Ġexchanges":3766,"Ġtravel":3767,"oph":3768,"Ġdecade":3769,"Ġ70":3770,"Ġquarterly":3771,"Ġfarm":3772,"Ġfamiliar":3773,"Ġfriend":3774,"49":3775,"TV":3776,"mber":3777,"tr":3778,"Ġz":3779,"Ġlear":3780,"Ġlink":3781,"eller":3782,"ĠHold":3783,"Ġoffset":3784,"allas":3785,"ĠOff":3786,"Ġregard":3787,"ovember":3788,"Ġholds":3789,"velopment":3790,"incoln":3791,"Ġopening":3792,"Ġcentral":3793,"Ġwarr":3794,"ĠDemocratic":3795,"Ġpretax":3796,"Ġsafety":3797,"ĠSavings":3798,"43":3799,"Despite":3800,"South":3801,"come":3802,"pay":3803,"Ġcause":3804,"room":3805,"Ġdate":3806,"Ġgiant":3807,"ĠSim":3808,"Ġrap":3809,"ulf":3810,"ĠLouis":3811,"ĠHol":3812,"odity":3813,"Ġresigned":3814,"ĠII":3815,"Ġprec":3816,"angu":3817,"raud":3818,"Ġblue":3819,"Ġindicated":3820,"Ġfigure":3821,"ĠServices":3822,"Ġpackage":3823,"Ġimproved":3824,"Ġwrong":3825,"Fr":3826,"noon":3827,"Ġbri":3828,"imate":3829,"ĠAc":3830,"agon":3831,"Ġexceed":3832,"Ġalone":3833,"ĠTimes":3834,"Ġleave":3835,"Ġoption":3836,"Ġrough":3837,"Ġproducer":3838,"Ġaccess":3839,"iously":3840,"Ġtalk":3841,"ĠReagan":3842,"Ġwidely":3843,"Ġcancer":3844,"ĠElectric":3845,"ĠHutton":3846,"urricane":3847,".-":3848,"fr":3849,"hio":3850,"Ġbur":3851,"omin":3852,"etary":3853,"ĠSoc":3854,"Ġdisp":3855,"Ġappeal":3856,"ulture":3857,"Ġamounts":3858,"Ġregional":3859,"Ġelse":3860,"Ġprovided":3861,"Ġprovisions":3862,"Ġcrimin":3863,"Ġtakes":3864,"Ġnegotiations":3865,"Ġmargins":3866,"achev":3867,"Ġstrength":3868,"Ġvictim":3869,"Ġnarrow":3870,"Ġcandid":3871,"150":3872,"People":3873,"West":3874,"care":3875,"daq":3876,"field":3877,"hatt":3878,"let":3879,"Ġcat":3880,"asdaq":3881,"Ġdi":3882,"outs":3883,"ĠTor":3884,"orbachev":3885,"Ġsplit":3886,"ĠHugo":3887,"hattan":3888,"46":3889,"GM":3890,"zen":3891,"erated":3892,"orth":3893,"Ġpiec":3894,"Ġmus":3895,"Ġmem":3896,"etimes":3897,"ĠFor":3898,"ĠLincoln":3899,"Ġadop":3900,"pping":3901,"iple":3902,"Ġresear":3903,"Ġunderst":3904,"Ġhighly":3905,"Ġmanaging":3906,"Ġheadquarters":3907,"Ġclean":3908,"Ġlawyer":3909,"Ġhousing":3910,"Ġapproach":3911,"21":3912,"Ad":3913,"ament":3914,"oring":3915,"Ġbure":3916,"Ġmutual":3917,"Ġinstr":3918,"Ġhundred":3919,"Ġforces":3920,"Ġconduc":3921,"Ġvac":3922,"Ġchance":3923,"ĠInsurance":3924,"Ġbankers":3925,"Ġadding":3926,"ensive":3927,"oyd":3928,"Ġholdings":3929,"Ġdistrict":3930,"ĠManhattan":3931,"Ġcreate":3932,"Ġjobs":3933,"Ġfocus":3934,"Ġrejected":3935,"called":3936,"ze":3937,"Ġbus":3938,"Ġwatch":3939,"Ġmind":3940,"ĠCBS":3941,"ĠMach":3942,"ĠBanc":3943,"amm":3944,"ĠNovember":3945,"outhern":3946,"Ġplast":3947,"Ġresident":3948,"oke":3949,"Ġpartnership":3950,"ecutive":3951,"Ġsubordin":3952,"Ġeconomists":3953,"Ġflow":3954,"Ġobl":3955,"Ġphone":3956,"ĠMotors":3957,"ĠInvestment":3958,"ĠChemical":3959,"Ġclimbed":3960,"ĠIRS":3961,"Ġmoment":3962,"bu":3963,"ki":3964,"oil":3965,"yond":3966,"Ġtough":3967,"aded":3968,"ĠMoody":3969,"Then":3970,"ĠBut":3971,"Ġdead":3972,"ĠGorbachev":3973,"ode":3974,"ards":3975,"ĠKe":3976,"Ġperform":3977,"Webber":3978,"Ġdescrib":3979,"Ġpolicies":3980,"Ġprompt":3981,"Ġexpectations":3982,"Ġwrite":3983,"Ġstandards":3984,"Ġrebound":3985,"ĠKorea":3986,"aineWebber":3987,"American":3988,"ĠStanley":3989,"Sen":3990,"bond":3991,"de":3992,"ky":3993,"vent":3994,"Ġsel":3995,"iling":3996,"Ġrein":3997,"Ġexcess":3998,"ĠNasdaq":3999,"Ġunus":4000,"Ġ37":4001,"ĠOTC":4002,"Ġappears":4003,"Ġsecretary":4004,"Ġdebentures":4005,"Ġspeculation":4006,"Ġprovides":4007,"Ġvalued":4008,"Ġcoop":4009,"Ġtotaled":4010,"Ġelectric":4011,"Ġrefin":4012,"ĠDemocrats":4013,"com":4014,"Ġsound":4015,"Ġbull":4016,"imately":4017,"Ġexisting":4018,"ĠNo":4019,"ĠTime":4020,"Ġunf":4021,"ĠDallas":4022,"Ġgoes":4023,"Ġweekend":4024,"ification":4025,"Ġfranch":4026,"Ġevents":4027,"Ġconsidering":4028,"Ġmedical":4029,"Ġremaining":4030,"Ġdividends":4031,"ĠGoldman":4032,"ĠSalomon":4033,"ĠCommerce":4034,"87":4035,"Two":4036,"oo":4037,"ograph":4038,"pan":4039,"Ġwoman":4040,"Ġansw":4041,"Ġlend":4042,"Ġshut":4043,"ewhere":4044,"Ġads":4045,"ĠOhio":4046,"Ġworked":4047,"ommunications":4048,"Ġplanning":4049,"Ġdebate":4050,"Ġbids":4051,"Ġdeveloped":4052,"Ġraising":4053,"Ġmoving":4054,"backed":4055,"Ġbarrel":4056,"ĠGreen":4057,"Ġbench":4058,"66":4059,"Ab":4060,"BO":4061,"hi":4062,"racy":4063,"yle":4064,"ero":4065,"Ġoun":4066,"icro":4067,"ouston":4068,"ĠCount":4069,"acter":4070,"third":4071,"Ġexpansion":4072,"Ġresign":4073,"Ġhadn":4074,"Ġappoint":4075,"Those":4076,"Ġafternoon":4077,"Ġtransportation":4078,"rovers":4079,"Ġlarger":4080,"Ġpurchases":4081,"unicipal":4082,"ĠBroad":4083,"Ġregulatory":4084,"Ġheavily":4085,"Ġprepared":4086,"Ġsocial":4087,"ĠAustralia":4088,"Ġcalc":4089,"Ġcarrier":4090,"Ġbrief":4091,"CA":4092,"JR":4093,"night":4094,"vy":4095,"west":4096,"Ġpence":4097,"alty":4098,"ica":4099,"ushed":4100,"Ġsaw":4101,"Ġspeed":4102,"Ġcontrovers":4103,"ĠItal":4104,"Ġintell":4105,"ĠKidder":4106,"overs":4107,"Ġworks":4108,"Ġconclud":4109,"oods":4110,"Ġelected":4111,"Ġhighest":4112,"Ġfacilities":4113,"Ġpassed":4114,"Ġmeasures":4115,"Ġconsultant":4116,"draw":4117,"ĠThatcher":4118,"eing":4119,"law":4120,"lett":4121,"reg":4122,"Ġball":4123,"Ġfun":4124,"Ġps":4125,"Ġreor":4126,"utical":4127,"ĠAct":4128,"aking":4129,"ops":4130,"Ġaggress":4131,"Ġdism":4132,"Ġoverall":4133,"Ġ44":4134,"Another":4135,"Ġregion":4136,"Ġspecul":4137,"Ġadvant":4138,"ĠTrade":4139,"Ġreflecting":4140,"Ġgrew":4141,"opping":4142,"Ġoccur":4143,"Ġelectronic":4144,"24":4145,"RI":4146,"bers":4147,"gin":4148,"oh":4149,"Ġpict":4150,"alf":4151,"Ġmail":4152,"asons":4153,"Ġthous":4154,"stead":4155,"Ġgiving":4156,"Ġbeyond":4157,"chie":4158,"ĠRock":4159,"Ġrecogn":4160,"Ġ1984":4161,"Ġ51":4162,"aves":4163,"achs":4164,"Ġowners":4165,"Ġmostly":4166,"Ġaircraft":4167,"Ġfactors":4168,"Ġcompetitors":4169,"Ġdomin":4170,"ĠSteel":4171,"Ġtrouble":4172,"Ġiniti":4173,"intex":4174,"ĠComputer":4175,"Ġhouses":4176,"ĠFlor":4177,"Ġopportunity":4178,"39":4179,"62":4180,"Gen":4181,"Net":4182,"SE":4183,"sel":4184,"Ġaward":4185,"Ġsought":4186,"Ġcited":4187,"Ġfuel":4188,"Ġpen":4189,"Ġpension":4190,"Ġmount":4191,"ĠCit":4192,"ĠMid":4193,"Ġwithdraw":4194,"andard":4195,"onduct":4196,"Ġroad":4197,"aceutical":4198,"Ġattention":4199,"Ġregular":4200,"inkins":4201,"Ġbacked":4202,"Ġforecast":4203,"ĠJohnson":4204,"ĠTelerate":4205,"armaceutical":4206,"Ġrequirements":4207,"Ġpractice":4208,"Ġpanel":4209,"Ġrelationship":4210,"Ġversion":4211,"250":4212,"ches":4213,"wa":4214,"rest":4215,"itch":4216,"Ġreform":4217,"stein":4218,"Ġstore":4219,"ĠSachs":4220,"leum":4221,"Ġones":4222,"ĠPer":4223,"apse":4224,"ustry":4225,"Ġunless":4226,"ĠDinkins":4227,"enced":4228,"Ġinterested":4229,"Ġsuper":4230,"Ġdiscover":4231,"Ġfeet":4232,"Ġfactory":4233,"ĠMcD":4234,"ĠMorris":4235,"Ġlaun":4236,"Ġeasy":4237,"ĠMarkets":4238,"Pacific":4239,"cow":4240,"equ":4241,"ko":4242,"Ġult":4243,"Ġfine":4244,"Ġpul":4245,"Ġhar":4246,"ĠMil":4247,"ĠMont":4248,"igence":4249,"igger":4250,"Ġconn":4251,"Ġrating":4252,"ĠNort":4253,"Ġdeep":4254,"ĠDonald":4255,"ĠJack":4256,"sequ":4257,"ĠEqu":4258,"anta":4259,"exp":4260,"Ġinvestigation":4261,"Ġoutput":4262,"Ġinsist":4263,"Ġconcerned":4264,"Ġequal":4265,"holders":4266,"Ġcollapse":4267,"ĠAdministration":4268,"ĠGeorgia":4269,"Ġemergency":4270,"Ġreplace":4271,"Ġprincipal":4272,"Ġnecessary":4273,"Ġrapid":4274,"375":4275,"53":4276,"86":4277,"DS":4278,"go":4279,"uz":4280,"Ġachie":4281,"Ġcable":4282,"stock":4283,"ĠMits":4284,"iment":4285,"Ġtried":4286,"ĠPaineWebber":4287,"apter":4288,"ĠHome":4289,"Ġ190":4290,"rent":4291,"Ġimage":4292,"plies":4293,"Ġcommunity":4294,"redit":4295,"Ġscand":4296,"Ġdefin":4297,"Ġfalling":4298,"Ġaffili":4299,"Ġdifference":4300,"Ġacquisitions":4301,"ĠAssociates":4302,"ĠStein":4303,"Ġplunged":4304,"Ġproperties":4305,"ĠDevelopment":4306,"Ġrestrictions":4307,"57":4308,"Of":4309,"Such":4310,"Yet":4311,"la":4312,"van":4313,"rect":4314,"atter":4315,"aly":4316,"Ġtown":4317,"ĠCr":4318,"ading":4319,"ola":4320,"olf":4321,"othe":4322,"ĠData":4323,"ĠHouston":4324,"anks":4325,"Ġfunding":4326,"Ġbidding":4327,"Ġstudents":4328,"Ġmovie":4329,"Ġbelieved":4330,"Ġindividuals":4331,"Ġmortgages":4332,"Ġexpensive":4333,"ĠSwiss":4334,"Ġimmediately":4335,"Ms":4336,"Per":4337,"comm":4338,"ds":4339,"egr":4340,"ple":4341,"oned":4342,"Ġself":4343,"Ġsym":4344,"Ġwind":4345,"Ġfraud":4346,"iled":4347,"entagon":4348,"ĠRed":4349,"Ġ33":4350,"Ġdisaster":4351,"Ġaccord":4352,"Ġowner":4353,"issan":4354,"umption":4355,"Ġpublicly":4356,"Ġfilm":4357,"Ġweakness":4358,"ĠSteven":4359,"Ġglob":4360,"Ġdetermin":4361,"ĠPoland":4362,"Ġtender":4363,"Indeed":4364,"Ġcriminal":4365,"88":4366,"Con":4367,"ida":4368,"iders":4369,"Ġlic":4370,"Ġitems":4371,"ota":4372,"osure":4373,"ĠPentagon":4374,"oren":4375,"ĠWil":4376,"udden":4377,"Ġkept":4378,"Ġ49":4379,"Ġlob":4380,"stitutional":4381,"Ġsurv":4382,"Ġdivers":4383,"onto":4384,"Ġreduction":4385,"Ġrestaur":4386,"Ġstead":4387,"Ġinternal":4388,"Ġexperts":4389,"tainment":4390,"ĠUSA":4391,"Ġmaterials":4392,"ĠRepublican":4393,"Ġsubstantial":4394,"Ġoriginal":4395,"Ġbalance":4396,"ĠCounty":4397,"tax":4398,"yield":4399,"Ġsli":4400,"eng":4401,"ita":4402,"Ġwond":4403,"Ġpending":4404,"isf":4405,"icians":4406,"Ġhospital":4407,"eled":4408,"unist":4409,"ĠPenn":4410,"Ġvirt":4411,"Ġopin":4412,"grade":4413,"raz":4414,"Ġdrive":4415,"Ġ99":4416,"Ġsignal":4417,"Ġruns":4418,"Ġaffected":4419,"Ġnegative":4420,"Ġpowerful":4421,"Ġcomplete":4422,"Ġmiles":4423,"Ġincreasingly":4424,"Ġdetails":4425,"ĠValley":4426,"Ġconservative":4427,"Ġsyndic":4428,"Ġdispute":4429,"Ġsubordinated":4430,"44":4431,"52":4432,"IT":4433,"comp":4434,"oes":4435,"ror":4436,"hem":4437,"Ġbarg":4438,"Ġwat":4439,"Ġfoot":4440,"Ġlose":4441,"Ġgets":4442,"Instead":4443,"Ġtrigger":4444,"Ġactions":4445,"Ġapplic":4446,"Ġparties":4447,"Ġanyone":4448,"Ġneigh":4449,"Ġownership":4450,"Ġfundament":4451,"Ġprofitable":4452,"Ġdepart":4453,"Ġdemon":4454,"ĠSecurity":4455,"Ġnumbers":4456,"Ġpurchased":4457,"Ġmodern":4458,"Ġcompetitive":4459,"Ġprotest":4460,"Ġmachin":4461,"eparately":4462,"ĠParis":4463,"Ġreleased":4464,"Ġtreatment":4465,"ĠMoscow":4466,"ĠEngland":4467,"Ġattributed":4468,"During":4469,"OP":4470,"Separately":4471,"gs":4472,"lor":4473,"loyd":4474,"Ġign":4475,"erosp":4476,"Ġgives":4477,"owled":4478,"ucks":4479,"uclear":4480,"ĠPal":4481,"ĠPost":4482,"ĠNe":4483,"Ġ1970":4484,"Ġjury":4485,"issions":4486,"Ġpurp":4487,"Ġsigns":4488,"Ġphot":4489,"Ġsettled":4490,"ortgage":4491,"Ġdrugs":4492,"Ġexperience":4493,"Ġauthority":4494,"Ġcombined":4495,"Ġaimed":4496,"ĠEntertainment":4497,"ĠOffice":4498,"ĠToronto":4499,"Ġreorganization":4500,"eau":4501,"inese":4502,"Ġpain":4503,"inger":4504,"Ġmess":4505,"Ġrefer":4506,"Ġease":4507,"iller":4508,"ĠBond":4509,"ĠBaker":4510,"Ġcomplex":4511,"Ġtrue":4512,"ivity":4513,"ounsel":4514,"ancing":4515,"irect":4516,"Ġmonetary":4517,"Ġopt":4518,"ously":4519,"rael":4520,"Ġseemed":4521,"Ġcertainly":4522,"Ġsometimes":4523,"ĠMinister":4524,"opped":4525,"Ġdoubt":4526,"Ġtroubled":4527,"Ġnormal":4528,"Traders":4529,"Ġretirement":4530,"ĠMexico":4531,"Ġroughly":4532,"erospace":4533,"%;":4534,"NT":4535,"Sp":4536,"ahn":4537,"my":4538,"Ġtim":4539,"rey":4540,"Ġsens":4541,"Ġtom":4542,"rote":4543,"Ġdest":4544,"oul":4545,"unities":4546,"Ġtrack":4547,"Ġund":4548,"ĠGar":4549,"ĠGulf":4550,"ĠLabor":4551,"ĠHigh":4552,"Ġincent":4553,"ephen":4554,"Ġclient":4555,"Ġdiss":4556,"ishi":4557,"overn":4558,"Ġending":4559,"Ġemb":4560,"Ġobserv":4561,"Ġcorporations":4562,"Ġcharged":4563,"Ġlaunch":4564,"Ġprimarily":4565,"idelines":4566,"Ġminority":4567,"Ġtechnical":4568,"Ġresearchers":4569,"625":4570,"fe":4571,"hour":4572,"Ġsources":4573,"Ġfire":4574,"Ġpos":4575,"Ġlending":4576,"utures":4577,"Ġnor":4578,"aces":4579,"acher":4580,"ĠAG":4581,"ĠAut":4582,"ĠBurn":4583,"ague":4584,"Ġexam":4585,"Ġrang":4586,"Ġtraff":4587,"Ġtruck":4588,"ĠPoor":4589,"Ġspot":4590,"ancy":4591,"Ġdeveloping":4592,"Ġcomplain":4593,"Ġfront":4594,"Ġheaded":4595,"Ġconfidence":4596,"Ġproposals":4597,"Ġrepresents":4598,"ĠBlack":4599,"Ġvehicles":4600,"Ġtraditional":4601,"69":4602,"My":4603,"Rep":4604,"iets":4605,"uj":4606,"onents":4607,"Ġsort":4608,"Ġcast":4609,"ature":4610,"itan":4611,"ada":4612,"otive":4613,"Ġwhom":4614,"ifth":4615,"Ġplaced":4616,"Ġintegr":4617,"Ġmonthly":4618,"Ġamid":4619,"Ġscre":4620,"Ġconcent":4621,"Ġindustries":4622,"Ġvalues":4623,"Ġrevised":4624,"egal":4625,"Ġfacility":4626,"Ġplayers":4627,"Ġcontrols":4628,"Ġaccounting":4629,"Ġfailure":4630,"atchi":4631,"Ġmiddle":4632,"Ġsuccessful":4633,"Ġimprovement":4634,"Ġsteps":4635,"Ġeventually":4636,"Ġliquidity":4637,"ĠThomas":4638,"Ġsegment":4639,"Ġadvantage":4640,"Ar":4641,"Over":4642,"trad":4643,"Ġsudden":4644,"Ġcas":4645,"Ġbi":4646,"Ġwrote":4647,"Ġlive":4648,"Ġlosing":4649,"uts":4650,"ĠCor":4651,"ĠCons":4652,"Ġexcl":4653,"ĠDigital":4654,"istance":4655,"ubishi":4656,"Ġresol":4657,"ĠIt":4658,"renz":4659,"ĠChapter":4660,"ĠChinese":4661,"Ġprime":4662,"Ġattack":4663,"Ġcrude":4664,"Ġtransfer":4665,"Ġputting":4666,"Ġrisks":4667,"Ġelections":4668,"Ġmanufacturers":4669,"Ġinvolving":4670,"Ġbask":4671,"ĠAsia":4672,"Ġrecovery":4673,"Ġfrequ":4674,"Ġdeposits":4675,"knowled":4676,"burgh":4677,"Ġvictims":4678,"Ġtomorrow":4679,"05":4680,"Be":4681,"HE":4682,"UD":4683,"Ġtight":4684,"Ġsource":4685,"Ġcounsel":4686,"Ġpull":4687,"Ġparen":4688,"ids":4689,"ĠCle":4690,"aches":4691,"ĠMet":4692,"Ġstar":4693,"Ġheart":4694,"Ġtrillion":4695,"ĠNBC":4696,"Ġcho":4697,"ĠRub":4698,"ĠWe":4699,"Ġacknowled":4700,"Ġsomeone":4701,"Ġstrugg":4702,"Ġ65":4703,"Ġ1994":4704,"Ġdeclining":4705,"Ġemployee":4706,"Ġobtain":4707,"ĠAlan":4708,"Ġsettle":4709,"Ġordered":4710,"Ġmagazines":4711,"Ġpublisher":4712,"Ġpretty":4713,"Ġpredicted":4714,"Ġchemicals":4715,"Ġhotel":4716,"Ġappeared":4717,"ĠTransportation":4718,"Investors":4719,"MR":4720,"Mc":4721,"casts":4722,"Ġbail":4723,"ites":4724,"Ġwide":4725,"icorp":4726,"Ġreasons":4727,"Ġnations":4728,"urm":4729,"ersey":4730,"abil":4731,"Ġquite":4732,"Ġ55":4733,"Ġpartners":4734,"ashion":4735,"oys":4736,"Ġslide":4737,"Ġrepe":4738,"Ġdirection":4739,"Ġlawmakers":4740,"Ġremained":4741,"Ġmodel":4742,"ĠSoviets":4743,"Ġmaturity":4744,"Ġportion":4745,"Ġprotect":4746,"Ġthrifts":4747,"Ġlisted":4748,"ĠSaatchi":4749,"ĠParty":4750,"Ġestablished":4751,"Ġarrange":4752,"Brit":4753,"IC":4754,"sewhere":4755,"Ġir":4756,"Ġtumb":4757,"Ġmixed":4758,"Ġmunicipal":4759,"Ġdang":4760,"Ġlangu":4761,"oles":4762,"ĠMal":4763,"oseph":4764,"amer":4765,"arks":4766,"ĠLife":4767,"ĠHurricane":4768,"Ġchips":4769,"ĠRJR":4770,"oday":4771,"Ġadministr":4772,"Ġplus":4773,"Ġsports":4774,"Ġ1982":4775,"Though":4776,"Ġens":4777,"Ġdownt":4778,"Ġ62":4779,"Ġworry":4780,"Ġadviser":4781,"Ġshowing":4782,"Ġeverything":4783,"Ġcouple":4784,"Ġorganization":4785,"Ġwaiting":4786,"Ġelectronics":4787,"Ġsurprising":4788,"Ġuncertainty":4789,"ĠArizona":4790,"Ġunusual":4791,"Ġbenchmark":4792,"Ġlaunched":4793,"Ġdemonstr":4794,"Just":4795,"John":4796,"Off":4797,"bo":4798,"gen":4799,"ij":4800,"ken":4801,"na":4802,"Ġess":4803,"oney":4804,"atur":4805,"ara":4806,"icar":4807,"ether":4808,"ĠCouncil":4809,"ĠMae":4810,"Ġgone":4811,"Ġproced":4812,"osen":4813,"ager":4814,"ocracy":4815,"ĠLIN":4816,"ables":4817,"ĠEm":4818,"Ġleaving":4819,"Ġdispl":4820,"Ġbuyer":4821,"Ġcommodity":4822,"Ġusual":4823,"Ġconced":4824,"Ġsupplies":4825,"Ġelection":4826,"Ġeffects":4827,"Ġsurged":4828,"Ġcoal":4829,"Ġliber":4830,"ĠCenter":4831,"Ġsatisf":4832,"Every":4833,"ban":4834,"bank":4835,"iver":4836,"more":4837,"zo":4838,"iny":4839,"Ġpe":4840,"ilty":4841,"Ġded":4842,"entially":4843,"ecommunications":4844,"Ġcomprom":4845,"Ġhearing":4846,"ĠFre":4847,"oreign":4848,"ĠJersey":4849,"endment":4850,"udential":4851,"Ġ34":4852,"ĠIll":4853,"ĠOak":4854,"erald":4855,"Ġdecide":4856,"Ġconsist":4857,"Ġassum":4858,"Ġoperate":4859,"Ġbigger":4860,"Ġcontrast":4861,"Ġcrime":4862,"ibas":4863,"Ġadvance":4864,"ĠBoeing":4865,"Ġenter":4866,"Ġmainly":4867,"Ġstronger":4868,"ĠBrown":4869,"Ġplayed":4870,"Ġclearly":4871,"Ġreflect":4872,"Ġtypically":4873,"ĠEdward":4874,"Ġrenew":4875,"Ġproceeds":4876,"Ġratings":4877,"Ġwords":4878,"Earlier":4879,"ĠCharles":4880,"Ġpositive":4881,"82":4882,"Cons":4883,"ME":4884,"nel":4885,"heast":4886,"oration":4887,"Ġpo":4888,"Ġpip":4889,"Ġpace":4890,"etic":4891,"ĠMiss":4892,"ĠSam":4893,"ambert":4894,"Ġshift":4895,"ĠPe":4896,"istics":4897,"Ġspir":4898,"Ġquiet":4899,"Ġsoared":4900,"Ġpolice":4901,"ibly":4902,"icted":4903,"Ġmanaged":4904,"Ġopposed":4905,"Ġcenters":4906,"Ġtalking":4907,"Ġeveryone":4908,"Ġrefused":4909,"Ġslowdown":4910,"Ġreflected":4911,"Ġadvertisers":4912,"ĠPetro":4913,"ivalent":4914,"Ġconvent":4915,"Ġadjusted":4916,"Ġprimary":4917,"Ġscandal":4918,"Ġglobal":4919,"59":4920,"67":4921,"Cont":4922,"Each":4923,"Our":4924,"rust":4925,"yr":4926,"inental":4927,"heim":4928,"Ġsil":4929,"Ġcert":4930,"itude":4931,"edy":4932,"Ġfle":4933,"alk":4934,"Ġtour":4935,"ete":4936,"ades":4937,"Ġstem":4938,"Ġstations":4939,"Ġstopped":4940,"Ġ150":4941,"Ġask":4942,"ĠNik":4943,"ĠLi":4944,"ĠEconom":4945,"Ġcontrolled":4946,"management":4947,"ĠStandard":4948,"Ġsells":4949,"Ġsubm":4950,"nergy":4951,"Ġthroughout":4952,"ĠIndian":4953,"Ġfewer":4954,"Ġrespect":4955,"Ġthinks":4956,"Ġmainfr":4957,"Ġmovies":4958,"Ġaffect":4959,"Ġstarting":4960,"Ġvoted":4961,"ĠResources":4962,"Ġslowing":4963,"ĠInvestors":4964,"ĠGreens":4965,"Ġrelease":4966,"Ġsubstantially":4967,"ĠPanama":4968,"Ġapart":4969,"ception":4970,"ĠFlorida":4971,"furt":4972,"ras":4973,"xon":4974,"Ġcore":4975,"esc":4976,"Ġfears":4977,"Ġpages":4978,"illy":4979,"Ġnerv":4980,"ĠCap":4981,"ĠMax":4982,"lywood":4983,"ĠSanta":4984,"Ġbear":4985,"aret":4986,"uster":4987,"ĠDan":4988,"ĠDou":4989,"ĠLoan":4990,"ĠHills":4991,"Ġ39":4992,"Ġresources":4993,"rys":4994,"Ġseats":4995,"place":4996,"Ġuses":4997,"Ġannually":4998,"Ġinsp":4999,"shire":5000,"Ġguilty":5001,"Ġfaces":5002,"Ġmatch":5003,"ealers":5004,"efense":5005,"Ġinvolve":5006,"ĠCarol":5007,"ĠQintex":5008,"Ġhappen":5009,"Ġcoupon":5010,"Ġpractices":5011,"Ġcopper":5012,"Ġresponsible":5013,"ĠCentral":5014,"ĠMedical":5015,"Ġeducation":5016,"ĠHoldings":5017,"Ġounce":5018,"DA":5019,"Source":5020,"ipped":5021,"oe":5022,"ych":5023,"Ġsides":5024,"Ġcell":5025,"itter":5026,"iture":5027,"itness":5028,"Ġthus":5029,"Ġlux":5030,"ĠBur":5031,"Ġunp":5032,"ĠStephen":5033,"Ġfinally":5034,"Ġ42":5035,"ression":5036,"Ġenj":5037,"Ġoperates":5038,"Ġcris":5039,"Ġrelief":5040,"Ġgrand":5041,"Ġargue":5042,"Ġsuggested":5043,"Ġsignificantly":5044,"Ġhomes":5045,"ĠCampeau":5046,"ĠAfrica":5047,"Ġinfluence":5048,"ĠBurnham":5049,"76":5050,"84":5051,"El":5052,"IA":5053,"ta":5054,"will":5055,"week":5056,"Ġcrop":5057,"Ġcreat":5058,"Ġfelt":5059,"illips":5060,"uters":5061,"adel":5062,"erse":5063,"ĠPit":5064,"apol":5065,"Ġunw":5066,"ocked":5067,"aste":5068,"Ġspe":5069,"cons":5070,"luding":5071,"Ġminister":5072,"Ġbuildings":5073,"Ġventures":5074,"Ġhousehold":5075,"Ġsuspended":5076,"ipping":5077,"Ġbooks":5078,"Ġcharacter":5079,"ĠIsrael":5080,"Ġengineering":5081,"ĠAustralian":5082,"Ġthousands":5083,"General":5084,"Ġopinion":5085,"Ġneighbor":5086,"Ġcrisis":5087,"Here":5088,"auc":5089,"then":5090,"Ġtit":5091,"Ġwake":5092,"ilies":5093,"Ġreaction":5094,"acing":5095,"ĠMajor":5096,"Ġstation":5097,"Ġprogress":5098,"Ġexact":5099,"employ":5100,"ĠGreat":5101,"ĠEC":5102,"Ġ300":5103,"acted":5104,"ĠStates":5105,"Ġfinished":5106,"Ġproducing":5107,"Ġ46":5108,"plus":5109,"Ġtaxpay":5110,"ĠCommunity":5111,"rowing":5112,"Ġairlines":5113,"Ġmodels":5114,"Ġspecialists":5115,"Ġpharmaceutical":5116,"ĠBrook":5117,"ufacturers":5118,"Ġdamaged":5119,".),":5120,"Ġtests":5121,"ĠMinistry":5122,"Ġhealthy":5123,"Ġwritten":5124,"glas":5125,"Ġdistribution":5126,"Ġstructure":5127,"Japanese":5128,"ĠSunday":5129,"Ġcollege":5130,"Ġexercise":5131,"ĠBrady":5132,"Ġfarmers":5133,"Ġwarrants":5134,"About":5135,"31":5136,"56":5137,"GE":5138,"ded":5139,"fund":5140,"iat":5141,"lo":5142,"ny":5143,"pret":5144,"oral":5145,"itrust":5146,"ici":5147,"Ġthin":5148,"acle":5149,"ĠMix":5150,"ĠSchool":5151,"osa":5152,"ĠBear":5153,"Ġasp":5154,"ĠTechnology":5155,"ĠHow":5156,"ĠRey":5157,"ĠWal":5158,"Ġintended":5159,"Ġapprec":5160,"lik":5161,"Ġconsolid":5162,"Ġaccused":5163,"Ġreporting":5164,"Ġworst":5165,"Ġcutting":5166,"Ġemployment":5167,"Ġobject":5168,"perform":5169,"Ġfallen":5170,"Ġfamilies":5171,"ĠReport":5172,"Ġliability":5173,"ĠFinance":5174,"Ġreflects":5175,"Ġconsulting":5176,"Ġnewspapers":5177,"Ġjoined":5178,"Ġautomotive":5179,"Ġimmediate":5180,"ĠFrankfurt":5181,"Ġdefendants":5182,"Ġextraordin":5183,"Ġchallenge":5184,"Ġdeclared":5185,"Ġconfirmed":5186,"Ġtemporary":5187,"ebruary":5188,"Ġpiece":5189,"Ġmusic":5190,"Ġhundreds":5191,"ĠBroadcasting":5192,"Ġparents":5193,"ijing":5194,"Ġconventional":5195,"Ġluxury":5196,"ION":5197,"food":5198,"ique":5199,"larg":5200,"nings":5201,"pric":5202,"Ġtick":5203,"Ġsection":5204,"Ġcities":5205,"orter":5206,"Ġnuclear":5207,"ĠCredit":5208,"Ġshopping":5209,"ĠFebruary":5210,"arely":5211,"ander":5212,"ĠLloyd":5213,"ĠRuss":5214,"anted":5215,"Ġspeak":5216,"Ġgoal":5217,"Ġrob":5218,"Ġassemb":5219,"forms":5220,"Ġworried":5221,"Ġsurge":5222,"Ġhalt":5223,"Ġfollows":5224,"Ġvoters":5225,"Ġdamages":5226,"iminary":5227,"Ġpatent":5228,"Ġvolatile":5229,"Ġdenied":5230,"helan":5231,"Ġvehicle":5232,"Ġoutlook":5233,"Ġrumors":5234,"Ġunderstand":5235,"Ġvirtually":5236,"trading":5237,"apolis":5238,"Bond":5239,"LL":5240,"mp":5241,"uk":5242,"rees":5243,"Ġsust":5244,"Ġcross":5245,"ingap":5246,"iles":5247,"Ġder":5248,"omes":5249,"Ġlay":5250,"Ġliving":5251,"eline":5252,"ĠAll":5253,"Ġexist":5254,"Ġtrucks":5255,"ĠFarm":5256,"ĠPower":5257,"chip":5258,"essions":5259,"Ġvide":5260,"ĠGood":5261,"ĠHung":5262,"Ġaband":5263,"ĠKing":5264,"ĠKenn":5265,"Ġrout":5266,"Ġloy":5267,"forcement":5268,"Ġemph":5269,"Ġdeputy":5270,"Ġentertain":5271,"phia":5272,"Ġhappened":5273,"Ġpublishing":5274,"Ġschools":5275,"Ġassociation":5276,"Ġassociated":5277,"ĠPrime":5278,"Ġpanic":5279,"ĠPartners":5280,"Ġdocuments":5281,"Ġestablish":5282,"Ġappeals":5283,"Ġprofessional":5284,"Ġrecommend":5285,"Ġcommitments":5286,"Ġcomparable":5287,"ĠHollywood":5288,"Ġresidents":5289,"Ġfranchise":5290,"Ġbarrels":5291,"expected":5292,"aturday":5293,"icaragu":5294,"rysler":5295,"adelphia":5296,"priced":5297,"ingapore":5298,"79":5299,"89":5300,"Ford":5301,"Mer":5302,"die":5303,"hood":5304,"lia":5305,"ois":5306,"par":5307,"part":5308,"erry":5309,"Ġsite":5310,"Ġswe":5311,"Ġcard":5312,"orse":5313,"Ġwife":5314,"Ġmax":5315,"oms":5316,"Ġlab":5317,"Ġconvers":5318,"ĠAlex":5319,"Ġrail":5320,"eman":5321,"ĠLambert":5322,"ĠHill":5323,"Ġ38":5324,"Ġreserve":5325,"ĠStear":5326,"izations":5327,"Ġcommunications":5328,"Ġweekly":5329,"Ġdefault":5330,"Ġleadership":5331,"Only":5332,"Ġshel":5333,"Ġagreements":5334,"Ġstudio":5335,"ĠArt":5336,"Ġpossibility":5337,"Ġserve":5338,"Ġcircum":5339,"ĠPrudential":5340,"Ġsuffered":5341,"Ġguarantee":5342,"Ġutility":5343,"Ġtroubles":5344,"itzer":5345,"Ġunderwriters":5346,"emiconduct":5347,"ĠNavy":5348,"Ġscientists":5349,"Ġmerchand":5350,"Ġtwice":5351,"ĠMachines":5352,"committee":5353,"Ġdetermined":5354,"ĠMixte":5355,"Federal":5356,"HA":5357,"Or":5358,"Sec":5359,"aught":5360,"free":5361,"iance":5362,"liminary":5363,"mond":5364,"tained":5365,"err":5366,"Ġciting":5367,"Ġcyc":5368,"atin":5369,"Ġfile":5370,"rown":5371,"Ġdump":5372,"ĠMe":5373,"Ġcomfort":5374,"Ġsave":5375,"ĠAv":5376,"Ġshown":5377,"ĠPrice":5378,"ĠPhelan":5379,"umin":5380,"ounder":5381,"ĠLev":5382,"ĠHall":5383,"ĠHUD":5384,"Ġabroad":5385,"Ġjournal":5386,"Ġ32":5387,"oking":5388,"Ġpreliminary":5389,"rence":5390,"Ġdecisions":5391,"Ġ43":5392,"Ġprison":5393,"ette":5394,"Ġflight":5395,"Ġgener":5396,"Ġremov":5397,"Ġcourts":5398,"Ġ120":5399,"Ġreturned":5400,"Ġcheap":5401,"Ġcentury":5402,"Ġantitrust":5403,"Ġcollaps":5404,"Ġmetals":5405,"Ġinitially":5406,"Ġdisclose":5407,"Ġcritics":5408,"Ġnetworks":5409,"ĠBeijing":5410,"ĠUSX":5411,"Ġmeanwhile":5412,"Ġsquee":5413,"Ġprospects":5414,"Ġeye":5415,"Ġpsych":5416,"Ġdismiss":5417,"otheby":5418,"Ġexclus":5419,"Ġtumbled":5420,"liament":5421,"41":5422,"Can":5423,"RO":5424,"bon":5425,"cing":5426,"gil":5427,"iences":5428,"Ġcateg":5429,"arr":5430,"eck":5431,"Ġnov":5432,"ĠCray":5433,"ĠSouthern":5434,"ĠSingapore":5435,"owed":5436,"Ġprove":5437,"resp":5438,"ĠAMR":5439,"Ġasking":5440,"Ġrival":5441,"ĠFutures":5442,"ĠFuj":5443,"ummet":5444,"ĠJoseph":5445,"elling":5446,"ĠHamp":5447,"ĠRev":5448,"ĠRAT":5449,"ĠWork":5450,"ĠEnergy":5451,"Ġplummet":5452,"Ġmonitor":5453,"Ġ1983":5454,"izes":5455,"Ġimpl":5456,"liance":5457,"Ġdoor":5458,"Ġ47":5459,"Thus":5460,"Ġarch":5461,"Ġinsurers":5462,"Ġproviding":5463,"ship":5464,"Ġguidelines":5465,"atters":5466,"Ġputs":5467,"Ġhandle":5468,"Ġfactor":5469,"Ġspecialty":5470,"Ġconfident":5471,"Ġcaut":5472,"Ġkeeping":5473,"Ġviews":5474,"Ġrepresentatives":5475,"Ġboosted":5476,"Ġalleg":5477,"Ġbaseball":5478,"Ġaccepted":5479,"Ġsupposed":5480,"Ġresponsibility":5481,"Ġguarantees":5482,"Ġhostile":5483,"Ġinventories":5484,"Ġpicture":5485,"razil":5486,"Ġtraffic":5487,"Ġlanguage":5488,"Ġcompromise":5489,"Ġcertific":5490,"Ġnervous":5491,"Ġspeech":5492,"likely":5493,"63":5494,"68":5495,"99":5496,"CR":5497,"Sc":5498,"bed":5499,"ha":5500,"mons":5501,"wise":5502,"erly":5503,"real":5504,"ateral":5505,"Ġbol":5506,"arman":5507,"Ġpeak":5508,"ashed":5509,"Ġdil":5510,"enty":5511,"ĠMart":5512,"Their":5513,"ĠBu":5514,"ĠBill":5515,"ĠPublic":5516,"ĠNicaragu":5517,"ectors":5518,"ĠDist":5519,"ĠDefense":5520,"antum":5521,"Ġupon":5522,"Ġpricing":5523,"Ġgross":5524,"Ġmeant":5525,"Ġaddress":5526,"ensus":5527,"Ġoperator":5528,"iants":5529,"Ġboom":5530,"Ġslump":5531,"Ġflag":5532,"Ġworse":5533,"Ġgene":5534,"Ġserved":5535,"Ġdealer":5536,"Ġannounce":5537,"Ġwarned":5538,"Ġedition":5539,"Ġmagn":5540,"Ġready":5541,"Ġsuggests":5542,"ĠClass":5543,"Ġdiscussions":5544,"Ġvisit":5545,"ĠRepublicans":5546,"remely":5547,"Ġaudience":5548,"known":5549,"urchase":5550,"ĠPhilip":5551,"ĠNavigation":5552,"Ġfairly":5553,"Ġbottom":5554,"Ġcandidates":5555,"Ġcontroversial":5556,"ĠItaly":5557,"Ġaggressive":5558,"ĠMitsubishi":5559,"Ġslipped":5560,"Ġwonder":5561,"ĠGreenspan":5562,"Ġextraordinary":5563,"Ġemphas":5564,"ĠStearns":5565,"77":5566,"AC":5567,"Comm":5568,"MS":5569,"Man":5570,"MER":5571,"Ter":5572,"dy":5573,"mine":5574,"rs":5575,"tech":5576,"vard":5577,"Ġod":5578,"Ġcolum":5579,"orage":5580,"Ġbon":5581,"arry":5582,"Ġfres":5583,"Ġpaint":5584,"Ġpushed":5585,"Ġtool":5586,"Ġhur":5587,"Ġeg":5588,"ura":5589,"urrent":5590,"ĠANC":5591,"tsburgh":5592,"agues":5593,"Ġexcept":5594,"ĠPat":5595,"ĠNissan":5596,"emper":5597,"aby":5598,"Ġintent":5599,"ĠKrenz":5600,"argo":5601,"Ġ41":5602,"Ġreporters":5603,"Ġreput":5604,"Why":5605,"Ġentered":5606,"Ġextent":5607,"Ġtermin":5608,"Ġregulations":5609,"Ġvotes":5610,"efeller":5611,"ĠTelephone":5612,"Ġrepresenting":5613,"Ġcoverage":5614,"Ġargued":5615,"ĠParibas":5616,"Ġcirculation":5617,"ĠKorean":5618,"Ġdoct":5619,"Ġassistance":5620,"Ġprofessor":5621,"Ġlitigation":5622,"Ġalternative":5623,"icials":5624,"Ġbureauc":5625,"Ġlenders":5626,"Ġconcluded":5627,"overnment":5628,"34":5629,"72":5630,"800":5631,"Ph":5632,"Today":5633,"aum":5634,"iro":5635,"produc":5636,"tic":5637,"ua":5638,"Ġtask":5639,"order":5640,"Ġbul":5641,"Ġpun":5642,"Ġpetro":5643,"Ġmatters":5644,"utch":5645,"Ġnames":5646,"Ġformed":5647,"ĠMark":5648,"ĠMess":5649,"ĠMortgage":5650,"ĠSir":5651,"amble":5652,"ulate":5653,"Ġtrip":5654,"Ġtraining":5655,"ĠFe":5656,"arden":5657,"Ġcontends":5658,"ipe":5659,"Ġindeed":5660,"Ġprin":5661,"ilding":5662,"Ġdiscip":5663,"everal":5664,"Ġforecasts":5665,"stitution":5666,"Ġreluct":5667,"Ġrequires":5668,"Ġmeetings":5669,"Ġspecialist":5670,"Ġ141":5671,"Ġbegun":5672,"Ġsetting":5673,"Ġindicate":5674,"Ġswings":5675,"Ġretailers":5676,"Ġstrategic":5677,"Ġfinding":5678,"Ġcolor":5679,"Ġblacks":5680,"Ġtype":5681,"Ġdevices":5682,"Ġhistor":5683,"Ġsucceeds":5684,"Ġstrengthen":5685,"Ġassistant":5686,"ĠPhiladelphia":5687,"Ġeditorial":5688,"Ġdescribed":5689,"Ġdiscovered":5690,"Ġtriggered":5691,"ĠOakland":5692,"itzerland":5693,"gilvy":5694,"):":5695,"AP":5696,"Bank":5697,"From":5698,"Several":5699,"aut":5700,"iac":5701,"iaries":5702,"oen":5703,"Ġtent":5704,"anz":5705,"Ġcit":5706,"Ġfreed":5707,"Ġfather":5708,"Ġfounder":5709,"Ġmeth":5710,"ican":5711,"olitan":5712,"Ġstyle":5713,"Ġconfl":5714,"ĠBure":5715,"Ġcompens":5716,"Ġshr":5717,"ellor":5718,"ĠLee":5719,"ope":5720,"Ġ36":5721,"ĠOne":5722,"Ġintends":5723,"Ġ52":5724,"Ġperman":5725,"ultural":5726,"Ġdram":5727,"Ġcalling":5728,"Ġbranch":5729,"Ġadvisers":5730,"Ġcoff":5731,"tegr":5732,"Ġstudies":5733,"Ġlooks":5734,"Ġmovement":5735,"ĠEngl":5736,"Ġcollection":5737,"Ġlimits":5738,"iami":5739,"Ġauthorities":5740,"ĠContinental":5741,"Ġsuspension":5742,"Ġurged":5743,"Ġparticipants":5744,"Ġsociety":5745,"Ġratio":5746,"Ġutilities":5747,"Ġcorrect":5748,"Ġprosecutors":5749,"Ġradio":5750,"ĠCDs":5751,"Ġappropriations":5752,"ĠSimmons":5753,"ĠCiticorp":5754,"Ġoptim":5755,"Officials":5756,"ĠPetroleum":5757,"Fin":5758,"IBM":5759,"Nor":5760,"Pr":5761,"cies":5762,"gu":5763,"long":5764,"wan":5765,"Ġesc":5766,"ini":5767,"erts":5768,"reduc":5769,"arian":5770,"Ġpark":5771,"ĠMur":5772,"iger":5773,"Ġconstitutional":5774,"agn":5775,"Ġunlikely":5776,"ĠRec":5777,"ĠRoy":5778,"ĠRoth":5779,"osta":5780,"ĠIntel":5781,"Ġexpressed":5782,"ĠIr":5783,"Ġconsecutive":5784,"Ġcannot":5785,"Ġassess":5786,"Ġneither":5787,"Ġunderlying":5788,"Ġdrives":5789,"Ġflights":5790,"Ġcostly":5791,"ĠCommunist":5792,"ĠTrump":5793,"prises":5794,"Ġheads":5795,"Ġ'\"":5796,"Ġphys":5797,"Ġsenators":5798,"Ġvoting":5799,"Ġolder":5800,"Ġdifferences":5801,"ĠPhillips":5802,"Ġstrategies":5803,"ĠCarl":5804,"Ġnegotiating":5805,"Ġcritical":5806,"annie":5807,"Ġeasily":5808,"Ġcriticism":5809,"Ġpursue":5810,"Ġfeatures":5811,"crip":5812,"ĠAtlanta":5813,"Ġceiling":5814,"Ġresignation":5815,"Ġintelligence":5816,"ĠUSAir":5817,"ĠPittsburgh":5818,"DI":5819,"Dr":5820,"Dow":5821,"Like":5822,"Rober":5823,"cut":5824,"din":5825,"hard":5826,"loss":5827,"nold":5828,"Ġfashion":5829,"Ġpit":5830,"Ġinn":5831,"iction":5832,"Ġhon":5833,"stances":5834,"Ġsteep":5835,"owe":5836,"imal":5837,"user":5838,"Ġmillions":5839,"ĠPa":5840,"aped":5841,"Ġvoice":5842,"ĠHart":5843,"Ġspin":5844,"Ġspons":5845,"Ġ250":5846,"ancellor":5847,"Ġquarters":5848,"Ġinvested":5849,"ĠOil":5850,"Ġinterpret":5851,"Ġ48":5852,"ropolitan":5853,"etters":5854,"Ġscen":5855,"Ġtakeovers":5856,"Ġblood":5857,"Ġbrands":5858,"Ġequivalent":5859,"insurance":5860,"Ġeval":5861,"Ġcool":5862,"Ġpurchasing":5863,"Ġextend":5864,"Ġextended":5865,"Ġmoderate":5866,"Ġpoliticians":5867,"ĠArab":5868,"Ġtelecommunications":5869,"Ġruled":5870,"ĠRoberts":5871,"chell":5872,"Ġpatients":5873,"ĠHarris":5874,"Ġproceedings":5875,"contin":5876,"Ġdeposit":5877,"Ġopportunities":5878,"Ġjudges":5879,"Ġcolleagues":5880,"Ġshipments":5881,"interest":5882,"ĠForce":5883,"Ġplastic":5884,"ĠKeating":5885,"Ġinitiative":5886,"Ġbasket":5887,"Ġensure":5888,"Ġtaxpayers":5889,"%-":5890,"Law":5891,"Res":5892,"dom":5893,"sch":5894,"viously":5895,"Ġties":5896,"itchell":5897,"Ġfaster":5898,"Ġpact":5899,"Ġmention":5900,"Ġinqu":5901,"eless":5902,"Ġnone":5903,"ĠCF":5904,"olm":5905,"olar":5906,"ĠSears":5907,"ĠSaturday":5908,"irgin":5909,"Ġprohib":5910,"Ġwholes":5911,"och":5912,"ivals":5913,"ĠDen":5914,"ĠJeff":5915,"Ġchains":5916,"Ġchoice":5917,"ĠRoss":5918,"Ġexpanding":5919,"Ġdise":5920,"Ġgrown":5921,"izz":5922,"Ġround":5923,"Ġsees":5924,"Ġseat":5925,"Ġimm":5926,"ĠChase":5927,"Ġ400":5928,"Ġofferings":5929,"Ġ98":5930,"Ġgeneration":5931,"ology":5932,"Ġgrad":5933,"Ġcheck":5934,"Until":5935,"Ġcaught":5936,"Ġpromise":5937,"Ġpersonnel":5938,"Ġinstall":5939,"Ġknows":5940,"Ġrefund":5941,"Ġprivately":5942,"ERAL":5943,"Ġmanufacturer":5944,"Ġretailing":5945,"ĠTele":5946,"Ġcovered":5947,"Ġcontributions":5948,"Ġdeterior":5949,"Ġwait":5950,"ĠAgency":5951,"Ġlearned":5952,"ĠSocial":5953,"Ġadopted":5954,"Ġobligation":5955,"Senate":5956,"Ġbailout":5957,"ĠDouglas":5958,"largest":5959,"ĠBureau":5960,"03":5961,"Market":5962,"Ne":5963,"Par":5964,"Pack":5965,"bl":5966,"hat":5967,"host":5968,"nam":5969,"syl":5970,"ining":5971,"Ġow":5972,"ati":5973,"Ġbatter":5974,"Ġwild":5975,"ingly":5976,"Ġmother":5977,"ishes":5978,"ilton":5979,"Ġlif":5980,"uth":5981,"acco":5982,"ĠMary":5983,"ĠMiller":5984,"ĠSCI":5985,"uctions":5986,"ĠABC":5987,"ĠBrazil":5988,"oco":5989,"ĠTurn":5990,"Ġexpert":5991,"Ġexpense":5992,"anches":5993,"Ġresc":5994,"mann":5995,"useum":5996,"izens":5997,"Ġ57":5998,"ĠChrysler":5999,"ĠCoors":6000,"Mrs":6001,"Ġbanker":6002,"Ġsellers":6003,"Ġ63":6004,"Ġ101":6005,"ĠVa":6006,"Ġinsured":6007,"Ġcarried":6008,"income":6009,"Ġturning":6010,"Ġstudent":6011,"Ġsimple":6012,"ynam":6013,"Ġpossibly":6014,"Ġmembership":6015,"Ġexperi":6016,"vironmental":6017,"Ġindustrials":6018,"ĠGrand":6019,"Ġeasier":6020,"Ġattorneys":6021,"Ġpopulation":6022,"ING":6023,"Ġlawsuit":6024,"Ġillegal":6025,"Ġsafe":6026,"idelity":6027,"Ġprospect":6028,"Ġpushing":6029,"ĠThomson":6030,"ophistic":6031,"Ġinstruments":6032,"Ġanswer":6033,"ĠRockefeller":6034,"koosa":6035,"Ġobservers":6036,"urmoil":6037,"Ġmerchandise":6038,"ĠDistrict":6039,"Ġfresh":6040,"ĠEnglish":6041,"51":6042,"54":6043,"64":6044,"Bache":6045,"CC":6046,"Pric":6047,"President":6048,"bec":6049,"fect":6050,"gate":6051,"rimin":6052,"ui":6053,"Ġtum":6054,"Ġtied":6055,"Ġturmoil":6056,"Ġsets":6057,"Ġcig":6058,"Ġcold":6059,"Ġcrow":6060,"Ġculture":6061,"Ġlives":6062,"store":6063,"uted":6064,"adium":6065,"Ġstage":6066,"Ġstress":6067,"Ġstabil":6068,"ote":6069,"ĠBel":6070,"ĠBudget":6071,"agers":6072,"Ġshot":6073,"Ġshipping":6074,"atever":6075,"Ġrace":6076,"eway":6077,"ewlett":6078,"ifying":6079,"ĠDis":6080,"ĠRTC":6081,"Ġspur":6082,"ansas":6083,"Ġresume":6084,"acked":6085,"Ġnewly":6086,"venues":6087,"ĠStores":6088,"rene":6089,"ĠCoast":6090,"ossible":6091,"Ġslid":6092,"Ġcurb":6093,"ĠVer":6094,"Ġ1993":6095,"Ġelsewhere":6096,"obile":6097,"Ġadvoc":6098,"hens":6099,"Ġlowered":6100,"Ġsevere":6101,"ĠMarc":6102,"Ġextremely":6103,"Ġstrongly":6104,"Ġpolitics":6105,"Ġbasic":6106,"Ġpassen":6107,"backs":6108,"Ġpattern":6109,"Ġjointly":6110,"ĠDavis":6111,"ĠSwitzerland":6112,"Ġlawsuits":6113,"profit":6114,"Ġmassive":6115,"EDERAL":6116,"iffs":6117,"Ġprompted":6118,"Ġliberal":6119,"Ġenjoy":6120,"emiconductor":6121,"Ġcollapsed":6122,"Ġmethod":6123,"61":6124,"92":6125,"98":6126,"NP":6127,"SJ":6128,"iers":6129,"mas":6130,"ĠX":6131,"Ġver":6132,"itable":6133,"ario":6134,"Ġmur":6135,"Ġmine":6136,"Ġletters":6137,"Ġep":6138,"Ġele":6139,"ĠCosta":6140,"ĠMiami":6141,"Ġster":6142,"Ġcomments":6143,"Ġheat":6144,"Ġran":6145,"ewhat":6146,"ĠPont":6147,"ĠTenn":6148,"ĠWSJ":6149,"Ġspark":6150,"ubs":6151,"riers":6152,"Ġinvesting":6153,"ĠIl":6154,"ousing":6155,"Ġpresence":6156,"Ġapprove":6157,"Ġkill":6158,"Ġweap":6159,"Ġenh":6160,"Ġarm":6161,"Ġgovernments":6162,"Ġamendment":6163,"Ġdrink":6164,"Ġflo":6165,"Ġcurrencies":6166,"othing":6167,"Ġacquiring":6168,"Ġdepend":6169,"ological":6170,"ĠMarsh":6171,"Ġafford":6172,"tenance":6173,"ĠManville":6174,"Ġsupported":6175,"Ġresulting":6176,"Ġfacing":6177,"Ġcreating":6178,"kei":6179,"ĠMcG":6180,"Ġteacher":6181,"Ġweaker":6182,"Ġmetric":6183,"Ġsugar":6184,"ysis":6185,"ATION":6186,"making":6187,"Ġcopy":6188,"ĠFla":6189,"Ġoccas":6190,"Ġsurprised":6191,"Ġexpanded":6192,"Ġtemporarily":6193,"Ġpersu":6194,"Ġhearings":6195,"Ġzero":6196,"Ġultimately":6197,"Ġpulled":6198,"ĠNorthern":6199,"vania":6200,"Ġadministrative":6201,"board":6202,"ĠNikkei":6203,"Ġentertainment":6204,"Ġallegations":6205,"Terms":6206,"Robert":6207,"04":6208,"BI":6209,"Never":6210,"RE":6211,"UAL":6212,"bro":6213,"bell":6214,"gn":6215,"light":6216,"power":6217,"Ġten":6218,"Ġsearch":6219,"arner":6220,"Ġflex":6221,"icts":6222,"icated":6223,"Ġdied":6224,"ompl":6225,"ented":6226,"ĠCos":6227,"oline":6228,"ĠMitchell":6229,"Ġstret":6230,"ĠSotheby":6231,"ĠAS":6232,"ĠAT":6233,"ĠBob":6234,"ĠBalt":6235,"Ġunable":6236,"Ġvs":6237,"ĠGas":6238,"ĠHer":6239,"ĠHan":6240,"Ġchip":6241,"odities":6242,"uebec":6243,"Ġcontain":6244,"Ġ1981":6245,"Ġdisk":6246,"Ġmanage":6247,"Ġdozen":6248,"Ġenorm":6249,"linois":6250,"Ġsubcommittee":6251,"Ġ66":6252,"Ġhighway":6253,"Ġefficient":6254,"ibb":6255,"Ġbranches":6256,"Ġrealize":6257,"ĠManufacturers":6258,"Ġcausing":6259,"aborate":6260,"Ġseeks":6261,"ucky":6262,"offs":6263,"Ġprocessing":6264,"Ġcareer":6265,"burg":6266,"Ġcarriers":6267,"ĠApple":6268,"Ġrapidly":6269,"Ġfundamental":6270,"Ġconcentr":6271,"Ġcircumstances":6272,"ĠHampshire":6273,"reduction":6274,"Packard":6275,"sylvania":6276,"Dealers":6277,"FEDERAL":6278,"James":6279,"Se":6280,"See":6281,"Volume":6282,"fin":6283,"gent":6284,"tle":6285,"win":6286,"wer":6287,"Ġaerospace":6288,"Ġsophistic":6289,"Ġcos":6290,"iced":6291,"Ġhired":6292,"oma":6293,"Ġreass":6294,"Ġreforms":6295,"eld":6296,"olic":6297,"ĠMGM":6298,"Ġgames":6299,"ĠSand":6300,"Ġconcept":6301,"amount":6302,"Ġheard":6303,"ĠTom":6304,"Ġexposure":6305,"ĠIran":6306,"Ġbecoming":6307,"Ġkick":6308,"Ġkilled":6309,"Ġ(\"":6310,"Ġcommitted":6311,"Ġretain":6312,"Ġsuperv":6313,"Ġcomplained":6314,"ĠEuro":6315,"Ġhalted":6316,"eeping":6317,"Ġmerely":6318,"Ġwarning":6319,"echnologies":6320,"Ġplaying":6321,"Ġharder":6322,"Ġallowing":6323,"Ġsomewhat":6324,"ilipp":6325,"Ġrepresented":6326,"Ġsolid":6327,"ĠAdv":6328,"Ġ1979":6329,"Ġtypes":6330,"Ġnature":6331,"ĠDrug":6332,"Ġsufficient":6333,"Ġbringing":6334,"Ġstatus":6335,"Trust":6336,"Ġcooperation":6337,"ĠStevens":6338,"Ġrestaurant":6339,"British":6340,"Ġpipeline":6341,"Ġsilver":6342,"ĠEconomic":6343,"ĠCarolina":6344,"Ġinquir":6345,"01":6346,"71":6347,"Dav":6348,"Mich":6349,"PP":6350,"best":6351,"cks":6352,"ma":6353,"ooth":6354,"products":6355,"Ġton":6356,"Ġtape":6357,"Ġtrem":6358,"Ġtheory":6359,"orr":6360,"Ġfilled":6361,"Ġmand":6362,"Ġanal":6363,"enter":6364,"Ġlag":6365,"ecker":6366,"ĠAI":6367,"ĠAcc":6368,"ĠBreed":6369,"Ġrated":6370,"Ġdeg":6371,"ections":6372,"ĠDon":6373,"ĠDutch":6374,"ĠJew":6375,"ella":6376,"ĠGNP":6377,"ĠLuf":6378,"ĠHon":6379,"astrop":6380,"ĠWat":6381,"anti":6382,"ĠOgilvy":6383,"ailed":6384,"Ġconsp":6385,"Ġweight":6386,"reddie":6387,"Ġarms":6388,"Ġarrest":6389,"Ġamb":6390,"Ġimpossible":6391,"Ġprofitability":6392,"ĠExxon":6393,"Ġelaborate":6394,"Once":6395,"Ġhelping":6396,"Ġreducing":6397,"Ġcorporation":6398,"espread":6399,"Ġdemands":6400,"Ġviewed":6401,"risk":6402,"ooker":6403,"Ġgreen":6404,"istered":6405,"ĠCompaq":6406,"Ġbehav":6407,"Ġbehalf":6408,"Ġtargets":6409,"Ġstructural":6410,"Ġattractive":6411,"ĠQuantum":6412,"uggish":6413,"Ġmerchant":6414,"ĠMcCaw":6415,"Ġalternatives":6416,"Ġeliminate":6417,"Ġdisappointing":6418,"Ġplastics":6419,"Ġappointed":6420,"Ġcomplaints":6421,"Ġrepeated":6422,"Ġdisplay":6423,"Ġexactly":6424,"employment":6425,"Ġmaximum":6426,"Ġcautious":6427,"Ġpermanent":6428,"tegrated":6429,"Ġcigaret":6430,"Ġenormous":6431,"600":6432,"94":6433,"97":6434,"En":6435,"Est":6436,"PA":6437,"Qu":6438,"but":6439,"band":6440,"bacco":6441,"sized":6442,"yd":6443,"Ġsle":6444,"Ġsex":6445,"Ġsuits":6446,"Ġought":6447,"isk":6448,"Ġtot":6449,"Ġtobacco":6450,"Ġreop":6451,"aco":6452,"ĠMo":6453,"Ġstories":6454,"imore":6455,"amber":6456,"oca":6457,"thur":6458,"Ġuniversity":6459,"ĠDu":6460,"ĠDean":6461,"ĠJac":6462,"ĠLang":6463,"ĠHis":6464,"rick":6465,"Ġagent":6466,"Ġcontend":6467,"rian":6468,"ĠIm":6469,"Ġdisag":6470,"ĠYoung":6471,"Ġofficers":6472,"Ġusers":6473,"lined":6474,"Ġattend":6475,"Ġsuperc":6476,"ĠVirgin":6477,"Ġstatements":6478,"Ġadvice":6479,"ĠIndia":6480,"Ġdemocracy":6481,"Ġhandling":6482,"Ġsecondary":6483,"Ġaffairs":6484,"Ġcaution":6485,"Ġrecorded":6486,"Ġclaimed":6487,"ĠPhilipp":6488,"ERS":6489,"Ġformal":6490,"aiwan":6491,"Ġwidespread":6492,"Ġpublished":6493,"ĠControl":6494,"Ġconsultants":6495,"Ġthreatened":6496,"ylene":6497,"Ġrooms":6498,"Ġanticipated":6499,"Ġnormally":6500,"Ġfriendly":6501,"Friday":6502,"thirds":6503,"Ġspeculators":6504,"Ġoccurred":6505,"Ġsteady":6506,"ĠNekoosa":6507,"Ġfrequently":6508,"Before":6509,"performing":6510,"ĠMartin":6511,"Ġcoffee":6512,".;":6513,"02":6514,"06":6515,"83":6516,"Dec":6517,"Pl":6518,"YSE":6519,"bal":6520,"top":6521,"uate":6522,"Ġtext":6523,"Ġaw":6524,"Ġaide":6525,"rehens":6526,"Ġson":6527,"enTrust":6528,"Ġwitness":6529,"Ġpool":6530,"Ġmist":6531,"asc":6532,"Ġreward":6533,"ĠCamb":6534,"ador":6535,"adio":6536,"Ġstanding":6537,"igan":6538,"Ġbeer":6539,"Ġbeat":6540,"imp":6541,"imated":6542,"ĠBull":6543,"quisition":6544,"Ġring":6545,"Ġrall":6546,"Ġrivals":6547,"aken":6548,"than":6549,"Ġwaste":6550,"Ġunve":6551,"Ġunlike":6552,"Ġveter":6553,"ĠLBO":6554,"ĠHel":6555,"Ġagents":6556,"eps":6557,"Ġjur":6558,"Ġbillions":6559,"ĠOp":6560,"Ġbecomes":6561,"aching":6562,"Third":6563,"Ġaccel":6564,"Ġaccomp":6565,"Ġcommissions":6566,"Ġassume":6567,"enses":6568,"oyota":6569,"Ġblame":6570,"minent":6571,"Ġforest":6572,"Ġdivisions":6573,"Ġdelays":6574,"Ġturns":6575,"Ġmaintenance":6576,"Ġlooked":6577,"Ġ142":6578,"Ġsubscrib":6579,"Ġpromised":6580,"Ġformerly":6581,"Ġpressures":6582,"Ġrisen":6583,"Ġeffectively":6584,"Ġretailer":6585,"annel":6586,"Ġbadly":6587,"Ġprofession":6588,"ORT":6589,"Ġdoubled":6590,"Profit":6591,"Ġborrowing":6592,"Ġidentified":6593,"Ġcommitment":6594,"Stocks":6595,"ĠAfrican":6596,"ĠAtlantic":6597,"etroit":6598,"Ġwatching":6599,"Ġawarded":6600,"Ġconnection":6601,"Ġaffiliate":6602,"Ġlobby":6603,"Ġdownturn":6604,"Ġpeace":6605,"Ġnovel":6606,"Ġcertificates":6607,"Prices":6608,"David":6609,"ĠBreeden":6610,"81":6611,"Is":6612,"William":6613,"ground":6614,"ka":6615,"run":6616,"raw":6617,"yer":6618,"inson":6619,"Ġcatch":6620,"Ġcouncil":6621,"esides":6622,"ena":6623,"enz":6624,"item":6625,"Ġwear":6626,"Ġanx":6627,"Ġrevenues":6628,"eco":6629,"uties":6630,"ado":6631,"Ġforward":6632,"Ġgap":6633,"Ġgall":6634,"Ġgarden":6635,"Ġghost":6636,"Ġstream":6637,"ĠBron":6638,"Ġhed":6639,"ocal":6640,"ĠFar":6641,"ĠFDA":6642,"elled":6643,"ocks":6644,"ĠLas":6645,"ĠWang":6646,"ĠWolf":6647,"abody":6648,"antile":6649,"Ġresistance":6650,"Ġdiscontin":6651,"Ġ54":6652,"Ġovernight":6653,"ĠYear":6654,"ples":6655,"veland":6656,"Ġworker":6657,"Ġrepair":6658,"Ġgenes":6659,"Ġcarries":6660,"Ġemot":6661,"Ġsurf":6662,"Ġfellow":6663,"ĠBanking":6664,"lands":6665,"Ġgrain":6666,"incinn":6667,"ĠAirways":6668,"Ġresulted":6669,"egas":6670,"Ġplayer":6671,"Ġaccounted":6672,"hority":6673,"Ġsubsidies":6674,"Ġmetal":6675,"ĠSpain":6676,"Ġgasoline":6677,"chemical":6678,"ĠBridge":6679,"aphics":6680,"Ġcircuit":6681,"Ġportfolios":6682,"Ġdetermine":6683,"Ġvariety":6684,"Ġorganizations":6685,"Ġviolations":6686,"alties":6687,"Ġfields":6688,"ĠChristmas":6689,"Ġdelayed":6690,"Ġregarding":6691,"Ġmemory":6692,"Ġoblig":6693,"Ġsyndicate":6694,"Ġmachinists":6695,"ĠPeabody":6696,"Ġtitle":6697,"ĠFarmers":6698,"ĠHungary":6699,"Ġplummeted":6700,"Ġarchit":6701,"ĠIllinois":6702,"incinnati":6703,"120":6704,"78":6705,"Cs":6706,"May":6707,"UN":6708,"WA":6709,"dale":6710,"iqu":6711,"war":6712,"where":6713,"Ġtable":6714,"Ġwel":6715,"Ġfat":6716,"Ġfly":6717,"Ġpill":6718,"Ġpage":6719,"aled":6720,"Ġdip":6721,"Ġhus":6722,"etts":6723,"ĠCN":6724,"ĠCare":6725,"Ġforms":6726,"ĠMCA":6727,"Ġstick":6728,"Ġstreet":6729,"imony":6730,"usetts":6731,"Ġconsequ":6732,"uce":6733,"uccess":6734,"Ġshop":6735,"ĠGE":6736,"ĠRog":6737,"abilities":6738,"Ġacad":6739,"Ġabort":6740,"opher":6741,"ichol":6742,"exchange":6743,"Ġquant":6744,"ĠStar":6745,"ĠOl":6746,"Ġrecalls":6747,"Ġ59":6748,"achusetts":6749,"Ġ85":6750,"Ġstra":6751,"Ġretired":6752,"issue":6753,"ogel":6754,"Ġsluggish":6755,"Ġrepay":6756,"Ġdiscour":6757,"Ġblamed":6758,"Ġ1999":6759,"Ġacting":6760,"obil":6761,"Ġcruc":6762,"Ġtransl":6763,"ompson":6764,"theless":6765,"ĠArmy":6766,"Ġbegins":6767,"Ġchanging":6768,"Ġfaced":6769,"Ġstands":6770,"Ġinstitution":6771,"ĠMinne":6772,"Ġexplain":6773,"Ġwriter":6774,"Char":6775,"Ġrede":6776,"Ġvictory":6777,"ĠElectron":6778,"Ġcriticized":6779,"Ġidentify":6780,"ĠMercantile":6781,"Ġcalcul":6782,"Perhaps":6783,"ĠPennsylvania":6784,"Ġphotograph":6785,"Ġdestro":6786,"ĠAuthority":6787,"iciency":6788,"Ġpaintings":6789,"Ġreputation":6790,"ĠBaltimore":6791,"Ġsophisticated":6792,"Ġcosmet":6793,"Michael":6794,"bestos":6795,"ĠMinneapolis":6796,"700":6797,"750":6798,"Congress":6799,"Current":6800,"Fed":6801,"Geor":6802,"Her":6803,"do":6804,"hand":6805,"ias":6806,"ters":6807,"taking":6808,"Ġet":6809,"Ġeth":6810,"heed":6811,"Ġcel":6812,"Ġwave":6813,"Ġmic":6814,"icious":6815,"Ġdict":6816,"ecured":6817,"ĠMic":6818,"Ġstre":6819,"Ġstable":6820,"ĠSher":6821,"owers":6822,"imited":6823,"resent":6824,"Ġtrim":6825,"ĠDai":6826,"ĠDirect":6827,"Ġhaz":6828,"ĠGi":6829,"ockheed":6830,"ĠHa":6831,"ĠHen":6832,"ĠRob":6833,"ĠWright":6834,"ĠEar":6835,"opol":6836,"Ġleaves":6837,"Ġseed":6838,"Ġlog":6839,"Three":6840,"Ġwealth":6841,"Ġissu":6842,"Ġinsurer":6843,"Ġmining":6844,"ietnam":6845,"ĠThompson":6846,"Ġrequiring":6847,"Ġnumerous":6848,"Ġhandful":6849,"Ġtotaling":6850,"Ġindicates":6851,"Ġhoped":6852,"Ġcloser":6853,"ĠShow":6854,"Ġexploration":6855,"Ġreading":6856,"echan":6857,"Ġbroadcast":6858,"Ġskept":6859,"ĠNorthrop":6860,"Ġprojections":6861,"ĠLawrence":6862,"Ġapprox":6863,"Ġillustr":6864,"Ġdocument":6865,"Ġunsecured":6866,"Ġfighting":6867,"scale":6868,"Ġtrends":6869,"fortun":6870,"Ġscientific":6871,"reprene":6872,"Ġachieve":6873,"Ġapplications":6874,"Ġmessage":6875,"Ġincentives":6876,"Ġprocedures":6877,"Ġassembly":6878,"Ġsustained":6879,"Ġreluctant":6880,"hardt":6881,"Ġwholesale":6882,"ĠAIDS":6883,"91":6884,"Cola":6885,"Treasury":6886,"Warner":6887,"bol":6888,"born":6889,"iest":6890,"member":6891,"wing":6892,"heless":6893,"Ġsem":6894,"Ġom":6895,"Ġfet":6896,"etter":6897,"ĠCath":6898,"ĠSk":6899,"ĠBern":6900,"Ġasbestos":6901,"quer":6902,"Ġtriple":6903,"ĠForeign":6904,"ectic":6905,"ĠTax":6906,"ĠTaiwan":6907,"Ġunexpected":6908,"Ġunemployment":6909,"elli":6910,"ĠGal":6911,"ĠGOP":6912,"ĠRel":6913,"ĠReg":6914,"Ġjet":6915,"ancer":6916,"Ġgoals":6917,"acker":6918,"ĠIc":6919,"Ġintens":6920,"Ġintense":6921,"Ġapply":6922,"ails":6923,"Ġ89":6924,"Ġsecret":6925,"Ġsubsequ":6926,"ĠVan":6927,"ĠVol":6928,"ixon":6929,"Ġgenerate":6930,"Ġremarks":6931,"Ġbridge":6932,"Ġdeveloper":6933,"Ġbroken":6934,"Ġrevers":6935,"Ġcompete":6936,"ĠEnvironmental":6937,"Ġmergers":6938,"Ġmedium":6939,"emption":6940,"Ġ180":6941,"ircuit":6942,"Ġbroader":6943,"Ġhappens":6944,"Ġsumm":6945,"Ġschedule":6946,"ĠContain":6947,"ĠSea":6948,"Ġdifficulties":6949,"Ġpilot":6950,"Ġreplaced":6951,"Ġrecovered":6952,"control":6953,"Ġsurprise":6954,"Ġfavorable":6955,"ĠMedic":6956,"Ġfriends":6957,"Ġconfirm":6958,"ĠCharl":6959,"Ġwarrant":6960,"Ġcatastrop":6961,"Ġconduct":6962,"Ġunfair":6963,"ĠMcDonald":6964,"ĠEquipment":6965,"Ġpurpose":6966,"Ġsensitive":6967,"Ġrenewed":6968,"Ġbulk":6969,"ĠDenver":6970,"ĠMarshall":6971,"Nevertheless":6972,"350":6973,"73":6974,"App":6975,"Big":6976,"Co":6977,"DP":6978,"GA":6979,"KR":6980,"Rec":6981,"Sony":6982,"card":6983,"hus":6984,"ram":6985,"tz":6986,"uis":6987,"Ġsend":6988,"Ġcells":6989,"Ġbell":6990,"Ġbik":6991,"Ġwall":6992,"ilip":6993,"Ġdial":6994,"Ġleng":6995,"Ġeased":6996,"Ġnort":6997,"ĠSkin":6998,"unction":6999,"irth":7000,"iments":7001,"Ġyoun":7002,"Ġconven":7003,"Ġconstant":7004,"ĠBan":7005,"ams":7006,"quality":7007,"ĠFHA":7008,"ĠFidelity":7009,"ĠProducts":7010,"emy":7011,"Ġordin":7012,"ĠHaw":7013,"ĠReal":7014,"ĠRoman":7015,"ĠRiver":7016,"ĠRadio":7017,"asters":7018,"ighter":7019,"ĠWitter":7020,"odak":7021,"isted":7022,"riculture":7023,"Ġplenty":7024,"ĠIf":7025,"Ġrock":7026,"avy":7027,"Ġconsumption":7028,"Ġdownward":7029,"Ġ69":7030,"Ġslower":7031,"itsu":7032,"Ġdriving":7033,"Ġinside":7034,"Ġ95":7035,"Ġ97":7036,"apitalization":7037,"ibilities":7038,"Ġrelative":7039,"ĠAnt":7040,"Ġfeed":7041,"Ġdealing":7042,"rete":7043,"Ġentreprene":7044,"Ġpostp":7045,"Ġbroke":7046,"Ġpointed":7047,"Ġshortly":7048,"ennis":7049,"Ġseeing":7050,"Ġcollateral":7051,"Ġallows":7052,"Ġviewers":7053,"empts":7054,"Ġglass":7055,"Ġcovering":7056,"Ġsolicit":7057,"Ġargument":7058,"Ġ1974":7059,"Ġ2009":7060,"Ġintroduce":7061,"ipper":7062,"Ġcombination":7063,"Ġmeaning":7064,"ORP":7065,"Ġmotion":7066,"Ġencourage":7067,"Ġdelivered":7068,"ĠDonaldson":7069,"Ġlicense":7070,"ĠCleveland":7071,"Ġarrangement":7072,"ĠMaxwell":7073,"Ġappreciation":7074,"Ġsweet":7075,"ĠMessrs":7076,"ĠTurner":7077,"Ġcrucial":7078,"Ġredeem":7079,"ĠSkinner":7080,"07":7081,"09":7082,"93":7083,"IG":7084,"National":7085,"Oct":7086,"RA":7087,"dollar":7088,"growing":7089,"haul":7090,"iable":7091,"mont":7092,"torney":7093,"yers":7094,"Ġaware":7095,"inist":7096,"held":7097,"Ġcou":7098,"esa":7099,"Ġfee":7100,"Ġmechan":7101,"Ġreve":7102,"Ġrestr":7103,"ĠMad":7104,"ĠMason":7105,"Ġgather":7106,"tered":7107,"ĠAb":7108,"Inter":7109,"Ġrush":7110,"ĠPort":7111,"ĠNichol":7112,"iffer":7113,"ifically":7114,"ĠDarman":7115,"ĠDetroit":7116,"ĠGill":7117,"ĠLoren":7118,"ĠHooker":7119,"ĠWell":7120,"Ġ1960":7121,"ĠEstate":7122,"Ġmarketplace":7123,"Ġplaces":7124,"Ġcontest":7125,"Ġcontroll":7126,"dered":7127,"ĠOF":7128,"ĠOn":7129,"ords":7130,"Ġalloc":7131,"Ġdecre":7132,"ĠChancellor":7133,"Ġweather":7134,"Ġ72":7135,"Ġsecured":7136,"Ġoperators":7137,"Any":7138,"Ġmayor":7139,"Ġbox":7140,"Ġprogramming":7141,"Ġpayable":7142,"Ġdesk":7143,"Ġdesire":7144,"Ġdivided":7145,"Ġdonations":7146,"apping":7147,"Ġfilings":7148,"Ġguy":7149,"Ġcompeting":7150,"Ġregulation":7151,"Ġrecords":7152,"Ġswitch":7153,"Ġtesting":7154,"Ġsubsidiaries":7155,"white":7156,"iveness":7157,"Ġlegislative":7158,"Without":7159,"ĠGramm":7160,"ĠComposite":7161,"Ġauthorized":7162,"ĠBarney":7163,"ĠScott":7164,"ĠSwed":7165,"ĠAsian":7166,"services":7167,"ĠMassachusetts":7168,"Short":7169,"Ġpromotion":7170,"Ġsquare":7171,"ĠBerlin":7172,"Ġeducational":7173,"Ġcandidate":7174,"Ġdeadline":7175,"Ġlobb":7176,"Ġbargain":7177,"Ġpurposes":7178,"Ġincentive":7179,"ĠDaniel":7180,"Ġcellular":7181,"ĠNicaragua":7182,"oenix":7183,"Ġsterling":7184,"ĠVirginia":7185,"rehensive":7186,"Ġstraight":7187,"900":7188,"Much":7189,"NB":7190,"PO":7191,"THE":7192,"UR":7193,"after":7194,"da":7195,"def":7196,"iate":7197,"loan":7198,"pet":7199,"rid":7200,"tes":7201,"vin":7202,"vious":7203,"zed":7204,"Ġsand":7205,"Ġsemiconductor":7206,"ana":7207,"Ġcart":7208,"Ġbud":7209,"Ġburn":7210,"Ġfill":7211,"Ġfurn":7212,"aling":7213,"Ġtouch":7214,"Ġdimin":7215,"Ġduty":7216,"Ġreact":7217,"Ġeager":7218,"ĠCross":7219,"ĠCenTrust":7220,"acre":7221,"ĠSection":7222,"Ġrac":7223,"Ġrig":7224,"Ġrich":7225,"ĠFood":7226,"ĠPil":7227,"ĠPict":7228,"ĠPaper":7229,"umber":7230,"ĠJen":7231,"ĠHewlett":7232,"ĠWeb":7233,"ĠEr":7234,"Ġacts":7235,"udman":7236,"Ġexpire":7237,"ipts":7238,"ĠOk":7239,"ualty":7240,"Ġkid":7241,"Ġconsensus":7242,"Ġprint":7243,"Ġmaybe":7244,"ĠVietnam":7245,"Ġblow":7246,"Ġevening":7247,"Ġsurround":7248,"formation":7249,"ĠBankers":7250,"Ġshouldn":7251,"Ġterror":7252,"ĠArk":7253,"iversal":7254,"Ġindication":7255,"Ġhoping":7256,"Ġcharging":7257,"Ġbenefic":7258,"Ġnegotiated":7259,"Ġsuccessor":7260,"Ġpackaging":7261,"Ġconvicted":7262,"ANK":7263,"Ġattempting":7264,"Ġparticipate":7265,"ĠProf":7266,"Ġguaranteed":7267,"Ġresponded":7268,"Ġmotor":7269,"Ġpriority":7270,"Ġallegedly":7271,"Ġabsorb":7272,"Ġlinked":7273,"ĠHolding":7274,"ĠAcquisition":7275,"Ġbureau":7276,"ĠBancorp":7277,"Ġmountain":7278,"Ġdefinitive":7279,"Ġrestaurants":7280,"Ġwatched":7281,"Ġranging":7282,"Ġscreen":7283,"Ġstarts":7284,"Ġsubmitted":7285,"Ġmainframe":7286,"Ġcreative":7287,"Ġcycle":7288,"CRS":7289,"Ġcolumn":7290,"Ġcitizens":7291,"Ġweapons":7292,"ĠHanover":7293,"Ġbehavior":7294,"ĠJacob":7295,"ĠYeargin":7296,"Ġhusband":7297,"ĠIcahn":7298,"96":7299,"Bl":7300,"Car":7301,"FL":7302,"IS":7303,"Pol":7304,"Tex":7305,"baum":7306,"coup":7307,"fell":7308,"ius":7309,"jects":7310,"kers":7311,"nard":7312,"page":7313,"ridge":7314,"sen":7315,"uations":7316,"Ġtre":7317,"Ġturb":7318,"Ġsch":7319,"Ġsanc":7320,"Ġsued":7321,"Ġfal":7322,"Ġfans":7323,"Ġhum":7324,"Ġhyp":7325,"etime":7326,"ĠCincinnati":7327,"ĠCORP":7328,"ĠMicro":7329,"Ġgyr":7330,"unting":7331,"otal":7332,"Ġaside":7333,"ags":7334,"Ġships":7335,"Ġraw":7336,"ĠFifth":7337,"ĠFerr":7338,"arel":7339,"ĠDay":7340,"Ġvary":7341,"ĠGa":7342,"ĠLatin":7343,"ĠHot":7344,"ĠHunt":7345,"Ġchurch":7346,"ĠRay":7347,"ĠRica":7348,"ĠWa":7349,"Ġadequ":7350,"uez":7351,"Ġindict":7352,"rie":7353,"ĠStr":7354,"awa":7355,"Ġrow":7356,"Ġalliance":7357,"Ġimag":7358,"Ġ800":7359,"Ġplanes":7360,"Ġpoly":7361,"ĠVegas":7362,"Ġdefe":7363,"Ġcrack":7364,"Ġholder":7365,"Ġfinancially":7366,"Ġsheet":7367,"Ġcredibility":7368,"Ġfrustr":7369,"orporate":7370,"Ġcoordin":7371,"print":7372,"Ġhandled":7373,"Ġposts":7374,"iented":7375,"Ġpromises":7376,"ierce":7377,"Ġimportance":7378,"Ġindicators":7379,"Ġlocation":7380,"ĠPhoenix":7381,"ruption":7382,"iamond":7383,"Ġmarked":7384,"Ġexperiment":7385,"class":7386,"Ġreaders":7387,"Ġdevice":7388,"ĠSeoul":7389,"ĠDelta":7390,"ĠChev":7391,"Ġcanceled":7392,"controlled":7393,"Ġjoining":7394,"aska":7395,"Ġprinciple":7396,"Ġdeaths":7397,"Ġpresented":7398,"ASA":7399,"Ġcarrying":7400,"Trading":7401,"ĠBellSouth":7402,"Ġencouraged":7403,"Ġprecious":7404,"Ġconducted":7405,"Ġselected":7406,"Ġcooper":7407,"Ġachieved":7408,"ĠSteinhardt":7409,"Ġdeparture":7410,"Ġacknowledged":7411,"Ġpoison":7412,"ĠWalter":7413,"Ġvideo":7414,"Ġloyalty":7415,"Ġexclusive":7416,"iacom":7417,"Ġconflict":7418,"Ġcompensation":7419,"schild":7420,"Ġanalysis":7421,"ĠLufkin":7422,"Ġapproximately":7423,"ecticut":7424,".'":7425,"74":7426,"Average":7427,"Jaguar":7428,"Rich":7429,"Says":7430,"Your":7431,"augh":7432,"count":7433,"foot":7434,"lom":7435,"lov":7436,"ront":7437,"rights":7438,"sup":7439,"uous":7440,"inch":7441,"Ġcapped":7442,"atap":7443,"atically":7444,"orough":7445,"Ġbody":7446,"Ġbomb":7447,"Ġwood":7448,"around":7449,"Ġfem":7450,"inghouse":7451,"Ġang":7452,"Ġhits":7453,"Ġreject":7454,"Ġeasing":7455,"eling":7456,"illan":7457,"ĠCO":7458,"ĠCal":7459,"ĠCub":7460,"urable":7461,"Ġstood":7462,"Ġstuff":7463,"otechnology":7464,"ĠAk":7465,"Ġcompares":7466,"amily":7467,"Ġshape":7468,"Ġrid":7469,"Ġrank":7470,"Ġrape":7471,"ulian":7472,"ĠFried":7473,"ĠFoods":7474,"ĠNYSE":7475,"ĠNixon":7476,"Ġunn":7477,"ĠDa":7478,"ĠDod":7479,"ĠHerald":7480,"ĠRosen":7481,"rier":7482,"ieux":7483,"ĠIM":7484,"ĠKy":7485,"ĠKent":7486,"ĠKKR":7487,"Ġallies":7488,"Ġapplied":7489,"Ġfined":7490,"Ġ53":7491,"Ġ56":7492,"Ġ58":7493,"lium":7494,"Ġload":7495,"Ġlove":7496,"Ġ87":7497,"Ġenforcement":7498,"lude":7499,"Ġassumption":7500,"force":7501,"Ġscale":7502,"Ġattitude":7503,"Ġregime":7504,"Ġinsists":7505,"Ġbackl":7506,"stitute":7507,"Ġmanages":7508,"Who":7509,"Ġdealings":7510,"Ġcredits":7511,"Ġrestrict":7512,"tega":7513,"Ġoppose":7514,"Ġexpecting":7515,"ĠWarren":7516,"Ġhardly":7517,"Ġindicating":7518,"Ġtestimony":7519,"spec":7520,"Ġexplos":7521,"ĠSpiel":7522,"Ġreasonable":7523,"ĠColor":7524,"ĠBeach":7525,"CIAL":7526,"Ġwinter":7527,"Ġorganized":7528,"Ġsupplier":7529,"Ġfeeling":7530,"Ġsuffer":7531,"Ġfocused":7532,"process":7533,"Ġborrowed":7534,"iece":7535,"Companies":7536,"Ġjudg":7537,"Ġpollution":7538,"ĠInterstate":7539,"Ġbitter":7540,"Ġappropriate":7541,"Ġlearn":7542,"ĠIII":7543,"Ġrebounded":7544,"Ġbullish":7545,"Ġpulp":7546,"uzz":7547,"Ġmachinery":7548,"Ġresolve":7549,"ĠAllen":7550,"Ġabandoned":7551,"uminum":7552,"Ġsqueeze":7553,"arrass":7554,"Ġimplic":7555,"Ġdramatic":7556,"ĠRothschild":7557,"Ġexperienced":7558,"rimination":7559,"ĠDisney":7560,"ĠHonecker":7561,"Ġabortions":7562,"Ġcelebr":7563,"Ass":7564,"Cl":7565,"Part":7566,"PEC":7567,"TS":7568,"car":7569,"dem":7570,"deal":7571,"has":7572,"iber":7573,"life":7574,"nual":7575,"vogel":7576,"worth":7577,"zale":7578,"Ġtap":7579,"Ġtone":7580,"onzale":7581,"Ġbirth":7582,"iti":7583,"Ġwish":7584,"arc":7585,"Ġfit":7586,"Ġfab":7587,"Ġfifth":7588,"Ġpet":7589,"Ġpestic":7590,"Ġpapers":7591,"Ġmix":7592,"Ġmaster":7593,"ione":7594,"ila":7595,"Ġdream":7596,"Ġthrow":7597,"enth":7598,"enture":7599,"Ġlift":7600,"eted":7601,"Ġnomin":7602,"uries":7603,"olut":7604,"Ġgun":7605,"Ġstated":7606,"Ġstorage":7607,"otic":7608,"ĠAvenue":7609,"Ġexhib":7610,"Inc":7611,"International":7612,"ula":7613,"ulner":7614,"ĠProv":7615,"ĠDie":7616,"Ġvast":7617,"andom":7618,"empl":7619,"ellite":7620,"Ġcha":7621,"ĠInt":7622,"Ġplaint":7623,"Ġexpend":7624,"Ġleverage":7625,"Ġresum":7626,"Ġupward":7627,"Ġrecapitalization":7628,"Ġpregn":7629,"izable":7630,"Ġdecades":7631,"Ġ88":7632,"ashing":7633,"etta":7634,"Ġ61":7635,"Ġsche":7636,"icken":7637,"Ġregistered":7638,"Ġdrag":7639,"Ġbacking":7640,"fty":7641,"Ġremove":7642,"Ġsurplus":7643,"Ġbidders":7644,"Ġbrain":7645,"ĠIndustry":7646,"ĠThree":7647,"Ġdevelopers":7648,"eva":7649,"Ġenthus":7650,"Ġobvious":7651,"Ġturnover":7652,"Ġconsiderable":7653,"ĠEngel":7654,"Ġmature":7655,"Ġswap":7656,"Ġactivists":7657,"Ġwriting":7658,"ĠQuebec":7659,"ĠZeal":7660,"maker":7661,"ĠOrange":7662,"downs":7663,"Ġsucceeded":7664,"Ġengineers":7665,"Ġpounds":7666,"ĠAgn":7667,"Ġarrang":7668,"Ġpromote":7669,"Ġoriginally":7670,"Ġpremiums":7671,"Ġpermission":7672,"COM":7673,"Ġanticipation":7674,"Ġeyes":7675,"Ġburden":7676,"Ġpieces":7677,"Ġcalculated":7678,"Ġfootball":7679,"ĠCorry":7680,"Ġfleet":7681,"ĠBrooks":7682,"ĠKennedy":7683,"Ġcategory":7684,"Ġfreedom":7685,"Ġoptimistic":7686,"ĠTelegraph":7687,"Ġarchitect":7688,"Maybe":7689,"Ġcosmetics":7690,"Ġmicrop":7691,"ĠHenry":7692,"ĠWebster":7693,"coupon":7694,"Richard":7695,"onzalez":7696,"ĠEngelken":7697,"DT":7698,"Don":7699,"Im":7700,"Non":7701,"Sim":7702,"Typ":7703,"UST":7704,"Wall":7705,"business":7706,"iere":7707,"key":7708,"vant":7709,"ycl":7710,"Ġid":7711,"Ġsouthern":7712,"anish":7713,"Ġcoin":7714,"athe":7715,"itation":7716,"Ġwal":7717,"aration":7718,"Ġfired":7719,"Ġpump":7720,"Ġmart":7721,"Ġmicro":7722,"ilos":7723,"Ġduties":7724,"Ġhor":7725,"Ġharm":7726,"Ġreinsurance":7727,"etna":7728,"etheless":7729,"ĠMul":7730,"ĠSqu":7731,"Ġonto":7732,"irl":7733,"irm":7734,"owa":7735,"oting":7736,"ĠAre":7737,"ĠBeth":7738,"agle":7739,"Ġshops":7740,"Ġexception":7741,"Ġride":7742,"Ġrational":7743,"that":7744,"ĠFannie":7745,"ĠFCC":7746,"ĠPress":7747,"Ġunders":7748,"Ġvulner":7749,"ĠJon":7750,"ĠGonzalez":7751,"ĠLew":7752,"ĠLockheed":7753,"ĠHoll":7754,"ĠRE":7755,"ĠRo":7756,"ĠRemic":7757,"ĠWis":7758,"ĠWill":7759,"abisco":7760,"oper":7761,"rich":7762,"ppen":7763,"Ġnoting":7764,"ria":7765,"ĠStat":7766,"Ġwheat":7767,"soft":7768,"ĠKa":7769,"ĠKr":7770,"liers":7771,"Ġaccident":7772,"Ġassass":7773,"ittees":7774,"Ġplane":7775,"Ġ64":7776,"Ġconcrete":7777,"Ġ102":7778,"Ġimposed":7779,"Ġfled":7780,"Ġ900":7781,"Ġgenetic":7782,"Ġlongtime":7783,"obe":7784,"Ġremark":7785,"Ġremember":7786,"Ġyouth":7787,"ternal":7788,"Ġbelong":7789,"ĠAnton":7790,"Ġdevelopments":7791,"ĠBoes":7792,"Ġemployers":7793,"Ġreceiving":7794,"Ġthinking":7795,"Ġgrants":7796,"there":7797,"Ġ130":7798,"Ġconsideration":7799,"perial":7800,"ĠArthur":7801,"Ġdistric":7802,"ĠAlbert":7803,"Ġsupporters":7804,"Ġlowest":7805,"Ġimported":7806,"Ġnationwide":7807,"Ġengaged":7808,"Ġprobe":7809,"Ġargues":7810,"ĠBlo":7811,"Ġ1972":7812,"ĠParliament":7813,"Ġbreakers":7814,"Ġpackages":7815,"ĠOrganization":7816,"Ġdifficulty":7817,"Ġassociate":7818,"Ġwinning":7819,"Ġpredicting":7820,"Ġprojected":7821,"Ġdistributed":7822,"Ġurging":7823,"Ġclasses":7824,"Ġunsuccess":7825,"Ġstatistics":7826,"Ġpermit":7827,"Ġrecommended":7828,"Ġentirely":7829,"Ġcomparison":7830,"Ġexceeded":7831,"Ġdispos":7832,"letter":7833,"ĠBanco":7834,"ĠItalian":7835,"Ġaggressively":7836,"Ġembarrass":7837,"Ġdangerous":7838,"Ġspirits":7839,"Ġrobust":7840,"Ġtentatively":7841,"Ġdegree":7842,"Ġprofessionals":7843,"ĠPictures":7844,"ĠSpielvogel":7845,"ĠZealand":7846,"AF":7847,"Besides":7848,"Che":7849,"Donald":7850,"LON":7851,"Sm":7852,"TE":7853,"gets":7854,"how":7855,"lusion":7856,"ports":7857,"price":7858,"sm":7859,"val":7860,"water":7861,"yard":7862,"Ġtact":7863,"inder":7864,"inct":7865,"invest":7866,"Ġble":7867,"Ġband":7868,"Ġbarely":7869,"itures":7870,"Ġwalk":7871,"Ġpenn":7872,"Ġdub":7873,"Ġhy":7874,"omura":7875,"ĠMaine":7876,"Ġstability":7877,"Ġstakes":7878,"igible":7879,"otton":7880,"osh":7881,"amin":7882,"aman":7883,"aming":7884,"Ġshall":7885,"Ġrub":7886,"ulous":7887,"ewel":7888,"Ġtrain":7889,"ĠFree":7890,"ĠNat":7891,"ĠNEC":7892,"ĠNabisco":7893,"ectual":7894,"ĠDo":7895,"ĠDun":7896,"anda":7897,"andy":7898,"andhi":7899,"ĠJim":7900,"ĠGren":7901,"ĠGov":7902,"ĠLex":7903,"ĠLeb":7904,"ĠLilly":7905,"ĠHam":7906,"ĠHahn":7907,"ĠHousing":7908,"uder":7909,"Ġsport":7910,"Ġincur":7911,"akeover":7912,"ackete":7913,"Ġnotice":7914,"Ġoutcome":7915,"Ġotherwise":7916,"aware":7917,"ĠKle":7918,"ĠKodak":7919,"lianz":7920,"ileo":7921,"ĠCohen":7922,"Ġperfect":7923,"plan":7924,"Ġassert":7925,"erto":7926,"Ġstruck":7927,"Ġgovernor":7928,"lining":7929,"encing":7930,"Ġattempts":7931,"Ġnobody":7932,"amped":7933,"Ġproved":7934,"Ġministry":7935,"appoint":7936,"ALL":7937,"Ġraises":7938,"ĠMarine":7939,"Ġcontractor":7940,"Ġfactories":7941,"Ġrevive":7942,"Ġmerge":7943,"Ġphilos":7944,"Ġdropping":7945,"ĠConstitution":7946,"Ġcompletely":7947,"Ġlots":7948,"ĠSpanish":7949,"Ġdisclosure":7950,"Ġsteelmakers":7951,"ĠMichigan":7952,"Ġtypical":7953,"ĠOrtega":7954,"Ġimprovements":7955,"Ġdiscussed":7956,"Ġdiscussing":7957,"Ġoccup":7958,"Ġsucceeding":7959,"ĠIsland":7960,"ambling":7961,"ĠProt":7962,"Ġtreaty":7963,"Ġtelling":7964,"Ġreaching":7965,"Ġdisappointed":7966,"Frank":7967,"Ġinstrument":7968,"Ġanswers":7969,"Ġcontroversy":7970,"Ġpenalties":7971,"Ġinsisted":7972,"Ġtiming":7973,"Ġsuddenly":7974,"Ġchoose":7975,"Ġessentially":7976,"heimer":7977,"Ġmainframes":7978,"Ġticket":7979,"Ġbureaucrat":7980,"Ġprinting":7981,"nolds":7982,"Ġtotally":7983,"Ġdisagree":7984,"Ġveteran":7985,"ĠOptions":7986,"Ġsubscribers":7987,"Ġdiscontinued":7988,"ĠDaiwa":7989,"Ġlength":7990,"Ġgyrations":7991,"Ġscheme":7992,"Ġdistricts":7993,"08":7994,"Bu":7995,"Foreign":7996,"Le":7997,"Out":7998,"Peter":7999,"Rudman":8000,"Tel":8001,"Time":8002,"fers":8003,"fred":8004,"hlet":8005,"half":8006,"kins":8007,"look":8008,"lah":8009,"no":8010,"pective":8011,"sub":8012,"with":8013,"wart":8014,"Ġtar":8015,"onent":8016,"Ġcry":8017,"Ġbreat":8018,"Ġwire":8019,"Ġwine":8020,"arp":8021,"Ġpork":8022,"Ġmor":8023,"Ġtoy":8024,"Ġtoll":8025,"iche":8026,"ician":8027,"Ġdraft":8028,"Ġlists":8029,"stone":8030,"ĠCIA":8031,"urther":8032,"ĠMesa":8033,"lymp":8034,"Ġstim":8035,"ĠSi":8036,"lehem":8037,"igel":8038,"terling":8039,"ĠAerospace":8040,"ĠBever":8041,"Ġcompound":8042,"Ġwhites":8043,"Ġrare":8044,"aks":8045,"ĠFair":8046,"ivan":8047,"ĠTiger":8048,"Ġuncon":8049,"Ġunions":8050,"Ġvo":8051,"Ġvan":8052,"ĠGiants":8053,"ĠGandhi":8054,"ĠLong":8055,"Ġchamp":8056,"ĠWood":8057,"abin":8058,"ĠEduc":8059,"ĠUt":8060,"istan":8061,"udi":8062,"Ġexpires":8063,"Ġresolution":8064,"Ġclub":8065,"Ġqualif":8066,"derick":8067,"ĠOld":8068,"Ġrecr":8069,"Ġrecall":8070,"izer":8071,"ĠKat":8072,"Ġoverhaul":8073,"overty":8074,"Ġstrip":8075,"Ġpresidential":8076,"Ġplanners":8077,"Ġ67":8078,"Ġ68":8079,"Ġscores":8080,"ogg":8081,"ogether":8082,"iana":8083,"Ġcurt":8084,"Ġdefensive":8085,"wealth":8086,"Ġtransport":8087,"Ġtranspl":8088,"Ġleads":8089,"Ġdepressed":8090,"Ġadvised":8091,"Ġknew":8092,"ĠBankruptcy":8093,"Ġhelps":8094,"rowth":8095,"Ġdemocrat":8096,"rette":8097,"Ġguide":8098,"Ġfrag":8099,"Ġobtained":8100,"Ġrestore":8101,"Ġcleared":8102,"Ġchecks":8103,"Unlike":8104,"Ġsupporting":8105,"Ġconfront":8106,"Ġcauses":8107,"Ġarticles":8108,"Ġproductivity":8109,"Ġslowed":8110,"Ġpotentially":8111,"Ġbarriers":8112,"Ġvolunt":8113,"Ġarguments":8114,"Within":8115,"Ġbroadcasting":8116,"Ġhappy":8117,"Ġassociates":8118,"Ġteams":8119,"Ġcharity":8120,"yllium":8121,"Ġurban":8122,"Ġparticipation":8123,"service":8124,"ĠConnaught":8125,"America":8126,"Ġtechnique":8127,"Ġseasonally":8128,"Ġdetailed":8129,"Ġunderwriter":8130,"Ġpermitted":8131,"Ġversions":8132,"olidated":8133,"ĠCampbell":8134,"Ġbusy":8135,"Ġpsyllium":8136,"ĠNortheast":8137,"Conc":8138,"Ġreferring":8139,"Ġbiotechnology":8140,"Ġaspects":8141,"Ġcomfortable":8142,"Ġdismissed":8143,"Canada":8144,"ĠWorkers":8145,"Ġbolster":8146,"Ġemphasis":8147,"Ġdisease":8148,"Ġowed":8149,"ynamics":8150,"Ġdestroy":8151,"Currently":8152,"ĠDirector":8153,"Ġyounger":8154,"ĠJenrette":8155,"lahoma":8156,"110":8157,"BANK":8158,"Com":8159,"EW":8160,"Em":8161,"bs":8162,"cur":8163,"colm":8164,"kes":8165,"mod":8166,"mail":8167,"made":8168,"pass":8169,"uent":8170,"Ġaver":8171,"heuser":8172,"Ġsong":8173,"Ġsouth":8174,"Ġsitting":8175,"Ġoust":8176,"Ġcovers":8177,"Ġbed":8178,"Ġbases":8179,"Ġbaby":8180,"itol":8181,"itely":8182,"Ġfol":8183,"Ġped":8184,"Ġmill":8185,"Ġtox":8186,"Ġtoug":8187,"Ġanaly":8188,"rocess":8189,"icing":8190,"Ġdin":8191,"idman":8192,"Ġlock":8193,"Ġlunch":8194,"style":8195,"ĠCour":8196,"ĠCra":8197,"ĠMag":8198,"early":8199,"ĠBow":8200,"Ġshake":8201,"Ġathlet":8202,"ulating":8203,"ieson":8204,"ĠTa":8205,"ums":8206,"ounced":8207,"ĠLand":8208,"ĠHy":8209,"ĠHuman":8210,"ĠHamm":8211,"Ġoffs":8212,"Ġcharter":8213,"ĠRowe":8214,"oster":8215,"ĠWay":8216,"ĠWCRS":8217,"ĠEg":8218,"aysia":8219,"ĠUr":8220,"ĠUph":8221,"eeb":8222,"ĠIntegrated":8223,"isters":8224,"udson":8225,"Ġpled":8226,"Ġplays":8227,"onda":8228,"iples":8229,"Ġresort":8230,"Ġreserv":8231,"portion":8232,"ĠOPEC":8233,"ĠOlymp":8234,"Ġpreced":8235,"Ġintr":8236,"ĠChief":8237,"Ġaccur":8238,"Ġ77":8239,"Ġanyway":8240,"erton":8241,"Ġinteresting":8242,"etti":8243,"Ġeconomics":8244,"Ġscene":8245,"Ġattached":8246,"ields":8247,"Ġfinanced":8248,"ilders":8249,"Ġ1995":8250,"industry":8251,"Ġtaxable":8252,"Ġsmooth":8253,"ĠCommon":8254,"ĠCommodity":8255,"ledge":8256,"Ġrealized":8257,"ksamer":8258,"Ġ2019":8259,"ullivan":8260,"Ġreductions":8261,"Ġforeigners":8262,"Ġgrant":8263,"Ġturnaround":8264,"Ġrevolution":8265,"Ġcheaper":8266,"Ġeverybody":8267,"ĠResolution":8268,"Ġknowledge":8269,"Ġmedic":8270,"Ġexplains":8271,"Ġexperiments":8272,"claim":8273,"ĠLeague":8274,"Ġrestructure":8275,"Ġrisky":8276,"Ġcapt":8277,"ĠBrands":8278,"Ġlisten":8279,"Ġ1973":8280,"Ġsentiment":8281,"ĠGermans":8282,"Ġgreatest":8283,"ĠEdison":8284,"Ġrebels":8285,"Ġcopies":8286,"ĠAttorney":8287,"Ġideas":8288,"ĠHarvard":8289,"Ġdeny":8290,"Ġseparately":8291,"ĠSuper":8292,"Ġfavorite":8293,"Ġfreight":8294,"Ġattracted":8295,"ĠIRA":8296,"Ġrequested":8297,"Ġsurveyed":8298,"ĠChristopher":8299,"Ġadmitted":8300,"Ġsegments":8301,"Ġeliminated":8302,"Ġmissing":8303,"Ġcleanup":8304,"Ġresidential":8305,"building":8306,"Ġpictures":8307,"Ġdominated":8308,"Ġpenalty":8309,"going":8310,"Ġsurvive":8311,"Ġsteadily":8312,"Ġhospitals":8313,"Ġstruggling":8314,"Ġsurprisingly":8315,"Ġassumed":8316,"Ġrespectively":8317,"Ġinvolvement":8318,"ĠReynolds":8319,"Ġodd":8320,"Ġpetroleum":8321,"Ġshrink":8322,"Ġpassenger":8323,"Ġteachers":8324,"Ġstretch":8325,"Ġinquiry":8326,"Ġdiplom":8327,"ĠGiulian":8328,"Ġnorthern":8329,"ĠNicholas":8330,"ĠPilson":8331,"Ġsanctions":8332,"ĠFerranti":8333,"processing":8334,"ĠGiuliani":8335,"130":8336,"Corporate":8337,"DON":8338,"Gold":8339,"IB":8340,"IF":8341,"London":8342,"Moody":8343,"Som":8344,"UA":8345,"aults":8346,"big":8347,"fire":8348,"kel":8349,"public":8350,"tical":8351,"wich":8352,"Ġtreas":8353,"Ġtells":8354,"Ġtiny":8355,"inced":8356,"onom":8357,"Ġtheater":8358,"anon":8359,"Ġcards":8360,"orous":8361,"Ġwages":8362,"Ġflying":8363,"Ġmal":8364,"Ġmyst":8365,"Ġmale":8366,"isys":8367,"ionally":8368,"ilae":8369,"aser":8370,"Ġhire":8371,"Ġhang":8372,"Ġlov":8373,"etics":8374,"Ġeld":8375,"elson":8376,"ĠMuseum":8377,"ĠMORT":8378,"ĠSpr":8379,"ĠSullivan":8380,"unte":8381,"iration":8382,"owing":8383,"ĠAetna":8384,"ĠBart":8385,"Ġshif":8386,"ulative":8387,"ĠFire":8388,"ĠFBI":8389,"ĠPAP":8390,"orest":8391,"ĠNot":8392,"ĠNigel":8393,"iful":8394,"ortium":8395,"ĠTe":8396,"ĠTur":8397,"ĠToyota":8398,"ĠDaily":8399,"ĠDatap":8400,"ĠGamble":8401,"ĠLes":8402,"ĠEv":8403,"Ġspect":8404,"Ġincident":8405,"Ġjewel":8406,"ipals":8407,"Ġclin":8408,"Ġclimate":8409,"Ġrecon":8410,"away":8411,"Ġapple":8412,"Ġapparel":8413,"Ġbuys":8414,"Ġweigh":8415,"Ġaccr":8416,"Ġcommodities":8417,"Ġ73":8418,"Ġstring":8419,"Ġseller":8420,"Ġsuburb":8421,"Ġretained":8422,"ĠViacom":8423,"Ġrepurchase":8424,"Ġbloc":8425,"Ġdebts":8426,"Ġspecifically":8427,"Ġbelief":8428,"Ġdepends":8429,"Ġserving":8430,"Ġreality":8431,"Ġequities":8432,"Ġfarmer":8433,"Ġreportedly":8434,"Ġguys":8435,"Ġentit":8436,"Ġentry":8437,"Ġcoast":8438,"Ġobst":8439,"Ġextensive":8440,"Ġmaintained":8441,"Ġstudying":8442,"Ġstepped":8443,"Ġ140":8444,"ĠMerieux":8445,"ennial":8446,"atories":8447,"ĠWars":8448,"ĠWhitt":8449,"Ġlegislators":8450,"Ġdeliber":8451,"Ġgotten":8452,"Ġengines":8453,"chequer":8454,"roller":8455,"Ġgreatly":8456,"ĠSeidman":8457,"Ġadjustable":8458,"Shearson":8459,"ĠSaab":8460,"Ġimproving":8461,"Ġexcluding":8462,"ĠFunding":8463,"Ġrestricted":8464,"Ġrequests":8465,"Ġhomeless":8466,"Ġjudicial":8467,"Ġoutlets":8468,"ĠMonieson":8469,"ĠEnterprises":8470,"Ġmodestly":8471,"onna":8472,"Ġinventory":8473,"Ġinjunction":8474,"Ġrumored":8475,"Ġperformed":8476,"develop":8477,"Ġelectrical":8478,"Ġrefinery":8479,"RIME":8480,"Ġwithdrawal":8481,"Ġsymbol":8482,"Ġdepartments":8483,"Ġintegrated":8484,"Ġconcentrate":8485,"utsche":8486,"Ġresolved":8487,"Ġcoalition":8488,"ĠCapitol":8489,"ĠRATE":8490,"Ġtools":8491,"Ġdiscipline":8492,"ertsilae":8493,"ĠRoyal":8494,"cription":8495,"Ġinnov":8496,"Neither":8497,"Estimated":8498,"Ġrallied":8499,"ĠCNN":8500,"Charles":8501,"Ġhazard":8502,"ĠContainers":8503,"GAGE":8504,"October":8505,"Ġcontrolling":8506,"Ġsurrounding":8507,"olutely":8508,"ĠDiego":8509,"Ġvulnerable":8510,"ĠLewis":8511,"LONDON":8512,"ĠGrenfell":8513,"Ġphilosoph":8514,"ĠMORTGAGE":8515,"AD":8516,"Business":8517,"Eu":8518,"Econom":8519,"Next":8520,"Nissan":8521,"San":8522,"Sov":8523,"UNT":8524,"cter":8525,"cost":8526,"eu":8527,"fre":8528,"luster":8529,"mosp":8530,"nival":8531,"uition":8532,"uable":8533,"whel":8534,"zz":8535,"hester":8536,"Ġsending":8537,"oriented":8538,"Ġboss":8539,"Ġwalls":8540,"Ġfro":8541,"Ġpays":8542,"Ġpoverty":8543,"alog":8544,"alph":8545,"Ġmission":8546,"isory":8547,"icon":8548,"Ġdurable":8549,"Ġlies":8550,"Ġlire":8551,"Ġlands":8552,"eters":8553,"ece":8554,"utions":8555,"Ġnurs":8556,"ĠCable":8557,"ĠCoca":8558,"Ġforg":8559,"Ġfort":8560,"ĠMatt":8561,"Ġstadium":8562,"ĠSout":8563,"under":8564,"Ġprote":8565,"imm":8566,"otron":8567,"mento":8568,"Ġcongl":8569,"ĠAust":8570,"ĠAff":8571,"Ġhefty":8572,"Ġatmosp":8573,"Intel":8574,"Ġrain":8575,"ulu":8576,"ĠNomura":8577,"Ġdefer":8578,"essee":8579,"essional":8580,"ĠTR":8581,"ĠJose":8582,"ĠLy":8583,"ĠRet":8584,"ĠWalt":8585,"ĠEDT":8586,"istant":8587,"ichi":8588,"Ġagend":8589,"Ġclot":8590,"riend":8591,"acters":8592,"iegel":8593,"ĠIowa":8594,"ova":8595,"Ġkron":8596,"avor":8597,"Ġmanip":8598,"Ġconsent":8599,"Ġcommittees":8600,"assy":8601,"Ġambit":8602,"adequ":8603,"Ġeconomies":8604,"Ġimplement":8605,"Ġfinancier":8606,"inkerton":8607,"Ġflaw":8608,"Ġinsider":8609,"Ġtheme":8610,"Ġspecified":8611,"Ġbrother":8612,"Ġdivest":8613,"Ġbright":8614,"Ġfeared":8615,"Ġnewsletter":8616,"vertising":8617,"ĠTravel":8618,"Ġlegit":8619,"Ġdeleg":8620,"Ġobs":8621,"Ġuseful":8622,"Ġfalls":8623,"Ġboards":8624,"ĠMerksamer":8625,"Ġhardware":8626,"Ġindications":8627,"Ġswit":8628,"Ġfailing":8629,"spons":8630,"Ġweakening":8631,"Ġstrategist":8632,"Ġexplan":8633,"Ġfindings":8634,"Ġfounded":8635,"Ġmilk":8636,"ĠSpec":8637,"ĠSports":8638,"coh":8639,"Ġquotations":8640,"Ġhappening":8641,"Ġbreaking":8642,"ĠContras":8643,"ĠSciences":8644,"ĠMaynard":8645,"Ġdevast":8646,"mediate":8647,"Ġthreatening":8648,"ĠConnecticut":8649,"Ġaudit":8650,"Ġdiscounting":8651,"Share":8652,"Ġseriously":8653,"omingdale":8654,"Ġnecessarily":8655,"Trans":8656,"Ġscrut":8657,"ĠAnderson":8658,"ceptions":8659,"Ġexcessive":8660,"Ġintellectual":8661,"Ġballoon":8662,"ohl":8663,"Ġfueled":8664,"ĠMidwest":8665,"Ġprotests":8666,"ĠPosted":8667,"Ġdanger":8668,"Ġessential":8669,"Ġconceded":8670,"Ġassuming":8671,"Ġneighborhood":8672,"ĠHoward":8673,"ĠAlexander":8674,"ĠFujitsu":8675,"ĠRATES":8676,"MERCIAL":8677,"Ġeggs":8678,"cutting":8679,"Ġhonor":8680,"ĠMarcos":8681,"Ġflexibility":8682,"Ġconspir":8683,"epsi":8684,"Ġacademic":8685,"Ġstreets":8686,"ĠGalileo":8687,"Ġsubsequent":8688,"Ġbikes":8689,"Ġfabric":8690,"COMMERCIAL":8691,"Ġmicroprocess":8692,"ĠHamilton":8693,"acketeering":8694,"ĠUrban":8695,"ĠUpham":8696,"ĠPAPER":8697,"Ġconglom":8698,"Columbia":8699,"Good":8700,"Sun":8701,"aus":8702,"can":8703,"call":8704,"corp":8705,"dis":8706,"home":8707,"rative":8708,"sector":8709,"zone":8710,"Ġice":8711,"Ġtank":8712,"Ġawa":8713,"rell":8714,"reced":8715,"Ġshed":8716,"Ġcycl":8717,"aton":8718,"Ġbuck":8719,"itro":8720,"arity":8721,"Ġfed":8722,"Ġanger":8723,"rook":8724,"ictions":8725,"Ġdie":8726,"omas":8727,"Ġlos":8728,"Ġlung":8729,"etwork":8730,"ela":8731,"ĠCode":8732,"olph":8733,"acra":8734,"ĠMa":8735,"ĠMik":8736,"ersh":8737,"Ġstorm":8738,"ĠSons":8739,"ĠSacra":8740,"owb":8741,"Ġsam":8742,"Ġconstit":8743,"ĠAB":8744,"Ġshock":8745,"ups":8746,"Ġtrail":8747,"ĠFort":8748,"ĠDE":8749,"andem":8750,"ellogg":8751,"ĠLines":8752,"ĠHun":8753,"ĠWPP":8754,"see":8755,"abs":8756,"ĠEST":8757,"arded":8758,"Ġexpiration":8759,"Ġlease":8760,"Ġcontent":8761,"Ġjol":8762,"Ġnotion":8763,"ĠOm":8764,"Ġreck":8765,"Ġouts":8766,"ignal":8767,"Ġintention":8768,"ĠKansas":8769,"Ġproduces":8770,"Ġkids":8771,"aval":8772,"Ġoverwhel":8773,"Ġpartial":8774,"Ġaccomm":8775,"Ġaccompl":8776,"Ġbusinessmen":8777,"issance":8778,"Ġattended":8779,"Ġ103":8780,"Ġofficially":8781,"ĠVice":8782,"Ġhighs":8783,"Ġtherefore":8784,"Ġworries":8785,"inding":8786,"Ġsmoking":8787,"ictor":8788,"Ġrelie":8789,"Ġpublication":8790,"Ġindexes":8791,"Ġguess":8792,"Ġemployer":8793,"ceeds":8794,"Ġcompetitor":8795,"Ġperiods":8796,"Ġfamous":8797,"egoti":8798,"Ġsetback":8799,"Ġportray":8800,"Ġrefuge":8801,"Ġcollect":8802,"Ġsweeping":8803,"Ġprivile":8804,"ĠGeneva":8805,"Ġlocated":8806,"Ġmetropolitan":8807,"ĠWhit":8808,"Ġsuggesting":8809,"Ġquotas":8810,"ĠInvestments":8811,"Ġconvinced":8812,"ĠClark":8813,"ĠClub":8814,"ĠScot":8815,"Ġadjustments":8816,"Ġprepare":8817,"Ġpreparing":8818,"ĠDelmed":8819,"ĠGolden":8820,"Ġapproached":8821,"ANC":8822,"Ġviolation":8823,"Ġviolated":8824,"Ġkinds":8825,"Others":8826,"ĠSaf":8827,"Ġstructures":8828,"ropriations":8829,"Ġlackluster":8830,"Ġpicked":8831,"486":8832,"Ġtraditionally":8833,"ĠGuard":8834,"onnell":8835,"ĠGlass":8836,"Ġadmits":8837,"ĠPlan":8838,"ranston":8839,"Ġgrounds":8840,"ĠMachin":8841,"Ġelectricity":8842,"Ġappointment":8843,"Ġrecognized":8844,"Ġrelationships":8845,"Ġreplacement":8846,"Ġdiversified":8847,"Ġsignaled":8848,"Spec":8849,"Ġcasino":8850,"McC":8851,"oneywell":8852,"Ġdeduct":8853,"Ġconsistently":8854,"load":8855,"Merrill":8856,"Ġdumped":8857,"respond":8858,"Ġdiluted":8859,"Ġdoctor":8860,"Ġdoctors":8861,"Ġrescue":8862,"Ġmurder":8863,"ĠRoger":8864,"fortunately":8865,"ĠWaertsilae":8866,"Ġindictment":8867,"ĠKlein":8868,"ĠBeverly":8869,"Ġdemocratic":8870,"Ġambitious":8871,"Ġconglomerate":8872,"recedented":8873,"ĠSacramento":8874,"Ġaccommod":8875,"EN":8876,"IR":8877,"Look":8878,"MP":8879,"Mar":8880,"Total":8881,"aver":8882,"book":8883,"een":8884,"oz":8885,"sec":8886,"system":8887,"Ġtail":8888,"Ġaides":8889,"era":8890,"oning":8891,"Ġsun":8892,"Ġsectors":8893,"Ġsizable":8894,"Ġcub":8895,"ato":8896,"Ġbrib":8897,"Ġfan":8898,"Ġfault":8899,"Ġpour":8900,"Ġpath":8901,"Ġpitch":8902,"ils":8903,"Ġhamp":8904,"Ġhiring":8905,"Ġlib":8906,"Ġeat":8907,"utter":8908,"aylor":8909,"ĠCand":8910,"ĠCBO":8911,"Ġforcing":8912,"olen":8913,"Ġge":8914,"Ġgiants":8915,"lebor":8916,"estin":8917,"irable":8918,"Ġprominent":8919,"oted":8920,"otus":8921,"earing":8922,"ĠAz":8923,"ĠBas":8924,"ĠBoren":8925,"Ġasks":8926,"Ġcompliance":8927,"Ġwhatever":8928,"Ġrarely":8929,"uls":8930,"Ġtracks":8931,"Ġtruth":8932,"ĠFA":8933,"ĠFox":8934,"ĠPers":8935,"ĠPack":8936,"ĠPinkerton":8937,"ĠNext":8938,"ĠNev":8939,"ivate":8940,"ivetti":8941,"ĠDes":8942,"ĠDorr":8943,"ĠDynamics":8944,"Ġvir":8945,"elligence":8946,"ĠGe":8947,"ĠLine":8948,"ĠLittle":8949,"ĠWith":8950,"ĠWells":8951,"Ġacres":8952,"ricultural":8953,"Ġagrees":8954,"ouri":8955,"Ġreset":8956,"Ġupper":8957,"Ġupset":8958,"ĠINC":8959,"Ġrecyc":8960,"ĠKemper":8961,"Ġinterven":8962,"Ġsomebody":8963,"Ġkilling":8964,"Ġmaneu":8965,"Ġsoy":8966,"ultane":8967,"Ġ71":8968,"Ġ79":8969,"Ġanybody":8970,"issipp":8971,"Ġ600":8972,"raid":8973,"Ġdriven":8974,"flation":8975,"ĠExchequer":8976,"Ġflood":8977,"Ġemp":8978,"Ġadverse":8979,"Ġairport":8980,"Ġcomplaint":8981,"Ġreceipts":8982,"Ġgraphics":8983,"Ġextension":8984,"Ġterrit":8985,"embers":8986,"Ġconsiderably":8987,"Ġopponents":8988,"State":8989,"Ġmerged":8990,"Ġfacts":8991,"Ġmaturing":8992,"Ġnegl":8993,"ĠMcK":8994,"ĠDepos":8995,"Ġliabilities":8996,"ussels":8997,"Ġprotected":8998,"spect":8999,"rellebor":9000,"Ġclearing":9001,"Ġexplained":9002,"Ġrepresentative":9003,"Ġvolunte":9004,"Ġsolution":9005,"ĠBrussels":9006,"ĠParamount":9007,"Ġcarefully":9008,"Ġcombat":9009,"ĠDelaware":9010,"Ġrent":9011,"Ġsuppliers":9012,"drink":9013,"Ġcharacters":9014,"Ġcalm":9015,"Ġseasonal":9016,"Ġcorrespond":9017,"Ġdefendant":9018,"Ġtargeted":9019,"Ġapartment":9020,"Ġrespondents":9021,"ĠAppropriations":9022,"ĠMoney":9023,"Ġplea":9024,"Ġpleaded":9025,"Ġfeaturing":9026,"Ġdrawn":9027,"Ġmissile":9028,"Ġinjuries":9029,"Ġpersist":9030,"ĠMexican":9031,"Ġounces":9032,"Ġfunction":9033,"ĠPeru":9034,"Ġharvest":9035,"Ġfundamentals":9036,"Ġignored":9037,"ĠAutom":9038,"Ġtransferred":9039,"Ġstruggle":9040,"Britain":9041,"ĠMalcolm":9042,"ĠMalaysia":9043,"Ġdowntown":9044,"Ġconcedes":9045,"ĠSamuel":9046,"ĠRussian":9047,"Ġshelf":9048,"Ġodds":9049,"Ġpetrochemical":9050,"ĠIrish":9051,"Ġscenario":9052,"ocoa":9053,"Ġadvocates":9054,"Ġepis":9055,"Ġpersuade":9056,"ĠPhilippines":9057,"Ġobligations":9058,"ĠElectronics":9059,"ĠMichel":9060,"Ġskeptical":9061,"Ġordinary":9062,"ĠHawai":9063,"Ġfalse":9064,"Ġbacklog":9065,"ĠColorado":9066,"Ġimplications":9067,"Small":9068,"Soviet":9069,"ĠDorrance":9070,"relleborg":9071,".:":9072,"225":9073,"Calif":9074,"HO":9075,"Med":9076,"Pre":9077,"Put":9078,"Tokyo":9079,"bread":9080,"cle":9081,"cry":9082,"ctions":9083,"court":9084,"dam":9085,"distance":9086,"good":9087,"hl":9088,"hic":9089,"hail":9090,"ien":9091,"math":9092,"ruct":9093,"together":9094,"uerto":9095,"was":9096,"would":9097,"xa":9098,"zman":9099,"Ġing":9100,"inas":9101,"errill":9102,"enith":9103,"iter":9104,"Ġmood":9105,"Ġinduc":9106,"isa":9107,"oud":9108,"Ġham":9109,"Ġhurricane":9110,"Ġreacted":9111,"stream":9112,"elect":9113,"Ġnice":9114,"ĠCab":9115,"Ġforfe":9116,"ĠMem":9117,"ĠMCI":9118,"lyn":9119,"Ġstance":9120,"Ġstrict":9121,"ĠSo":9122,"unning":9123,"ests":9124,"ĠBates":9125,"agger":9126,"cean":9127,"Ġhero":9128,"Ġracketeering":9129,"aked":9130,"Ġaluminum":9131,"ĠFound":9132,"ĠFoot":9133,"ĠFreddie":9134,"ĠPuerto":9135,"aping":9136,"ĠTer":9137,"ĠTechnologies":9138,"ĠTaylor":9139,"Ġunivers":9140,"ĠDennis":9141,"ĠJud":9142,"ĠGall":9143,"ĠGary":9144,"ĠLead":9145,"ĠLane":9146,"ĠLTV":9147,"Ġchair":9148,"Ġchosen":9149,"ĠRI":9150,"ĠRos":9151,"ĠRam":9152,"ĠRally":9153,"astic":9154,"ĠWater":9155,"abortion":9156,"iston":9157,"udes":9158,"Ġspill":9159,"pper":9160,"Ġ2000":9161,"Ġexpress":9162,"Ġleasing":9163,"Ġleague":9164,"Ġcontained":9165,"ancies":9166,"Ġcler":9167,"ightened":9168,"ĠOper":9169,"ĠChurch":9170,"Ġconsortium":9171,"Ġ81":9172,"Ġenable":9173,"Ġaftermath":9174,"Ġsecure":9175,"Ġneut":9176,"ensions":9177,"Ġbondholders":9178,"ogen":9179,"Ġconcessions":9180,"Ġimpose":9181,"Ġimprop":9182,"Ġregistr":9183,"Ġdiscrep":9184,"strong":9185,"Ġgenerated":9186,"Ġbackground":9187,"Ġcrimes":9188,"Ġjustify":9189,"Ġdepending":9190,"appy":9191,"Ġvaluable":9192,"ĠThird":9193,"omputer":9194,"Ġfilms":9195,"Ġcomplicated":9196,"insky":9197,"gery":9198,"Ġpolitically":9199,"ĠArm":9200,"United":9201,"ethylene":9202,"Ġconfusion":9203,"Ġedge":9204,"Ġedged":9205,"athan":9206,"Ġclaiming":9207,"Ġinstitute":9208,"Ġartist":9209,"Ġslowly":9210,"Ġbreach":9211,"Ġfinds":9212,"Ġlegislature":9213,"Ġtroops":9214,"Ġformally":9215,"ĠLeon":9216,"Ġnegotiate":9217,"Ġpredicts":9218,"Ġbenefited":9219,"Ġsole":9220,"Ġarguing":9221,"ĠBlock":9222,"Ġski":9223,"ĠNorthwest":9224,"ĠColo":9225,"ĠMayor":9226,"Ġintroduction":9227,"ĠWedtech":9228,"Ġconverted":9229,"Ġvisitors":9230,"Ġemerging":9231,"Ġcharities":9232,"Ġresponsibilities":9233,"Ġilleg":9234,"Industry":9235,"ĠPartnership":9236,"Ġfocusing":9237,"ĠCommercial":9238,"Proceeds":9239,"Ġautomobile":9240,"Ġinterviewed":9241,"Ġerr":9242,"Ġpolls":9243,"COUNT":9244,"Ġinfring":9245,"Ġencouraging":9246,"Investment":9247,"Ġinvestigating":9248,"ĠSociety":9249,"Ġadopt":9250,"Ġbushel":9251,"Ġmomentum":9252,"Ġthousand":9253,"Ġaffiliates":9254,"Ġsymp":9255,"Ġscreens":9256,"ĠMississipp":9257,"Ġbearish":9258,"Ġunprecedented":9259,"Ġrecommendations":9260,"Ġrailroad":9261,"Ġmonitoring":9262,"Ġcrowd":9263,"Ġenhance":9264,"Ġtremend":9265,"Ġcigarettes":9266,"Ġunveiled":9267,"iques":9268,"Ġconsequences":9269,"ĠShowtime":9270,"Ġentrepreneur":9271,"Ġlobbying":9272,"Ġbudgets":9273,"ĠOklahoma":9274,"Ġpolyethylene":9275,"Ġangry":9276,"Ġjudgment":9277,"Ġexpenditures":9278,"Similar":9279,"Ġundersc":9280,"ĠBloomingdale":9281,"investment":9282,"ĠLebanon":9283,"ĠEducation":9284,"Ġtougher":9285,"ĠCourter":9286,"Ġoffsetting":9287,"keley":9288,"ĠBartlett":9289,"developed":9290,"ĠMikhail":9291,"ĠCBOE":9292,"ĠPackwood":9293,"Bat":9294,"Bush":9295,"Col":9296,"De":9297,"Hill":9298,"Oper":9299,"Well":9300,"bors":9301,"burn":9302,"drew":9303,"fold":9304,"feld":9305,"high":9306,"hua":9307,"lan":9308,"lim":9309,"tor":9310,"ties":9311,"yu":9312,"Ġiron":9313,"heid":9314,"erial":9315,"Ġsick":9316,"Ġcattle":9317,"Ġcotton":9318,"Ġcocoa":9319,"atra":9320,"Ġbow":9321,"itage":9322,"ari":9323,"aron":9324,"Ġfare":9325,"Ġpin":9326,"Ġpowers":9327,"Ġineff":9328,"Ġtower":9329,"Ġanim":9330,"Ġanimal":9331,"Ġdrought":9332,"Ġhorse":9333,"idav":9334,"idges":9335,"Ġluc":9336,"Ġlie":9337,"Ġrely":9338,"street":9339,"eton":9340,"eli":9341,"eland":9342,"ĠCur":9343,"ĠCranston":9344,"urring":9345,"oliday":9346,"Ġgar":9347,"Ġgirl":9348,"ĠSom":9349,"lege":9350,"Ġisol":9351,"Ġbeef":9352,"ĠAsh":9353,"ĠBa":9354,"ĠBall":9355,"ceived":9356,"Ġshipped":9357,"thony":9358,"ĠField":9359,"ĠPfe":9360,"ĠPierce":9361,"choice":9362,"ĠNetwork":9363,"ĠTos":9364,"umer":9365,"Ġhair":9366,"ĠGard":9367,"ĠLor":9368,"ĠLeg":9369,"ĠHo":9370,"ĠHospital":9371,"ĠRou":9372,"ĠRights":9373,"ĠRonald":9374,"ĠRoh":9375,"ĠWeek":9376,"Ġabuse":9377,"ĠUp":9378,"ĠInformation":9379,"istol":9380,"Ġmonopol":9381,"Ġbuoy":9382,"ĠKh":9383,"Ġroutes":9384,"Ġsalary":9385,"ĠNewport":9386,"Ġmanner":9387,"Ġdog":9388,"graded":9389,"Ġenact":9390,"Ġ74":9391,"Ġoperated":9392,"Ġworkst":9393,"Ġpra":9394,"Ġexecuted":9395,"Ġattr":9396,"Ġfunded":9397,"Ġproperly":9398,"Ġdiscounts":9399,"Ġfluct":9400,"Ġeligible":9401,"ifications":9402,"obody":9403,"Ġcrunch":9404,"Ġembr":9405,"Ġtransform":9406,"Ġrelax":9407,"Ġminim":9408,"Ġminute":9409,"Ġministers":9410,"Ġsignals":9411,"iete":9412,"ĠMarina":9413,"prise":9414,"ĠSenator":9415,"Ġstudios":9416,"Ġreverse":9417,"tilities":9418,"Ġsimultane":9419,"Ġaffidav":9420,"Ġtalked":9421,"Ġwarm":9422,"Ġshortage":9423,"ĠAsset":9424,"Ġrises":9425,"Ġlows":9426,"Ġinstalled":9427,"Ġrefuse":9428,"Ġparliament":9429,"Ġtestify":9430,"Ġmedi":9431,"Ġinvolves":9432,"Ġweaken":9433,"Ġweakened":9434,"Ġbrewing":9435,"Ġinformed":9436,"Ġmeasured":9437,"Ġmidst":9438,"ĠBlue":9439,"Ġquota":9440,"ĠZur":9441,"Ġboosting":9442,"Ġbreaks":9443,"Ġalleges":9444,"Ġconviction":9445,"ĠSeag":9446,"Ġdiscussion":9447,"ĠPolish":9448,"Ġadjustment":9449,"ippon":9450,"Ġemerged":9451,"driven":9452,"Ġstaffers":9453,"Ġdistributor":9454,"Ġclassic":9455,"ĠAgriculture":9456,"Ġera":9457,"ĠPanaman":9458,"Ġprospective":9459,"Exc":9460,"Ġbanned":9461,"Ġprosecutor":9462,"ĠAndrew":9463,"Ġinjured":9464,"ĠBradstreet":9465,"Ġpartnerships":9466,"Ġrefinancing":9467,"ographic":9468,"Ġdominant":9469,"Ġultimate":9470,"ĠMilan":9471,"ĠJackson":9472,"ĠEquity":9473,"Ġwindow":9474,"Ġconsistent":9475,"ĠMissouri":9476,"Ġconsolidated":9477,"Ġderiv":9478,"ĠKenneth":9479,"Ġloyal":9480,"parts":9481,"Ġconversion":9482,"Ġegg":9483,"Ġmentioned":9484,"izza":9485,"ĠTennessee":9486,"Ġsparked":9487,"Ġconcentrated":9488,"Ġrepeatedly":9489,"ĠImperial":9490,"enaissance":9491,"Ġemotional":9492,"ĠOlivetti":9493,"Ġdecrease":9494,"Ġracial":9495,"ĠAkzo":9496,"ĠIMF":9497,"ĠKentucky":9498,"Ġplaintiffs":9499,"Ġarranged":9500,"ĠArea":9501,"ppenheimer":9502,"Ġincurred":9503,"ĠProtection":9504,"substant":9505,"ĠEvans":9506,"ĠWarsaw":9507,"Europ":9508,"ĠAffairs":9509,"Ġconspiracy":9510,"Ġcubic":9511,"ĠRICO":9512,"ĠMississippi":9513,"ĠPfeiffer":9514,"170":9515,"450":9516,"AM":9517,"AX":9518,"Air":9519,"ABC":9520,"CBS":9521,"Digital":9522,"DTV":9523,"Ed":9524,"Four":9525,"Further":9526,"Gu":9527,"Mortgage":9528,"ND":9529,"Qintex":9530,"SO":9531,"Us":9532,"bre":9533,"bus":9534,"cel":9535,"collar":9536,"dling":9537,"ement":9538,"goods":9539,"hy":9540,"millan":9541,"people":9542,"penter":9543,"ws":9544,"ĠThey":9545,"Ġaveraged":9546,"rev":9547,"Ġsad":9548,"Ġcamer":9549,"Ġcabin":9550,"aters":9551,"Ġborn":9552,"Ġbound":9553,"Ġbread":9554,"Ġbreed":9555,"Ġborder":9556,"Ġwis":9557,"Ġwors":9558,"Ġfix":9559,"Ġpig":9560,"Ġpess":9561,"Ġpock":9562,"Ġmas":9563,"Ġmort":9564,"Ġinev":9565,"Ġinadequ":9566,"isons":9567,"rog":9568,"Ġdark":9569,"Ġdrew":9570,"idity":9571,"Ġlanding":9572,"eta":9573,"elman":9574,"uting":9575,"ĠCas":9576,"adian":9577,"adjust":9578,"ĠMd":9579,"ĠMarg":9580,"Ġstuck":9581,"ĠSil":9582,"leg":9583,"Ġcomedy":9584,"ima":9585,"osuez":9586,"Ġconstr":9587,"Ġconstruct":9588,"ĠAxa":9589,"ĠBog":9590,"ĠBrew":9591,"Ġshad":9592,"ochester":9593,"Ġrural":9594,"Ġwithdrew":9595,"upp":9596,"ĠFem":9597,"ĠFeb":9598,"ĠPC":9599,"ĠPepsi":9600,"chi":9601,"cht":9602,"chor":9603,"ĠTed":9604,"ĠTrelleborg":9605,"Ġunh":9606,"Ġvig":9607,"ĠJo":9608,"ounce":9609,"ĠLimited":9610,"ĠHO":9611,"ĠRod":9612,"astro":9613,"Ġ1969":9614,"odes":9615,"Ġincest":9616,"ghan":9617,"Ġresur":9618,"exempt":9619,"Ġclar":9620,"oked":9621,"Ġquit":9622,"rik":9623,"itions":9624,"itional":9625,"ouses":9626,"Ġdisrup":9627,"Ġdisasters":9628,"Ġintend":9629,"reek":9630,"ĠKn":9631,"ĠChannel":9632,"Ġloose":9633,"Through":9634,"Ġcommand":9635,"Ġcommunities":9636,"Ġ700":9637,"enson":9638,"anger":9639,"Ġowning":9640,"Ġexecution":9641,"Ġends":9642,"Ġendors":9643,"Ġconclusion":9644,"ĠVictor":9645,"Ġpayroll":9646,"Ġreporter":9647,"Ġdebut":9648,"Ġ1997":9649,"Ġefficiency":9650,"minute":9651,"Ġdesper":9652,"Ġmines":9653,"Ġadvances":9654,"ĠAng":9655,"Ġfeels":9656,"rett":9657,"Ġguerrill":9658,"Ġgrip":9659,"Ġposting":9660,"enefit":9661,"Ġnearby":9662,"azz":9663,"Ġstudied":9664,"Ġcreditor":9665,"Ġsixth":9666,"Already":9667,"ĠAllied":9668,"ĠAlaska":9669,"ĠTreasurys":9670,"unication":9671,"Ġcreation":9672,"Ġindicator":9673,"Ġswift":9674,"Ġprivat":9675,"Ġfailures":9676,"ĠPharmaceutical":9677,"Ġcompletion":9678,"ERT":9679,"Ġclearance":9680,"Ġamounted":9681,"Ġformula":9682,"Ġsuitor":9683,"Ġbarred":9684,"Ġcovert":9685,"Ġquotes":9686,"Ġskills":9687,"Ġcontribute":9688,"Ġcontribution":9689,"ATE":9690,"Ġ1971":9691,"Ġ1976":9692,"Ġsentenced":9693,"Ġpublish":9694,"ĠBarry":9695,"nesota":9696,"ĠColgate":9697,"China":9698,"Ġsuspect":9699,"ĠAmex":9700,"Ġarbitragers":9701,"Ġideal":9702,"Ġvisible":9703,"Ġvisited":9704,"Ġtendered":9705,"Ġdenies":9706,"ĠWilliams":9707,"Ġdoubts":9708,"Ġparticipating":9709,"Program":9710,"Ġpicking":9711,"ĠFranklin":9712,"ĠJustin":9713,"Ġpermits":9714,"Ġstayed":9715,"Ġpursuing":9716,"Ġliter":9717,"Ġmultiple":9718,"ĠEngine":9719,"ĠLaure":9720,"Ġcease":9721,"ĠSociete":9722,"Ġnarrowed":9723,"Ġunusually":9724,"Ġsounds":9725,"Ġrecognize":9726,"ĠMontreal":9727,"Ġlicens":9728,"Ġapplication":9729,"Ġpainting":9730,"ĠGarc":9731,"Ġexamination":9732,"Ġbaskets":9733,"Consider":9734,"Ġtourists":9735,"Ġstemming":9736,"Ġmatching":9737,"Elsewhere":9738,"Ġfranchisees":9739,"Ġremoved":9740,"Ġbonuses":9741,"author":9742,"Ġspinoff":9743,"ĠRobertson":9744,"ĠBelg":9745,"ĠVermont":9746,"Ġfloating":9747,"ĠSandinist":9748,"ĠJewish":9749,"Ġarrested":9750,"ĠMoore":9751,"ĠHispan":9752,"Ġsurface":9753,"Ġcalculations":9754,"uisse":9755,"Ġterrorism":9756,"Ġadequate":9757,"Ġfemale":9758,"Ġunnecess":9759,"enthal":9760,"ĠIntelligence":9761,"ĠUtah":9762,"Ġelderly":9763,"ĠSoutheast":9764,"Ġclothes":9765,"Ġexplanation":9766,"Ġconstitu":9767,"Operating":9768,"Ġlucrative":9769,"ĠPanamanian":9770,"Ġpessim":9771,"!\"":9772,"240":9773,"Act":9774,"Back":9775,"Communications":9776,"EY":9777,"FOR":9778,"IP":9779,"Later":9780,"Nearly":9781,"Peters":9782,"Ret":9783,"SC":9784,"SP":9785,"Up":9786,"Vest":9787,"Whe":9788,"aith":9789,"cas":9790,"ek":9791,"fus":9792,"fraid":9793,"ho":9794,"hors":9795,"new":9796,"oom":9797,"oitt":9798,"ye":9799,"zens":9800,"Ġ.\"":9801,"Ġafraid":9802,"iner":9803,"recht":9804,"Ġsed":9805,"Ġsac":9806,"Ġozone":9807,"Ġcum":9808,"Ġcounts":9809,"atures":9810,"orrect":9811,"Ġbacter":9812,"Ġfel":9813,"Ġfert":9814,"Ġfores":9815,"Ġmere":9816,"Ġmuseum":9817,"isan":9818,"icam":9819,"Ġdual":9820,"Ġdress":9821,"Ġdamp":9822,"Ġhin":9823,"Ġlap":9824,"Ġlived":9825,"star":9826,"still":9827,"sters":9828,"stig":9829,"story":9830,"Ġelement":9831,"Ġnorth":9832,"ĠCard":9833,"ĠCie":9834,"ĠCarter":9835,"ĠMir":9836,"ĠMah":9837,"Ġstressed":9838,"ĠSus":9839,"ĠSum":9840,"ĠSem":9841,"unes":9842,"unists":9843,"leading":9844,"ĠBud":9845,"Ġcompiled":9846,"Ġexempt":9847,"ocation":9848,"Ġranks":9849,"ulent":9850,"Ġtries":9851,"ĠFres":9852,"ĠFitz":9853,"ĠFiat":9854,"ĠFargo":9855,"ĠPlant":9856,"ĠNether":9857,"orton":9858,"ĠTro":9859,"ĠHast":9860,"Ġchose":9861,"Ġchamber":9862,"ĠRico":9863,"sey":9864,"ĠUtilities":9865,"opular":9866,"odore":9867,"ubb":9868,"Ġagricultural":9869,"Ġlean":9870,"Ġcontains":9871,"Ġstockholders":9872,"Ġclothing":9873,"Ġindirect":9874,"rible":9875,"ignificant":9876,"Ġprestig":9877,"ĠKar":9878,"Ġimbal":9879,"avis":9880,"Ġovercome":9881,"Ġdozens":9882,"Ġperception":9883,"ishment":9884,"ropert":9885,"Ġbusinessman":9886,"Ġoperational":9887,"Ġuser":9888,"Ġundert":9889,"Ġplanner":9890,"iano":9891,"Ġattacks":9892,"Ġboil":9893,"icking":9894,"Ġearning":9895,"flot":9896,"Ġdiscrimination":9897,"Ġblank":9898,"ĠExecutive":9899,"ounded":9900,"Ġspecify":9901,"iba":9902,"ĠUniversal":9903,"Ġsurve":9904,"Ġserves":9905,"Ġknock":9906,"Whatever":9907,"Ġpublicity":9908,"holding":9909,"Ġguilders":9910,"Ġannouncing":9911,"Ġemployed":9912,"Ġcontractors":9913,"Ġgrab":9914,"Ġrestated":9915,"Ġ111":9916,"Ġmoder":9917,"Ġopposite":9918,"ĠArrow":9919,"aiden":9920,"Ġdistinct":9921,"Ġaffair":9922,"Ġaffecting":9923,"ĠAllianz":9924,"Ġphase":9925,"Ġregulator":9926,"ĠRepresent":9927,"Ġinstant":9928,"Ġdrops":9929,"Ġdrove":9930,"Ġlatter":9931,"Ġbasically":9932,"ĠMinnesota":9933,"ĠSteve":9934,"ĠCarpenter":9935,"rison":9936,"folk":9937,"Ġcolon":9938,"Ġcondem":9939,"ĠAdvertising":9940,"ĠRevenue":9941,"Ġbroadly":9942,"ĠZenith":9943,"Ġsky":9944,"ĠSeattle":9945,"Ġfavored":9946,"Ġredemption":9947,"Ġgolden":9948,"Ġunclear":9949,"Ġstriking":9950,"ependent":9951,"cribe":9952,"Ġemerge":9953,"Ġattempted":9954,"Ġcampaigns":9955,"Ġblocks":9956,"Ġviolate":9957,"ĠSaudi":9958,"Ġsuffering":9959,"Ġstructured":9960,"Ġpromotions":9961,"ĠQuotron":9962,"Ġsatellite":9963,"Ġrejection":9964,"Ġrolled":9965,"Ġrolling":9966,"Ġanticipate":9967,"Ġpleased":9968,"ĠGlenn":9969,"Ġdrawing":9970,"Ġeliminating":9971,"afe":9972,"Ġabsence":9973,"Ġabsolutely":9974,"Ġlinks":9975,"rooms":9976,"Ġcatalog":9977,"Ġvacc":9978,"Ġshuttle":9979,"eroflot":9980,"Ġconnected":9981,"ĠWilson":9982,"Ġreferred":9983,"Overall":9984,"Ġfrequent":9985,"Ġacknowledges":9986,"Ġarrangements":9987,"ĠEdwards":9988,"ĠIsraeli":9989,"Ġtickets":9990,"Ġjournalists":9991,"Ġcategories":9992,"Ġbureaucracy":9993,"Lawyers":9994,"ĠCFTC":9995,"Ġdeterioration":9996,"Ġlifted":9997,"ĠMaryland":9998,"Ġhedge":9999,"Ġwelcome":10000,"doing":10001,"ĠEarth":10002,"Ġsummit":10003,"ĠAntar":10004,"Ġfurniture":10005,"aughter":10006,"Ġpesticides":10007,"ioneer":10008,"Ġresumed":10009,"Ġidle":10010,"ĠStatistics":10011,"ĠAntonio":10012,"ĠBoesky":10013,"Ġunsuccessful":10014,"Ġrecruit":10015,"ĠKatz":10016,"Ġhazardous":10017,"Economists":10018,"Ġatmosphere":10019,"Ġagenda":10020,"owboys":10021,"systems":10022,"Ġmaneuver":10023,"ĠFoundation":10024,"Ġtremendous":10025,"Ġmortality":10026,"adjusted":10027,"oitte":10028,"ĠNetherlands":10029,"ĠHastings":10030,"550":10031,"Br":10032,"CS":10033,"Cit":10034,"Camp":10035,"Capital":10036,"Democrat":10037,"Eastern":10038,"Few":10039,"Freddie":10040,"Ge":10041,"Gr":10042,"Government":10043,"Jeff":10044,"MI":10045,"Nobody":10046,"Paul":10047,"Rated":10048,"Rather":10049,"Sw":10050,"Val":10051,"cap":10052,"dep":10053,"fat":10054,"fill":10055,"gom":10056,"gle":10057,"john":10058,"lest":10059,"lance":10060,"mo":10061,"nost":10062,"oard":10063,"ogh":10064,"person":10065,"ration":10066,"rap":10067,"rift":10068,"turn":10069,"troller":10070,"uor":10071,"western":10072,"you":10073,"Ġtemb":10074,"Ġtechnologies":10075,"retion":10076,"Ġsister":10077,"Ġcul":10078,"Ġcargo":10079,"organ":10080,"Ġbells":10081,"Ġwider":10082,"Ġwins":10083,"Ġwaves":10084,"Ġphen":10085,"isms":10086,"Ġdry":10087,"Ġdiamond":10088,"Ġlately":10089,"stated":10090,"eting":10091,"Ġnom":10092,"Ġnick":10093,"aying":10094,"ĠCancer":10095,"ĠCircuit":10096,"urances":10097,"ĠMen":10098,"ĠMell":10099,"ĠMoon":10100,"Ġgift":10101,"Ġstolen":10102,"ĠSug":10103,"level":10104,"Ġprolong":10105,"usive":10106,"oto":10107,"osures":10108,"Ġcomptroller":10109,"Ġshout":10110,"ths":10111,"Ġtrick":10112,"Ġalive":10113,"ĠFol":10114,"ĠFTC":10115,"ĠFUN":10116,"ĠPS":10117,"ĠPubl":10118,"ching":10119,"ĠNam":10120,"ĠNFL":10121,"ĠNASA":10122,"ifies":10123,"essed":10124,"Ġunspec":10125,"emex":10126,"ĠJer":10127,"ellow":10128,"ĠGovernment":10129,"ĠLO":10130,"ĠWard":10131,"ĠWach":10132,"Ġabrupt":10133,"oded":10134,"Ġplot":10135,"Ġplate":10136,"Ġincorrect":10137,"anson":10138,"Ġcontact":10139,"Ġjail":10140,"ipher":10141,"Ġnotably":10142,"okes":10143,"ARS":10144,"Ġupd":10145,"ĠIss":10146,"ĠStone":10147,"Ġshared":10148,"owners":10149,"orders":10150,"ĠKu":10151,"ĠKab":10152,"ĠKemp":10153,"Ġroy":10154,"Ġroof":10155,"Ġseize":10156,"Ġsalaries":10157,"Ġking":10158,"ounting":10159,"Ġoverr":10160,"ĠChamber":10161,"Ġconsisting":10162,"Ġdoors":10163,"grap":10164,"Ġ84":10165,"ressive":10166,"Ġenab":10167,"Ġenacted":10168,"Ġ76":10169,"Ġanywhere":10170,"Ġarray":10171,"Ġamended":10172,"Ġlikes":10173,"Ġimpe":10174,"Ġimpression":10175,"Ġregions":10176,"Ġrepeal":10177,"Ġdrilling":10178,"Ġ1996":10179,"Ġ93":10180,"Ġacted":10181,"inded":10182,"Ġsmoke":10183,"Ġsurgery":10184,"Ġconcerning":10185,"Ġdonated":10186,"White":10187,"Ġyielding":10188,"Ġagreeing":10189,"ĠTrading":10190,"Ġfruit":10191,"Ġfraction":10192,"Asked":10193,"Ġemploys":10194,"rolet":10195,"Ġcomputerized":10196,"Ġgranted":10197,"Ġrestored":10198,"Ġmovements":10199,"Ġours":10200,"Ġdisturb":10201,"Ġpromising":10202,"ategic":10203,"Ġpressing":10204,"Ġmatched":10205,"ĠWestinghouse":10206,"ĠMcN":10207,"Ġnonperforming":10208,".).":10209,"Ġlocations":10210,"Ġremainder":10211,"emptions":10212,"Ġadvertise":10213,"Ġexplo":10214,"Ġpassing":10215,"Ġengage":10216,"Ġsuccessfully":10217,"Ġsteelmaker":10218,"ĠGray":10219,"ATO":10220,"Ġ1977":10221,"Ġwidened":10222,"Ġsites":10223,"ĠGreece":10224,"ĠRichmond":10225,"ĠCollege":10226,"Ġoversees":10227,"Ġrebu":10228,"Ġcombine":10229,"ĠAmendment":10230,"drug":10231,"Ġindependence":10232,"ĠSuperv":10233,"contract":10234,"ĠProcter":10235,"Ġautomatic":10236,"Ġpromoting":10237,"Ġcorrec":10238,"Ġreviewing":10239,"Ġunderwriting":10240,"ĠBerkeley":10241,"ASB":10242,"Ġcommissioner":10243,"Ġresponding":10244,"ĠChristian":10245,"Ġpleas":10246,"Ġchallenges":10247,"gersoll":10248,"Ġspreads":10249,"Earnings":10250,"Ġinvestigators":10251,"Ġcorner":10252,"Ġregarded":10253,"ĠLouisville":10254,"Ġdiagn":10255,"Ġperforming":10256,"Ġreinvest":10257,"Ġfunctions":10258,"ĠFlorio":10259,"Ġroads":10260,"Ġregularly":10261,"Ġsupermarket":10262,"Ġwindows":10263,"Ġlicenses":10264,"ĠPalo":10265,"Ġoptical":10266,"Ġbias":10267,"ĠRubicam":10268,"Ġdisplays":10269,"Ġspirit":10270,"consin":10271,"Second":10272,"ĠAviation":10273,"ĠLevine":10274,"Canadian":10275,"ĠFuji":10276,"haust":10277,"Ġhistorical":10278,"Finally":10279,"Ġassessment":10280,"ĠCFCs":10281,"Ġimmune":10282,"Ġstabilize":10283,"Ġmandatory":10284,"Ġcigarette":10285,"Ġsleep":10286,"Ġreopen":10287,"Ġringers":10288,"ĠBronx":10289,"Georgia":10290,"Ġcatastrophic":10291,"IGN":10292,"Ġgathering":10293,"ĠLorenzo":10294,"ĠSwedish":10295,"ĠJacobson":10296,"ĠBethlehem":10297,"Ġqualify":10298,"ĠCraig":10299,"Ġtreasurer":10300,"sponsored":10301,"cohol":10302,"ĠMachinists":10303,"McCaw":10304,"California":10305,"Ġillegally":10306,"Ġcumulative":10307,"Ġphenomen":10308,"ĠFUNDS":10309,"Ġunspecified":10310,"850":10311,"AW":10312,"Aut":10313,"Benz":10314,"Cr":10315,"DO":10316,"Fannie":10317,"Judge":10318,"Let":10319,"Late":10320,"MA":10321,"Mits":10322,"Produc":10323,"RJR":10324,"SI":10325,"Sal":10326,"Ste":10327,"Santa":10328,"UT":10329,"Wed":10330,"Wash":10331,"Where":10332,"aud":10333,"bar":10334,"bage":10335,"bide":10336,"cor":10337,"case":10338,"gence":10339,"hoods":10340,"holm":10341,"jury":10342,"kur":10343,"luent":10344,"pe":10345,"rated":10346,"sim":10347,"town":10348,"wear":10349,"zer":10350,"zech":10351,"Ġtables":10352,"Ġtemper":10353,"Ġtuition":10354,"Ġsank":10355,"Ġcode":10356,"Ġcultural":10357,"Ġblin":10358,"Ġbatt":10359,"itate":10360,"itigation":10361,"edith":10362,"Ġfend":10363,"Ġfool":10364,"Ġfusion":10365,"alm":10366,"Ġmir":10367,"Ġmild":10368,"Ġmills":10369,"Ġinner":10370,"rock":10371,"asy":10372,"Ġdig":10373,"ometer":10374,"ombia":10375,"idency":10376,"Ġlaid":10377,"Ġletting":10378,"Ġreimb":10379,"stance":10380,"stered":10381,"ĠCup":10382,"ĠCities":10383,"ĠCoke":10384,"ĠCowboys":10385,"urse":10386,"Ġforth":10387,"ĠMount":10388,"ĠST":10389,"ĠSut":10390,"ĠSuisse":10391,"irts":10392,"otte":10393,"Ġconce":10394,"ĠBen":10395,"ĠBacker":10396,"ĠBenson":10397,"amford":10398,"Ġheating":10399,"Ġhelic":10400,"occ":10401,"Ġrushed":10402,"Ġrandom":10403,"ules":10404,"Ġalter":10405,"ĠFoster":10406,"ĠPre":10407,"ĠPic":10408,"ĠPas":10409,"cho":10410,"ĠNelson":10411,"ĠTim":10412,"ĠTower":10413,"Ġunr":10414,"Ġunrelated":10415,"ĠDick":10416,"ĠDaly":10417,"Ġvowed":10418,"umn":10419,"uming":10420,"andler":10421,"ĠGil":10422,"ĠGod":10423,"ĠLake":10424,"ĠLind":10425,"ĠHear":10426,"ĠHend":10427,"ĠHDTV":10428,"Ġchances":10429,"ĠRen":10430,"ĠRose":10431,"ĠRalph":10432,"Ġ1975":10433,"ĠEth":10434,"ĠEli":10435,"ĠEPA":10436,"udent":10437,"Ġadap":10438,"Ġadults":10439,"Ġspots":10440,"Ġexposed":10441,"Ġexpired":10442,"ansui":10443,"Ġconting":10444,"Ġcontext":10445,"Ġ---":10446,"Ġnotified":10447,"okh":10448,"Ġupscale":10449,"actory":10450,"Ġbuff":10451,"ĠStamford":10452,"ĠOppenheimer":10453,"Ġrecording":10454,"Ġoutp":10455,"Ġpreserve":10456,"Ġsequ":10457,"Ġinterim":10458,"eyer":10459,"Ġconsiders":10460,"pled":10461,"Ġ78":10462,"Ġanymore":10463,"assette":10464,"Ġarmy":10465,"Ġunderstanding":10466,"Annual":10467,"Ġretre":10468,"Ġexecute":10469,"Ġscience":10470,"ogic":10471,"ogue":10472,"Ġslip":10473,"Health":10474,"onsider":10475,"Ġrepairs":10476,"Ġ1998":10477,"Ġinsol":10478,"Ġ91":10479,"Ġactively":10480,"ftersh":10481,"Ġbrothers":10482,"Ġminic":10483,"Ġcomputing":10484,"Ġbridges":10485,"Ġfederally":10486,"Ġsigning":10487,"Ġcounted":10488,"Ġcounters":10489,"ĠAnders":10490,"Ġlesson":10491,"Ġguard":10492,"ĠMarvin":10493,"Ġgrid":10494,"Ġgrim":10495,"Ġstrongest":10496,"Ġsimpl":10497,"ĠStockholm":10498,"Ġsteam":10499,"Unless":10500,"Str":10501,"ĠAlt":10502,"ĠAlto":10503,"Ġwars":10504,"ĠMeredith":10505,"ĠBros":10506,"rator":10507,"Ġmaturities":10508,"ĠWallach":10509,"Ġcreates":10510,"Ġproposing":10511,"Ġrefr":10512,"155":10513,"ebook":10514,"Ġsweep":10515,"Ġdemanded":10516,"Ġtopic":10517,"Ġtested":10518,"Ġkeeps":10519,"Ġartists":10520,"ĠFinn":10521,"Ġexplaining":10522,"century":10523,"Ġnegotiators":10524,"Ġcolony":10525,"Ġsolve":10526,"Ġsolutions":10527,"annon":10528,"Ġpatient":10529,"ĠBrun":10530,"ĠBruce":10531,"ĠBlum":10532,"Ġsentence":10533,"Ġlaugh":10534,"Ġcareful":10535,"Ġconvention":10536,"Ġquestioned":10537,"bitrage":10538,"Ġ2003":10539,"ĠColeman":10540,"Ġoversee":10541,"Christ":10542,"ĠDeutsche":10543,"ĠPolit":10544,"ĠPolar":10545,"Ġstripped":10546,"Ġstrikes":10547,"ĠGoldberg":10548,"Ġaccepting":10549,"reciation":10550,"Ġintervention":10551,"ĠHarold":10552,"Ġblocking":10553,"Otherwise":10554,"Ġarrived":10555,"Ġfastest":10556,"Ġdesigner":10557,"Ġappearance":10558,"ĠAfghan":10559,"Ġmassage":10560,"Ġmassacre":10561,"Company":10562,"Computer":10563,"emporary":10564,"ĠApplied":10565,"hiba":10566,"Ġfeature":10567,"owski":10568,"Ġradical":10569,"Ġcounterparts":10570,"Ġpoorly":10571,"Ġmarginal":10572,"Ġpopularity":10573,"ĠAccept":10574,"Ġburst":10575,"ominated":10576,"Ġmemor":10577,"Ġunderstood":10578,"Ġconducting":10579,"Ġselect":10580,"hihua":10581,"regon":10582,"Ġrecognition":10583,"Ġmounting":10584,"Ġsuperior":10585,"Ġequaling":10586,"Ġdefinition":10587,"Ġsympt":10588,"Ġignore":10589,"Ġignoring":10590,"Republic":10591,"ĠMetropolitan":10592,"Ġpublishers":10593,"Ġenterprises":10594,"Ġquietly":10595,"Bonds":10596,"Ġestablishment":10597,"party":10598,"Ġconversations":10599,"Ġpsychology":10600,"ĠNicaraguan":10601,"Ġmeantime":10602,"Ġcolumns":10603,"Ġbonus":10604,"product":10605,"Ġparking":10606,"Ġhonest":10607,"ĠJeffrey":10608,"Ġdiseases":10609,"Ġbattery":10610,"Ġpassengers":10611,"ATIONAL":10612,"Ġkicked":10613,"Ġsupervis":10614,"ĠEurocom":10615,"Ġjurors":10616,"Ġaccompan":10617,"George":10618,"ĠVolokh":10619,"Ġcouples":10620,"Ġdiminished":10621,"ĠProfessional":10622,"Ġpregnant":10623,"Typical":10624,"Ġpenny":10625,"Ġdinner":10626,"ĠCommonwealth":10627,"Sometimes":10628,"Ġshifting":10629,"Ġjewelry":10630,"Ġswitched":10631,"callable":10632,"Ġcyclical":10633,"Ġlosers":10634,"Ġaccommodate":10635,"Ġterritory":10636,"ĠDeposit":10637,"ĠHawaii":10638,"ĠLeader":10639,"Ġregistration":10640,"ĠRouge":10641,"Excluding":10642,"Ġderivative":10643,"Ġcabinet":10644,"ĠFemina":10645,"ĠGarcia":10646,"Ġvaccine":10647,"Ġhelicop":10648,"145":10649,"425":10650,"Brown":10651,"Do":10652,"Dou":10653,"East":10654,"Fre":10655,"LIN":10656,"Money":10657,"North":10658,"OC":10659,"Sir":10660,"Work":10661,"bid":10662,"bel":10663,"bot":10664,"bean":10665,"des":10666,"ez":10667,"fast":10668,"fall":10669,"have":10670,"lock":10671,"lie":10672,"nce":10673,"oided":10674,"pson":10675,"prov":10676,"purchase":10677,"squ":10678,"selling":10679,"uh":10680,"uine":10681,"wether":10682,"yen":10683,"Ġrom":10684,"Ġtire":10685,"Ġtie":10686,"Ġtanks":10687,"inity":10688,"erman":10689,"eria":10690,"erating":10691,"Ġsidelines":10692,"anim":10693,"Ġcush":10694,"esis":10695,"atched":10696,"ener":10697,"orf":10698,"orer":10699,"Ġbike":10700,"itach":10701,"edo":10702,"Ġwary":10703,"Ġfilling":10704,"Ġfaith":10705,"Ġpall":10706,"Ġpure":10707,"Ġpeg":10708,"Ġpriz":10709,"alvan":10710,"Ġment":10711,"Ġmoral":10712,"asers":10713,"asnost":10714,"Ġdated":10715,"Ġhide":10716,"enton":10717,"Ġlad":10718,"Ġreaches":10719,"stal":10720,"stand":10721,"ĠCS":10722,"ĠCell":10723,"olly":10724,"olester":10725,"olved":10726,"ĠMather":10727,"ĠMills":10728,"Ġgolf":10729,"Ġstir":10730,"Ġstiff":10731,"Ġstems":10732,"ĠSy":10733,"ĠSat":10734,"ĠSis":10735,"ĠSid":10736,"ĠSyd":10737,"unct":10738,"unned":10739,"ested":10740,"igy":10741,"usal":10742,"ĠAer":10743,"ĠBou":10744,"ĠBir":10745,"ĠBass":10746,"Ġcomponents":10747,"aky":10748,"akers":10749,"ĠFer":10750,"ĠFilip":10751,"ĠPap":10752,"ĠProduc":10753,"ĠNu":10754,"ĠDeb":10755,"ĠDella":10756,"ĠJay":10757,"enders":10758,"ellent":10759,"ĠGrad":10760,"ĠLone":10761,"ĠLDP":10762,"ĠLotus":10763,"ĠHamb":10764,"Ġoffsh":10765,"ĠWy":10766,"ĠWaste":10767,"about":10768,"abeth":10769,"oda":10770,"ĠIngersoll":10771,"istical":10772,"Ġleases":10773,"Ġcontended":10774,"ipt":10775,"Ġinvited":10776,"ereg":10777,"Ġnotebook":10778,"ĠStras":10779,"ĠOw":10780,"erally":10781,"Ġgroc":10782,"rency":10783,"ĠKas":10784,"ĠKoch":10785,"ĠKohl":10786,"ĠKellogg":10787,"Ġseized":10788,"Ġinterstate":10789,"Ġinterbank":10790,"Ġapples":10791,"Ġdeciding":10792,"ailing":10793,"Ġoverd":10794,"achment":10795,"Ġ83":10796,"Ġ86":10797,"msley":10798,"Ġenv":10799,"luded":10800,"assador":10801,"ashua":10802,"Ġamend":10803,"adeau":10804,"Ġslashed":10805,"Ġdefended":10806,"Ġdefined":10807,"Ġdefaults":10808,"Ġdrivers":10809,"Ġdiscretion":10810,"Ġflash":10811,"Ġflows":10812,"Ġdebacle":10813,"Ġspeculated":10814,"Ġcrush":10815,"ĠUnisys":10816,"Ġtransfers":10817,"Ġdesert":10818,"Ġminimal":10819,"Ġsurren":10820,"Ġbidder":10821,"Ġsheets":10822,"Ġadvisory":10823,"henbaum":10824,"Ġknocked":10825,"ĠIndosuez":10826,"meg":10827,"ĠAnthony":10828,"verted":10829,"Ġdealership":10830,"Ġreceiv":10831,"lington":10832,"ronic":10833,"azda":10834,"ĠAlfred":10835,"ĠManila":10836,"unicipals":10837,"Ġavoided":10838,"Ġorderly":10839,"Ġparall":10840,"Ġsomewhere":10841,"Ġgaining":10842,"ĠConner":10843,"Ġfoundation":10844,"Ġwrites":10845,"Ġrestructured":10846,"Ġsuggestions":10847,"Ġrequirement":10848,"Ġpackaged":10849,"Ġsooner":10850,"Ġpublishes":10851,"ĠContra":10852,"ĠBarn":10853,"Chairman":10854,"ĠBeers":10855,"ĠAmster":10856,"ĠDeloitte":10857,"ĠSalv":10858,"Ġviolence":10859,"Individual":10860,"Ġliquor":10861,"Ġurge":10862,"Ġengineered":10863,"Ġcongressman":10864,"Probe":10865,"Ġprosper":10866,"Ġattracting":10867,"Ġerror":10868,"Ġunsett":10869,"Ġdesigns":10870,"Ġborrowings":10871,"Ġpromotional":10872,"innie":10873,"Ġconservatives":10874,"Ġbanning":10875,"olidarity":10876,"Ġshipyard":10877,"Ġmarried":10878,"Ġdisputes":10879,"Ġdisputed":10880,"Ġmaintaining":10881,"Ġinfluential":10882,"Ġwrongdoing":10883,"ĠAcad":10884,"ĠAchenbaum":10885,"Ġresearcher":10886,"Ġvacant":10887,"ĠGreenwich":10888,"ĠMilton":10889,"Ġdeeply":10890,"computer":10891,"Ġbargains":10892,"Ġprotesters":10893,"ĠPalestin":10894,"Ġdissident":10895,"ĠConserv":10896,"Ġchoices":10897,"ĠEmploy":10898,"Ġsubmit":10899,"Ġapartheid":10900,"Ġunwilling":10901,"Ġhouseholds":10902,"ĠBrooklyn":10903,"Ġobjectives":10904,"Ġabandon":10905,"ĠKingdom":10906,"Ġroutine":10907,"Ġsqueezed":10908,"Scott":10909,"Common":10910,"Ġescape":10911,"Ġinnoc":10912,"Ġinterpreted":10913,"Ġbattered":10914,"Ġexpertise":10915,"Ġcrowded":10916,"Ġelev":10917,"Ġreopened":10918,"Ġsuperconduct":10919,"Ġsupercomputer":10920,"Ġwitnesses":10921,"Ġanxiety":10922,"ĠCathay":10923,"ĠBernstein":10924,"Ġunexpectedly":10925,"Ġbellwether":10926,"Ġconstantly":10927,"Ġpostpone":10928,"umbered":10929,"Texas":10930,"Ġenthusi":10931,"ĠQuebecor":10932,"Ġassassination":10933,"Ġdubbed":10934,"Ġhybr":10935,"ĠLexus":10936,"appointed":10937,"Ġunconstitutional":10938,"Employ":10939,"eebok":10940,"ĠTurkey":10941,"Ġmicroprocessor":10942,"Similarly":10943,"ĠZurich":10944,"ĠSemel":10945,"aidenform":10946,"Ġprolonged":10947,"ĠNamib":10948,"Washington":10949,"ĠPolaroid":10950,"ĠAcceptance":10951,"Ġcushion":10952,"itachi":10953,"olesterol":10954,"ĠSydney":10955,"ĠAmsterdam":10956,"Bo":10957,"Crit":10958,"CNB":10959,"DB":10960,"Dem":10961,"Dep":10962,"ET":10963,"Follow":10964,"Fees":10965,"Given":10966,"House":10967,"Having":10968,"ILL":10969,"Imp":10970,"Long":10971,"Lloyd":10972,"Me":10973,"Mid":10974,"Merc":10975,"None":10976,"Negoti":10977,"OK":10978,"PC":10979,"Right":10980,"Sept":10981,"Sterling":10982,"ZT":10983,"aire":10984,"bust":10985,"bury":10986,"does":10987,"even":10988,"fair":10989,"gar":10990,"hm":10991,"hon":10992,"horn":10993,"jud":10994,"lif":10995,"peco":10996,"ses":10997,"tra":10998,"view":10999,"wit":11000,"xy":11001,"Ġtack":11002,"Ġtension":11003,"Ġtaste":11004,"Ġaro":11005,"inations":11006,"erb":11007,"onough":11008,"Ġsessions":11009,"anes":11010,"Ġbold":11011,"Ġbetting":11012,"itively":11013,"itudes":11014,"Ġwed":11015,"Ġwoo":11016,"Ġfares":11017,"alcon":11018,"ingers":11019,"ingell":11020,"Ġinher":11021,"Ġtopped":11022,"icate":11023,"icits":11024,"iciary":11025,"ilization":11026,"asks":11027,"Ġdance":11028,"Ġdynam":11029,"Ġdaughter":11030,"Ġdereg":11031,"Ġhid":11032,"Ġthick":11033,"Ġlin":11034,"stop":11035,"etch":11036,"ĠCin":11037,"ĠChen":11038,"urally":11039,"ĠMack":11040,"ĠMobil":11041,"Ġgau":11042,"Ġstages":11043,"ĠSol":11044,"ĠSub":11045,"ĠSDI":11046,"ĠSaks":11047,"unted":11048,"leans":11049,"estro":11050,"estle":11051,"igo":11052,"owitz":11053,"Ġprod":11054,"tery":11055,"Ġsag":11056,"Ġsaving":11057,"ĠAeroflot":11058,"ĠBork":11059,"ĠBally":11060,"ĠBenn":11061,"agg":11062,"Ġcompare":11063,"Ġshore":11064,"Ġshoot":11065,"Ġhem":11066,"Ġexhaust":11067,"ulence":11068,"aints":11069,"Ġtruly":11070,"Ġally":11071,"ĠFle":11072,"ĠFab":11073,"ĠPeople":11074,"ĠPizza":11075,"ĠPemex":11076,"ĠNR":11077,"ĠNippon":11078,"ĠNCNB":11079,"Ġdepl":11080,"ivision":11081,"orted":11082,"ĠTW":11083,"ĠTrib":11084,"ĠDole":11085,"ĠJerry":11086,"Ġhaul":11087,"ĠGab":11088,"ĠLab":11089,"ĠHess":11090,"ĠHoff":11091,"ĠHBO":11092,"ĠHudson":11093,"ĠHonda":11094,"Ġchunk":11095,"Ġchannel":11096,"Ġcholesterol":11097,"ĠRap":11098,"ĠRenaissance":11099,"ĠWhe":11100,"abinsky":11101,"ĠEs":11102,"ĠEll":11103,"ĠEagle":11104,"oping":11105,"ĠInstr":11106,"Ġplat":11107,"Ġspends":11108,"Ġincorpor":11109,"Ġcontempl":11110,"Ġresorts":11111,"Ġindicted":11112,"okyu":11113,"ported":11114,"porting":11115,"ĠIron":11116,"ĠOre":11117,"Ġrecre":11118,"Ġreconsider":11119,"Ġoutcry":11120,"izabeth":11121,"Ġpresidency":11122,"Ġseiz":11123,"Ġfines":11124,"Ġfinish":11125,"Ġimminent":11126,"Ġdecides":11127,"liver":11128,"ĠYank":11129,"ĠYale":11130,"Ġperceived":11131,"Ġaccum":11132,"ishita":11133,"Ġmeat":11134,"Ġmega":11135,"ecutives":11136,"Ġassigned":11137,"overed":11138,"Ġsalesman":11139,"Ġstrain":11140,"Ġissuing":11141,"Ġpresidents":11142,"Ġamaz":11143,"Ġsubstance":11144,"Ġscut":11145,"Ġscore":11146,"Ġscared":11147,"Ġproper":11148,"eopard":11149,"ĠView":11150,"Ġhighlight":11151,"Ġthereafter":11152,"Ġdrain":11153,"Ġdrama":11154,"amps":11155,"Ġactor":11156,"Ġcarbon":11157,"Ġcarpet":11158,"Ġprovider":11159,"Ġemissions":11160,"Ġgrows":11161,"Ġgrowers":11162,"Ġtransm":11163,"Ġdepress":11164,"Ġbrings":11165,"appropri":11166,"Ġadvising":11167,"Ġauthors":11168,"ĠAnn":11169,"Ġspoke":11170,"Ġentering":11171,"Ġevident":11172,"Ġreceives":11173,"Ġheading":11174,"Atlant":11175,"azard":11176,"azine":11177,"Ġseconds":11178,"ynex":11179,"Ġchem":11180,"ĠAirport":11181,"Along":11182,"Ġphones":11183,"Ġantib":11184,"ufacturing":11185,"Ġeditors":11186,"Ġpersonally":11187,"ierra":11188,"Ġsettling":11189,"ĠMcL":11190,"entials":11191,"Ġcollabor":11192,"efin":11193,"lessly":11194,"Ġmanufacture":11195,"Ġmanufactured":11196,"ĠSharp":11197,"ĠFinland":11198,"emple":11199,"Ġexplore":11200,"Ġpassage":11201,"ĠCarbide":11202,"ĠMorishita":11203,"ĠDecker":11204,"ĠSpace":11205,"Ġsinger":11206,"ĠTelecommunications":11207,"Ġreader":11208,"Ġcommercials":11209,"folio":11210,"ĠBristol":11211,"ĠGrace":11212,"Ġ1978":11213,"oppers":11214,"ĠShell":11215,"ĠBarb":11216,"ĠColomb":11217,"ĠOrder":11218,"ĠOrleans":11219,"Ġpreference":11220,"Ġcope":11221,"Ġredemptions":11222,"cribed":11223,"Ġcancel":11224,"ĠSmall":11225,"Ġdistribute":11226,"prof":11227,"Ġfreeway":11228,"Ġestablishing":11229,"Ġhotels":11230,"Americans":11231,"Ġtechniques":11232,"Compaq":11233,"ĠValue":11234,"Ġapiece":11235,"learly":11236,"ĠMonetary":11237,"ĠMacmillan":11238,"Ġprosecution":11239,"ĠHughes":11240,"Ġpursuit":11241,"ĠGuarant":11242,"diction":11243,"Ġbottle":11244,"Ġinvestigations":11245,"Ġlearning":11246,"ĠLouisiana":11247,"front":11248,"Ġmemo":11249,"Ġminds":11250,"Ġspeculative":11251,"Ġinitiatives":11252,"ĠMcDonough":11253,"ĠMonte":11254,"Ġslipping":11255,"Ġdissent":11256,"Ġobserved":11257,"Ġlaunching":11258,"Myers":11259,"Ġcasting":11260,"Ġintegration":11261,"ĠWeis":11262,"Ġrepeat":11263,"ĠEmb":11264,"Ġsatisfy":11265,"Ġsatisfied":11266,"Ġsatisfaction":11267,"ĠFrederick":11268,"Ġstemmed":11269,"ĠIndianapolis":11270,"Ġneighborhoods":11271,"ĠMajority":11272,"iatric":11273,"Ġobjective":11274,"Ġexistence":11275,"Ġrecommendation":11276,"Ġlabel":11277,"atinum":11278,"Ġgeneric":11279,"Ġremoving":11280,"Ġbolstered":11281,"Ġannouncements":11282,"Ġmagnetic":11283,"production":11284,"ipei":11285,"guided":11286,"ĠCarlos":11287,"Ġsponsor":11288,"Ġinterpretation":11289,"Ġbasketball":11290,"Ġtumor":11291,"Ġcopyright":11292,"Ġoccasionally":11293,"ĠASSO":11294,"ĠWathen":11295,"ydro":11296,"Ġtextile":11297,"Ġaccompany":11298,"Ġquantities":11299,"Ġpostponed":11300,"Ġsweetened":11301,"ĠMadison":11302,"Interest":11303,"ĠWellington":11304,"ĠArkansas":11305,"ĠHotel":11306,"ĠRaymond":11307,"ĠChevrolet":11308,"ĠCuba":11309,"Ġexplosion":11310,"ĠWisconsin":11311,"Ġaverages":11312,"Ġmedicine":11313,"IBOR":11314,"ĠDataproducts":11315,"Ġfrozen":11316,"Ġoverwhelming":11317,"Ġhampered":11318,"ĠFAA":11319,"Ġvirus":11320,"Ġempire":11321,"Previously":11322,"Ġhammer":11323,"Ġdiscrepancies":11324,"limit":11325,"elihood":11326,"ĠGardens":11327,"Ġwisdom":11328,"Ġinadequate":11329,"Ġunnecessary":11330,"Retail":11331,"Ġsacr":11332,"Geigy":11333,"Ġtemblor":11334,"ĠIssues":11335,"ĠKabul":11336,"Ġimpeachment":11337,"Ġphenomenon":11338,"Ġinsolvent":11339,"ĠASSOCI":11340,"140":11341,"475":11342,"Ac":11343,"City":11344,"Cray":11345,"Day":11346,"EP":11347,"Gl":11348,"Great":11349,"Har":11350,"IH":11351,"Kidder":11352,"Micro":11353,"NO":11354,"Nothing":11355,"Ob":11356,"Rev":11357,"Sil":11358,"Western":11359,"Year":11360,"auty":11361,"cer":11362,"col":11363,"city":11364,"cott":11365,"don":11366,"dro":11367,"door":11368,"gro":11369,"gain":11370,"nad":11371,"nation":11372,"nik":11373,"neg":11374,"piece":11375,"rage":11376,"rary":11377,"significant":11378,"tt":11379,"tick":11380,"uated":11381,"uating":11382,"uise":11383,"waste":11384,"xide":11385,"zoil":11386,"zhihua":11387,"},":11388,"Ġtreasury":11389,"Ġtissue":11390,"Ġtasks":11391,"Ġaftersh":11392,"inos":11393,"inely":11394,"help":11395,"erox":11396,"Ġsid":11397,"Ġsour":11398,"Ġsink":11399,"Ġcer":11400,"Ġcro":11401,"Ġbour":11402,"Ġboy":11403,"itarian":11404,"arbitrage":11405,"Ġfought":11406,"Ġfancy":11407,"Ġmush":11408,"isive":11409,"isable":11410,"ros":11411,"roft":11412,"icism":11413,"icyc":11414,"ilateral":11415,"ashes":11416,"Ġdust":11417,"Ġhunt":11418,"Ġhitting":11419,"Ġholiday":11420,"Ġthanks":11421,"Ġthorough":11422,"Ġreactions":11423,"Ġnose":11424,"Ġneck":11425,"Ġniche":11426,"ayed":11427,"ayers":11428,"ĠColl":11429,"ĠCirc":11430,"aden":11431,"Ġgent":11432,"Ġsty":11433,"ĠSur":11434,"ĠStern":11435,"ĠSoup":11436,"ĠSolidarity":11437,"union":11438,"Ġ170":11439,"lean":11440,"Ġcomic":11441,"Ġcomeb":11442,"Ġbears":11443,"Ġproof":11444,"uso":11445,"oshi":11446,"earning":11447,"ĠAZT":11448,"ĠBry":11449,"ĠBuff":11450,"ĠBrian":11451,"Ġcomply":11452,"Ġhes":11453,"Ins":11454,"Ġric":11455,"Ġrice":11456,"ulin":11457,"ulatory":11458,"rome":11459,"Ġaltogether":11460,"Ġalcohol":11461,"ĠForest":11462,"ĠPCs":11463,"essing":11464,"ĠTw":11465,"Ġunif":11466,"Ġunanim":11467,"ĠDi":11468,"ĠDal":11469,"ĠDES":11470,"ĠDingell":11471,"Ġvess":11472,"Ġvision":11473,"ellate":11474,"ĠGould":11475,"ĠGerald":11476,"ĠGAF":11477,"Ġchairs":11478,"ĠRand":11479,"ĠReebok":11480,"Ġ1950":11481,"ĠEmer":11482,"Ġabol":11483,"arted":11484,"Ġplain":11485,"Ġspy":11486,"Ġ270":11487,"eplex":11488,"Ġjeopard":11489,"Ġresemb":11490,"Ġclause":11491,"riage":11492,"riev":11493,"active":11494,"Ġbuzz":11495,"ĠINT":11496,"Ġopens":11497,"ordon":11498,"awn":11499,"ĠKir":11500,"Ġdecent":11501,"ovich":11502,"aved":11503,"Ġconsists":11504,"argin":11505,"Thomas":11506,"ika":11507,"iko":11508,"Ġcommunist":11509,"ashi":11510,"Ġsubjects":11511,"Ġretains":11512,"orne":11513,"Ġbooming":11514,"Ġpropag":11515,"ickers":11516,"Ġslack":11517,"Ġimpending":11518,"raham":11519,"ĠVoice":11520,"Ġinsiders":11521,"Ġ96":11522,"inds":11523,"Ġgenuine":11524,"ibank":11525,"Ġtransition":11526,"Ġrelating":11527,"roved":11528,"Ġdepreciation":11529,"ĠBankAmerica":11530,"omputers":11531,"Ġairing":11532,"Ġraider":11533,"Ġ129":11534,"ologist":11535,"Ġreduces":11536,"Ġobviously":11537,"Ġhanded":11538,"they":11539,"incent":11540,"Ġspecializes":11541,"Ġreturning":11542,"ĠArts":11543,"ĠArby":11544,"Unfortunately":11545,"Ġaffluent":11546,"Ġcentennial":11547,"aimler":11548,"Ġtalent":11549,"Ġsenator":11550,"Ġseemingly":11551,"Ġordering":11552,"Ġnonetheless":11553,"Ġsometime":11554,"works":11555,"Ġteen":11556,"Ġartific":11557,"ĠShannon":11558,"ĠTexaco":11559,"aux":11560,"auld":11561,"ĠSouthwest":11562,"ĠSpiegel":11563,"Ġwriters":11564,"Ġplunging":11565,"ĠTelevision":11566,"Ġmidnight":11567,"ĠPeterson":11568,"Ġpredecess":11569,"Ġglasnost":11570,"Ġpatents":11571,"Ġcapable":11572,"Ġboosts":11573,"Ġskin":11574,"Ġskid":11575,"ĠCompany":11576,"ATES":11577,"Ġreasonably":11578,"ĠTVA":11579,"oppy":11580,"ĠRichter":11581,"ĠBarcl":11582,"Ġ2004":11583,"ĠColombia":11584,"ĠEdelman":11585,"Ġdeval":11586,"Ġfavors":11587,"Ġwinners":11588,"ĠDelicious":11589,"Ġvari":11590,"Ġvisits":11591,"Ġreleases":11592,"beat":11593,"Ġacceptable":11594,"recurring":11595,"Ġpremier":11596,"ĠHarry":11597,"Ġdoubling":11598,"Ġproceeding":11599,"amaichi":11600,"Ġinterviews":11601,"ĠPanzhihua":11602,"Ġdepositary":11603,"Ġaudiences":11604,"Ġdisappear":11605,"Ġliquidation":11606,"Ġexclude":11607,"Ġclimbing":11608,"Shares":11609,"ĠMotorola":11610,"Ġsurely":11611,"Exxon":11612,"NCNB":11613,"ĠChristie":11614,"USX":11615,"Ġrecommends":11616,"Ġinfr":11617,"Ġsynthe":11618,"Ġsnapped":11619,"Ġchallenged":11620,"ĠHealthVest":11621,"crash":11622,"Ġmisleading":11623,"Ġdisappointment":11624,"bridge":11625,"Ġcement":11626,"trade":11627,"ĠSimpson":11628,"Ġburd":11629,"Ġdiab":11630,"Ġvacation":11631,"buro":11632,"Ġdescribes":11633,"Ġprompting":11634,"Ġpromptly":11635,"Ġbullet":11636,"ography":11637,"lawyer":11638,"Ġwithdrawn":11639,"equity":11640,"Ġharsh":11641,"Ġscandals":11642,"attered":11643,"Ġsurvival":11644,"razy":11645,"company":11646,"Ġphoto":11647,"Ġphotos":11648,"ĠLaboratories":11649,"Ġranges":11650,"Ġranged":11651,"Ġintegrity":11652,"Ġpulling":11653,"Ġsettlements":11654,"McG":11655,"Everyone":11656,"banking":11657,"Contra":11658,"Ġtourist":11659,"Ġtourism":11660,"Ġcrops":11661,"ĠStatesWest":11662,"Ġconsolidation":11663,"Ġsustain":11664,"ĠHungarian":11665,"parov":11666,"Ġcycles":11667,"ĠBuick":11668,"vardnad":11669,"Philip":11670,"Ġoptimism":11671,"ĠMurray":11672,"Ġphysical":11673,"Ġphysician":11674,"DIS":11675,"ĠHartford":11676,"Ġsponsors":11677,"Ġevaluation":11678,"Ġevaluate":11679,"Ġdepository":11680,"Ġdeteriorating":11681,"Markets":11682,"Ġowes":11683,"Ġtumble":11684,"Ġmethods":11685,"ĠHeritage":11686,"Ġinquiries":11687,"December":11688,"ĠCambod":11689,"Ġwearing":11690,"Ġanxious":11691,"Ġgallery":11692,"Ġethn":11693,"ĠRobinson":11694,"Ġseeds":11695,"Ġsemian":11696,"ĠCharlotte":11697,"Apple":11698,"ĠBanque":11699,"Ġreveal":11700,"ĠErn":11701,"Ġscholar":11702,"Ġdefeat":11703,"ĠChevron":11704,"dealer":11705,"Ġexhibition":11706,"ĠKravis":11707,"Chemical":11708,"Ġtactics":11709,"Ġasserted":11710,"Ġtransplants":11711,"Ġvoluntary":11712,"Ġfolks":11713,"Ġtoxic":11714,"ĠTaipei":11715,"biggest":11716,"ĠNotes":11717,"Ġsuburban":11718,"onnais":11719,"ĠAustin":11720,"ĠTRUST":11721,"ĠLyonnais":11722,"Ġlegitimate":11723,"Ġscrutiny":11724,"Ġprivilege":11725,"ĠSafety":11726,"Ġanimals":11727,"ĠKhmer":11728,"substantial":11729,"European":11730,"ĠMargaret":11731,"ĠBrewing":11732,"Ġfertil":11733,"Ġimbalances":11734,"roperty":11735,"CSF":11736,"gomery":11737,"ĠSugarman":11738,"ĠSupervision":11739,"Mitsubishi":11740,"Annualized":11741,"Ġsymptoms":11742,"ĠCellular":11743,"ĠSisulu":11744,"ĠKasparov":11745,"Ġhidden":11746,"Ġgauge":11747,"ĠHoffman":11748,"Ġcomeback":11749,"ĠINTER":11750,"vardnadze":11751,"Bar":11752,"Baker":11753,"Conn":11754,"Du":11755,"Dre":11756,"Det":11757,"Dollar":11758,"EL":11759,"Fl":11760,"Fund":11761,"FER":11762,"Futures":11763,"Jack":11764,"Labor":11765,"Mo":11766,"Max":11767,"MCA":11768,"Reg":11769,"Sup":11770,"Scribe":11771,"TT":11772,"Takeover":11773,"World":11774,"aired":11775,"cot":11776,"cili":11777,"circuit":11778,"dner":11779,"dled":11780,"four":11781,"fere":11782,"family":11783,"fizer":11784,"gling":11785,"iors":11786,"iated":11787,"ji":11788,"kee":11789,"laim":11790,"name":11791,"po":11792,"pin":11793,"some":11794,"tains":11795,"takeover":11796,"uels":11797,"vale":11798,"viol":11799,"zing":11800,"zheim":11801,"Ġtun":11802,"Ġtip":11803,"Ġtends":11804,"Ġtempt":11805,"Ġtabl":11806,"Ġastr":11807,"erious":11808,"erick":11809,"only":11810,"reen":11811,"reform":11812,"Ġcere":11813,"atre":11814,"atible":11815,"atrice":11816,"enius":11817,"orate":11818,"oria":11819,"Ġwines":11820,"Ġwestern":11821,"Ġwrec":11822,"array":11823,"Ġfate":11824,"Ġfinger":11825,"Ġfiber":11826,"Ġperv":11827,"Ġpills":11828,"ingu":11829,"Ġmile":11830,"Ġink":11831,"isure":11832,"Ġtow":11833,"ilder":11834,"Ġdive":11835,"Ġhall":11836,"Ġhook":11837,"Ġthrowing":11838,"Ġthwart":11839,"ĠCa":11840,"ĠCam":11841,"ĠCzech":11842,"acles":11843,"ĠMus":11844,"Ġgifts":11845,"Ġstaged":11846,"Ġstalled":11847,"Ġitem":11848,"Ġ110":11849,"Ġongoing":11850,"Ġbeaut":11851,"Ġproven":11852,"Ġproportion":11853,"Ġproclaim":11854,"imental":11855,"uson":11856,"Ġyes":11857,"resdner":11858,"Ġconstitute":11859,"ĠAC":11860,"ĠAvery":11861,"ĠBy":11862,"ĠBon":11863,"ĠBonn":11864,"ĠBoyd":11865,"agen":11866,"Ġcomprehensive":11867,"Ġshaken":11868,"Ġhell":11869,"Ġrer":11870,"Ġriding":11871,"hers":11872,"aki":11873,"akistan":11874,"ĠFult":11875,"ĠPret":11876,"ĠPAS":11877,"ĠPope":11878,"chief":11879,"ĠNL":11880,"ĠNow":11881,"ĠNob":11882,"ĠNaz":11883,"ĠNSC":11884,"ĠNIH":11885,"ivated":11886,"ĠTol":11887,"ĠTown":11888,"ĠTamp":11889,"ĠTerry":11890,"ĠDill":11891,"ĠDem":11892,"ĠDell":11893,"ĠDealers":11894,"Ġvend":11895,"Ġvans":11896,"Ġvital":11897,"Ġvocal":11898,"umble":11899,"emble":11900,"ĠGordon":11901,"ĠLipper":11902,"ĠRU":11903,"ĠRy":11904,"ĠRie":11905,"ĠRead":11906,"ĠRochester":11907,"Ġmarketer":11908,"ĠInternal":11909,"Ġincomp":11910,"Ġinches":11911,"Ġjack":11912,"irement":11913,"Ġnoticed":11914,"ripp":11915,"ighted":11916,"ĠIv":11917,"ĠOregon":11918,"Ġrecip":11919,"erals":11920,"Ġintrad":11921,"ĠKay":11922,"ĠKnight":11923,"Ġpreserv":11924,"Ġsea":11925,"Ġappet":11926,"Ġimages":11927,"Ġoverhead":11928,"ĠYam":11929,"Ġconsc":11930,"consc":11931,"Ġperestro":11932,"Ġsoaring":11933,"ugs":11934,"Ġ486":11935,"Ġassured":11936,"Ġasserts":11937,"ertz":11938,"Ġsalesmen":11939,"Ġsalespeople":11940,"Ġpride":11941,"Ġscaled":11942,"Ġendorse":11943,"Ġpropose":11944,"Ġslated":11945,"Ġregain":11946,"Ġdefl":11947,"Ġdeficits":11948,"Ġthereby":11949,"ildren":11950,"ernand":11951,"Ġlongstanding":11952,"Ġprovince":11953,"pty":11954,"eptive":11955,"Ġjustice":11956,"mined":11957,"Ġdepr":11958,"Ġshell":11959,"Ġadvise":11960,"Ġwells":11961,"sharing":11962,"Ġbilling":11963,"Ġcounting":11964,"ĠAngl":11965,"ĠAnheuser":11966,"ĠThis":11967,"ĠThrift":11968,"Ġlowering":11969,"olumbus":11970,"Ġnewsprint":11971,"ĠBook":11972,"Ġherself":11973,"Ġdemanding":11974,"Ġseverely":11975,"ersonal":11976,"Ġcontracted":11977,"Ġgray":11978,"Ġextr":11979,"incial":11980,"Ġopenly":11981,"Ġrevived":11982,"ĠArnold":11983,"Ġcheating":11984,"Union":11985,"ĠEnd":11986,"Ġmerit":11987,"Ġwarming":11988,"Ġwarns":11989,"Ġwarnings":11990,"Ġshortages":11991,"Ġteleph":11992,"ĠSanford":11993,"Ġportable":11994,"Ġswing":11995,"Ġprotecting":11996,"workers":11997,"Ġsubsidized":11998,"Ġtea":11999}